#version: 0.2 - Trained by `huggingface/tokenizers`
Ġ Ġ
o r
ĠĠ ĠĠ
ĠĠ Ġ
i n
e r
> <
m p
o n
or t
s e
r e
i mp
imp ort
r o
Ġ t
a t
s t
e n
d e
ĠĠĠĠ ĠĠĠ
" "
Ġ a
ro m
f rom
l e
Ġ import
t i
Ġ =
: <
h e
a l
Ġ p
Ġ c
a n
) <
m e
_ _
in g
Ġ re
a r
i t
Ġ f
s s
u r
Ġ d
g e
- -
Ġ s
) :<
se l
sel f
" <
i s
u t
Ġ o
Ġt he
ti on
a c
Ġ in
de f
i on
i c
l o
l s
l a
. <
Ġ b
c o
Ġ "
e d
Ġ n
, <
> #
"" "<
i st
Ġ w
u n
e s
a me
e x
en t
f i
Ġ T
e c
Ġ m
i d
a d
t er
y p
g o
c e
Ġ def
ur n
u e
t urn
r i
t h
u ti
r or
a se
t o
Ġt o
-- --
Ġc o
l i
Ġre turn
er s
Ġ (
Ġ self
la ss
i l
u p
o t
Ġ i
uti ls
st r
Ġf or
at e
a ge
j an
jan go
Ġa n
Ġ is
r ror
Ġ '
ge t
a p
Ġ -
Ġ S
ĠĠĠĠ ĠĠĠĠĠĠĠ
Ġa s
E rror
. _
l t
Ġ P
o l
c lass
a b
i p
Ġ C
Ġ #
Ġ N
ac k
an d
Ġ __
p tion
m ent
e l
h t
o de
at ion
Ġ D
i le
on e
Ġ A
in t
Ġt h
Ġo f
c on
Ġ I
a s
Ġd jango
Ġ L
A T
s er
n ame
ec t
se t
s p
p ro
t r
Ġan d
Ġ .
g g
O R
"" "
c h
Ġ v
en d
ers ion
Ġ _
al l
c tion
Ġp ip
it h
Ġ """<
yp e
( )
e t
o d
__ (
Ġi f
Ġ r
b u
Ġ `
Ġ l
Ġ u
Ġc on
u re
] <
m m
R e
Ġ F
a m
~ ~
---- ----
Ġ lo
li b
k e
Ġ <
j ect
ter n
i z
q ue
f or
u b
ex t
t p
m a
Ġ from
Ġf ile
at h
Ġp ro
at a
v e
Ġ str
Ġ de
" ,
p t
Ġ M
p er
y s
Ġ U
Ġ get
mm and
i re
que st
v er
fi g
t e
( )<
d er
q u
y th
Ġ G
ht tp
p ut
Ġ g
Ġd ist
Ġ h
a i
c k
u m
in it
u l
ro id
lt roid
( "
p ar
Ġ B
d ing
â ĸ
se d
yth on
ex ce
ĠN one
or e
tern al
' ,
g s
OR M
Ġ e
Ġ un
F ORM
Ġ- >
ur l
> """<
Ġ """
Ġ 2
/ /
ic en
Ġ [
Ġo s
FORM AT
Ġ me
" ,<
i g
in ternal
l y
r int
b ject
Ġ O
Ġ *
ic t
Ġb e
ab le
: //
ac he
Ġ it
Ġ set
c t
h is
ss age
p y
u lt
Ġn ot
fi le
Ġp ar
Ġw ith
p re
ap p
U ltroid
ri b
Ġ or
Ġ H
v al
Ġw h
ĠC o
en er
Ġb y
o ls
ption s
I n
M E
Ġ E
th er
o ur
i r
m at
el d
http s
i f
u le
pro to
i me
ĠĠĠĠ ĠĠĠĠ
ing s
gg ing
" )<
od ule
icen se
p ack
Ġ st
Ġdist utils
s c
o w
O N
o ut
co de
to ols
o ol
( '
C on
. __
v ersion
Ġt ype
co m
t a
Ġs ys
S E
Ġ se
lo w
co mp
iz e
le ction
p o
' <
end or
Ġn ame
Ġ Re
le ment
Ġth is
Ġth at
Ġ 1
0 0
. """<
ĠT his
E N
a y
f er
Ġ on
st all
at or
at ed
con t
) )<
yp ing
lo ad
la b
it e
Ġco mp
ĠI n
i x
f o
ti me
Ġlo gging
ar n
I N
ar gs
ut e
a ss
v endor
qu ire
a re
Ġa l
Ġp rint
an ge
un ction
ut ure
m s
` <
Ġ en
âĸ Ī
p ath
e w
bu f
Ġ V
u s
er ror
~~ ~~
r ue
Ġa b
gg er
c s
i v
Ġ y
i eld
l it
o g
> â
Ġin t
s ol
Ġ :
Ġt e
p ort
al se
-------- --------
a g
Ġ go
ĠP ython
o k
n t
Ġv al
at ab
Ġs h
atab ase
Ġ +
er e
ĠT he
g ht
c he
Ġ 0
Ġco l
ke y
' )<
d b
i m
Ġ ex
* -
Ġt yping
Ġ- *-
f uture
Ġm a
st an
og le
AT E
or y
t ext
Ġco de
m b
b ase
Ġs o
ac e
ri ght
C H
T I
tr y
s on
Ġo bject
exce pt
Ġ W
Ġ url
ption al
il d
Ġgo ogle
in put
a ult
Ġp ass
Ġpro to
Ġa re
m ode
Ģ ¢
Ġ {
co l
ĠL icense
C K
ut f
Ġm odule
v i
in d
j son
mp l
un d
proto buf
Ġo ther
E x
Ġre quest
e am
eam Ultroid
re ad
par se
N one
d o
ac t
re e
yp es
I C
d ist
p ec
Ġp ack
D ATE
Ġ https
Ġt ime
Ġl ist
Ġc h
Ġb u
re s
for m
Ġd ate
up le
` `
c ore
m o
C o
0 2
g ith
con fig
gith ub
sc ri
Ġcol lection
E R
Ġh as
> __
m l
Ġ` {
p p
t s
O T
L o
R E
ec tion
i fi
Ġt r
el se
ĠG ener
lab le
Ġ @
Ġd o
Ġu se
py right
i al
on se
>â Ģ¢
Ġcollection s
Ġa r
quire ment
w or
in fo
Ġ= =
># <
he ad
ar y
li ent
co mmand
CH E
d ata
f fer
Ġs er
co ding
Ġr ange
Ġme ssage
IN G
p en
Ġ Y
th od
il er
() )<
" )
I T
l ic
re p
S T
our ce
d ate
r ap
an s
# #
Y P
EN SE
IC ENSE
ma in
val id
TI ME
T T
s y
Ġ at
Ġn p
Ġ` `
sol ute
Ġpack age
ut h
up tools
in e
Ġa d
me ssage
ĠL ist
exce ptions
un c
ĠS e
ĠI mp
= =
Ġb ase
d i
Ġ( <
ĠO ptional
Ġab solute
lo b
re quest
ire ct
âĸĪ âĸĪ
ĠĠĠĠ ĠĠĠĠĠĠĠĠĠĠĠ
Ġs up
error s
w w
ss ion
ce ss
Ġun der
TT P
e m
u ser
Ġb ool
â ķ
Ġw e
ĠA n
" :
Ġco ding
ul d
Ġproto col
l en
ĠT rue
cont rib
at ch
uti l
c es
se s
he ck
Ġc an
T ype
i ve
Ġ ro
Ġ utf
Ġr ai
ĠU n
l ist
ĠF alse
T H
V ersion
ri bu
ribu tion
Ġ x
Ġp re
ĠD ist
b o
k w
Ġ R
pec ifi
( <
Ġs y
t ings
Ġ else
ce ption
> )<
o uld
ĠCo mmand
ta in
o bject
b ack
Ġ %
re f
Ġp ath
scri pt
o m
en s
Ġfor mat
Ġm ode
F ield
o s
Ġwh en
ĠCo pyright
Con fig
T eamUltroid
l at
Ġ 3
is ion
ter s
ĠD jango
arn ing
ial iz
f unction
de d
Ġp y
Ġc lass
ma il
= "
i b
m in
u st
ĠImp ort
n ection
o u
m ap
en v
ic ode
la s
Ġn um
S H
l er
t ypes
kw args
s ize
sp lit
b j
l u
fi x
ation s
CHE CK
c i
q l
in k
Ġ. .
Ġu s
ĠB ase
' s
D A
P I
} <
or ch
le ase
Ġre ad
S S
Ġ json
B ase
d ir
t rib
u mp
mode ls
t ype
il l
Ġrai se
ĠImport Error
o und
Ġf unction
Ġdef ault
sp onse
Ġcomp iler
Ġval ue
d jango
() .
mpl ate
pecifi er
at us
it y
Ġu ser
Ġset uptools
ow n
> `<
Ġ up
Ġre s
Ġd ata
stan ce
! <
d atabase
n um
t y
u ment
Ġv ersion
Ġsh ould
0 1
ð Ŀ
at es
he l
Ġu sed
Lo gger
] ,
k g
p rint
Ġ |
Ġd iv
Ġal l
( ):<
> """
S t
u ct
ĠN OT
OR T
Ġa pp
Ġc heck
Ġn ode
> >
a f
Ex ception
ai ls
Ġ-*- <
Ġ imp
le d
r ite
in stall
ad ata
Ġstr ing
Ġdiv ision
r a
Ġ \
re ate
Ġt orch
__ )<
ĠD O
Ġ* *
A R
v ai
pack age
Ġse e
las ses
vai lable
Ġ )<
Ġdate time
) .
D ict
Ġurl lib
C O
c ache
d s
o ptions
u es
le te
Ġc ache
Ġcon fig
wor k
head ers
ĠSe e
D E
F I
Ġn o
ure s
L E
o f
de x
ĠC on
Ġro ot
script or
e g
Ġit er
. .
in ed
it er
Ġbu ffer
S D
U N
a mp
e p
Ġ z
S et
] )<
Ġ key
bu ild
ĠV ersion
re am
ro up
al ue
ur re
ig r
c al
r ame
mb ol
D IT
M ON
a uth
Ġ k
ĠL ICENSE
Ġpar t
ĠE DIT
DA Y
str ing
ĠH TTP
our ces
~~~~ ~~~~
ĠGener ated
MON TH
T he
b y
all y
a ve
e at
er y
ĠT uple
Ġde t
ĠU ser
app end
ĠAn y
' t
in stance
Ġs ub
Ġn e
per ator
Ġun icode
T rue
W arning
ĠI ter
Ġlo g
d ict
ic h
Ġr un
te st
Ġ[ <
g r
i ti
at tr
al s
Ġs ource
Ġ" __
i ew
Ġw ill
un t
ab c
mo v
u al
w are
DATE TIME
Ġimp lement
D e
ic e
SH ORT
urre nt
' ,<
I mp
n d
Ġf il
Ġo ut
get Logger
app ing
vi de
= '
F alse
f init
x y
st em
Ġp o
ar t
Ġset tings
al led
ar k
li ke
comp at
comp ile
( __
2 02
A L
a st
Ġc ore
id ate
Ġme thod
po int
iv en
---------------- ----------------
YP E
finit y
> _
T ime
c ation
ĠB SD
Ġ[ ]<
val ue
Ġhas h
ĠDist utils
al ize
Ġc lasses
fi eld
ad d
ag ing
irect ory
lease s
b er
Ġin put
lo gger
ĠN ot
ĠD ict
sp ec
for mat
Ġdet ails
ub lic
do cs
Ġtr y
ializ er
Ġ la
Ġt ext
Ġw arn
str act
) ,
U n
k en
p ython
he el
Ġf unc
Ġi m
pro cess
ir on
Ġte st
Co mmand
r p
ar i
Ġd is
ma x
ig n
Ġ* <
ump y
B ot
P ar
T his
t in
Ġis instance
ig ht
pre se
res ources
t es
x t
Ġc v
Ġc or
as h
Ġcon text
Ġso me
Ġar g
lat form
N U
N ING
g in
r ay
s h
re q
ĠS et
ke ys
im age
6 4
L S
m odule
n er
Ġ j
en ce
__ ",<
Ġn umpy
ht ml
Ġ2 02
icen sed
Ġpar se
u se
Ġa ss
an t
ar get
Ġs c
po s
YP Y
or m
Ġre sponse
ĠRe turn
Imp lement
o le
ap i
Ġcon tain
ĠM YPY
Ġon ly
Ġy ou
ww w
Ġres ult
E P
F F
I ON
N A
s ix
t adata
re ss
en coding
ar d
Ġin stall
id d
ul ti
Ġrequest s
Ġser ver
C lient
L e
R es
Ġ /
Ġ except
ro l
Ġo pen
ac y
pack aging
package s
amp le
g ist
o ck
o bj
s g
Ġ le
ic k
Ġg iven
Ġte mp
rame work
Ġwarn ings
prese nt
i a
re d
Ġp r
an sp
fi l
Ġwh ich
ix in
## ##
eat ures
" ]<
G ener
] [
b lob
l an
n e
o p
ut able
Ġco mmand
and idate
par am
âĸ ĳ
low ed
Ġen coding
ĠUn ion
ansp ort
> .<
N O
o me
er als
pro ject
per ty
lit erals
Ġsup port
N ot
R L
i ss
s ub
Ġs ame
Ġi o
che ck
ĠGener al
rep ly
e gg
o st
t ent
or g
end s
Ġstr ings
ere leases
Ġsup er
a in
m an
w a
Ġt er
lo ck
Ġan y
ĠS t
ĠU ltroid
der ed
pre fix
ĠĠĠĠĠĠĠĠ ĠĠĠĠĠĠĠĠ
' :
) ,<
E n
a k
i de
lab el
ra w
202 2
L O
N ame
U T
V alue
o ther
de v
me thod
Ġs ql
up port
pro perty
L ICENSE
Ġ ><
Ġf ol
ss l
ĠP ublic
qu ery
ĠO r
Ġfunc tools
rp c
/ >.<
A N
K e
] )
Ġ 5
ĠP Le
ĠA ffer
tr ans
ĠG NU
stan ts
rap per
ĠUser Bot
Ġcor re
Ġ202 1
ĠPLe ase
ĠAffer o
( [
R UN
[ :
g is
n s
in der
en ti
al lable
Ġb ack
ĠT eamUltroid
Ġne ed
RUN NING
1 2
f ramework
p ache
ľ ĺ
Ġs p
and ler
Ġl icense
mpl ates
request s
W E
c lient
d is
or s
ar g
Ġin ter
def ined
ĠT o
Ġcomp lete
af e
C h
i se
at ive
it ory
ri de
bu il
Ġl en
ĠIn valid
quirement s
Ġmode l
of t
pos itory
. "<
D O
P ro
Ġc urrent
out put
>â ľĺ
django project
: `
A D
E X
F ile
j o
m i
Ġ error
Ġre pository
ar ch
def ault
ĠA pache
che me
hel per
gist er
] :<
ĠĠĠĠ Ġ
__ ,<
ad er
Ġch ar
Ġsy n
CHECK ING
t xt
z y
Ġ J
Ġp kg
Ġre present
ut ed
la y
ĠA vailable
as y
ta x
ĠIn stall
ĠCommand s
4 0
c re
t le
Ġf ield
Ġn ew
Ġw rite
sp on
Ġfile s
Ġ[ '
mode l
Ġad d
lu gin
SS L
! =
3 2
l ine
p onse
en code
Ġre st
Ġma x
gr am
1 0
C ode
H TTP
M ixin
c li
r ary
ic es
Ġb ot
Ġm sg
Ġpar ser
rib uted
bo se
Ġter ms
Ke y
c lu
f unc
s u
Ġ >>
ut o
Ġo perator
lo gging
Ġm atch
li f
Ġg lob
ul l
url lib
In fo
ĠE x
Ġbu ild
rep r
âķ Ĳ
Ġus ing
idd le
Ġfol low
) )
I D
O S
g n
m ment
in ser
on ic
st atus
Ġa c
Ġc reate
Ġd ual
Ġm ust
str uct
and om
Ġl icensed
Re quest
Re quirement
Ġg ener
Ġ* _
sc he
Ġval id
iddle ware
> @
A n
I O
O F
Y E
w ith
Ġ id
Ġ one
lo g
Ġth read
te mp
In finity
mo ve
wor d
head er
Ġsyn tax
/ #
> ]<
R ST
T ree
f f
i e
l l
p at
w h
Ġp lugin
is c
ĠT YPE
ĠP EP
sp ace
Ġde scriptor
te mplates
Ġe mail
Ġ[ "
Ġser v
Ġiter tools
Ġim age
c ur
f ace
l icense
p kg
s ys
w e
Ġa p
ge st
Ġin st
con stants
ver t
Ġh ave
mat ch
Ġ+ =
sy stem
Ġnum ber
trib ut
own load
ĠIter ator
Ġcorre spon
buil tin
Ġ>> >
' ]<
C ache
R I
[ '
d a
er t
Ġc all
Ġo p
ĠG et
Ġ{ }<
trib ute
A S
D ist
N T
o pen
v el
tr ing
() ))<
Ġcon nection
par ser
Ġ2 01
Ġma ke
Ġobject s
mov ed
Gener ated
ĠOr dered
D ata
M ode
c ument
s v
Ġ ._
Ġ errors
Ġ like
in al
en ame
Ġp er
Ġre f
ur ation
Ġs u
ac h
ĠT e
am l
Ġdist ributed
Ġy our
ĠNot Implement
Ġcorrespon ding
builtin s
ĠNotImplement ed
5 6
M L
P C
S e
l ation
l ink
m d
m isc
n c
r un
t yping
de scriptor
Ġp ool
Ġ- <
ĠD e
as k
set tings
ĠF ile
Ġg rpc
Ġit em
if ic
ok up
ib le
ari able
NA ME
E K
R PC
S ION
al k
Ġs ix
Ġw he
per ation
scri ption
sy mbol
Ġfunction s
WE EK
Ġserv ices
a v
r y
r yp
import s
ti tle
Ġp ython
ar ray
Ġin d
Ġin to
il ter
con f
ver se
Ġg RPC
proto c
Ġproto buf
Co mp
Ġ@ @
âĸĪâĸĪ âķ
Ġsy mbol
ref lection
inser tion
Ġref lection
F or
O CK
[ "
n ot
s upport
Ġ http
Ġ ssl
Ġf ound
Ġo bj
ĠT ype
ĠS pecifier
ĠA PI
ck et
ME NT
ĠRe quest
cont ext
Ġex tr
igr ation
iron ment
Ġwhe ther
D I
G E
a x
b in
c or
t uple
u tion
ĠĠĠĠ ĠĠ
Ġt w
ge x
Ġb o
ĠP ro
ai sed
ay load
ite ms
Ġcode cs
Ġso cket
back ends
' )
C U
D atabase
N ode
T r
n ode
n ect
o id
Ġ >
Ġ "<
Ġ headers
at ase
Ġin dex
ab stract
Ġv er
Ġcon tent
ĠG E
Ġh ere
comp are
") ,<
lic ation
ens ion
hel p
CO L
igr ations
Ġpr ereleases
jo in
) .<
S er
h ash
de code
an ce
ic ate
Ġ( "
il ity
sp ect
ĠF or
ĠU RL
Ġg roup
Ġex p
vi ew
ci i
Ġz ip
Ġimplement ation
ĠReturn s
P ython
T o
V iew
i o
Ġ 4
co unt
un ter
ex tern
ap e
Ġor ig
Ġwh ile
low er
Ġal lowed
ĠW e
di tion
+ =
A B
b ool
g roup
ti m
Ġs cheme
Ġm ap
iz ed
Ġstr uct
Ġen s
Ġdo es
ssion s
Ġmode ls
Time out
ole an
ick le
Ġfollow ing
G I
I P
i es
Ġ :<
Ġt ypes
ti es
Ġc ase
Ġre p
Ġre sol
ac ters
la zy
Ġm an
Ġto ken
Ġ( '
ĠC allable
ĠN O
per ations
exce ption
file s
lement s
ok ie
Ġma in
Ġch at
user name
ĠNotImplemented Error
OCK S
1 6
3 3
E num
R aised
S ON
] *
a le
e ls
l ace
n n
v ent
Ġ he
Ġ --
re sponse
Ġ= <
Ġ( )
end en
et ree
Ġde p
te mplate
Ġun pack
Ġ{ <
== ==
Ġup load
Ġcontext lib
Value Error
onic alize
alk er
' '
Q A
R OR
U L
a ke
g ress
n o
p lay
s ql
s afe
Ġ ]<
Ġ !=
Ġo ver
ri pt
ĠL o
ch ar
Ġpro vide
qu ence
app s
are nt
che ma
res ult
rap h
Ġpackage s
Ġpre fix
ĠIter able
YE AR
ĠOrdered Dict
) ):<
L ist
a use
d ot
e ad
n el
r it
t ing
w heel
at ing
at ic
Ġw as
ri e
Ġ' /
ĠI f
pre cation
Ġen code
dist utils
ĠDist ribution
mov es
lan es
ome try
ĠNO QA
( (
1 7
R OT
d ay
g th
m it
y aml
on g
he s
Ġd if
co der
ation Error
ag er
Ġcore api
( *
D o
M apping
P RE
] +
p yp
Ġc types
ur i
Ġs pec
la gs
li ed
Ġi gn
ĠS S
ĠS OCKS
ĠD ata
ext ension
Ġh and
Ġe lif
Ġme tadata
ir st
dist ribution
di a
ializ ers
.. .
auth or
by tes
iti ve
Ġpo int
trans lation
Ch ar
EX T
Ġtw o
abstract method
' ]
F A
h ow
r f
r iter
u id
z one
Ġp latform
ing le
Ġd irectory
Ġs pecifier
Ġm ath
ĠP Y
Ġcon vert
iz er
Ġget text
Ġwith in
00 0
cont rol
quire s
Ġtr ans
Mode l
ROT O
) :
G et
M et
d irectory
s ock
w rite
Ä ±
er ti
Ġt arget
Ġo ptions
ac tion
lo t
lo at
Ġw or
fi len
id get
name s
ĠCo unter
eg acy
Ġhash lib
fil ter
iss ing
âķĲ âķĲ
Dist ribution
atase t
Ġens ure
Ġign ore
" .
C E
P Y
c an
e mail
f ind
p lanes
me tadata
Ġd atabase
ĠP y
ĠD E
Ġr andom
bu g
Ġpro ject
Ġit s
ms g
") .
Ġat tr
function al
FI RST
Ġfil ename
Ġass ert
Code c
sche me
An y
Ġthread ing
: :<
A r
V ER
a il
b ot
m ark
in es
ut put
ic ro
Ġb ut
co pyright
ĠP ack
ol d
as ic
Ġl ink
lib rary
ĠM utable
Ġget attr
ok en
ens or
eg ative
Ġout put
Ġresult s
Ġsql parse
ns itive
ROTO COL
filen ame
E L
R A
c ls
d d
e ms
h at
s ource
t ed
Ġ exceptions
Ġ help
se c
re gex
ro sp
Ġd ict
ls o
ĠT ime
Ġco mment
as on
() .__
Ġme dia
code cs
Ġsh util
Ġcan onicalize
Ġcache d
rosp ection
' :<
F ound
d u
d tuple
e q
k ens
p h
t rol
v oid
Ġ ""
in ter
in dex
ro und
Ġf ind
ac es
Ġn n
Ġm ore
ri es
ot e
ĠD o
ĠI t
Ġv iew
ĠM apping
âĸ Ĵ
Ġit ems
Ġwh ere
Ġval ues
act ory
Ġtime out
ib ility
Par ser
Ġarg parse
Res ponse
clu de
tribut es
( ?
C I
T YPE
f t
n ew
Ġ exception
re gister
ĠP ROTOCOL
set uptools
Ġ_ <
Ġde scription
app lication
Ġst ream
Ġy ield
Ġte le
ust om
orm al
#### ####
'' '<
UL T
egacy Version
' ):<
A PI
F ilter
H andler
S pecifier
l ue
n der
s oft
t en
t ab
z en
Ġ Q
se nsitive
ro ot
Ġa ction
Ġa uth
Ġimport lib
Ġp as
Ġthe se
lo se
mm on
Ġpro xy
par t
ĠĠĠĠĠĠĠĠ ĠĠ
po st
lement Tree
ĠV alue
Ġte mplate
im g
ĠR es
support ed
Tr ansport
Ġver bose
" ):<
, "
B U
a u
c y
f ul
l ing
n own
s ite
w ise
Ġ query
ro zen
Ġt ree
al id
Ġre fer
Ġre quirements
ar se
Ġf uture
Ġf irst
Ġs ort
ed it
OR S
for e
sed Version
In stall
ator s
cont ent
Ġen um
form ation
Ġx ml
Ġsc ript
Ġtemp file
Not Found
Ġback end
ĠInstall Requirement
Ġextr act
Ġdif fer
ĠSS L
FA ULT
" ]
M e
T e
i tion
n et
o se
o int
t arget
w rap
st ream
le ct
Ġs k
co p
ec ause
Ġm ulti
to ken
---- --
Ġco py
ĠC ache
ĠN ame
Ġcon s
for ms
qu al
Ġset up
Ġwith out
if y
Con nection
ta gs
Ġcomp at
quire d
mb da
Ġar gs
Ġus ers
ðĿ ķ
Ġmethod s
Ġarg ument
([ ^
cre ment
Timeout Error
egative Infinity
" :<
; <
T ML
g t
m t
n p
u ame
v ironment
w n
Ġ X
Ġ --------------------------------
Ġ keys
ro w
en g
Ġa vailable
Ġp d
Ġp os
Ġre moved
un k
Ġ' .
ĠD atabase
pro xy
mm ary
Ġlo ad
ke ep
Ġ2 00
In valid
mb ed
ind ow
St atus
Ġfil ter
man age
oft ware
Ġpas sed
uame l
. *
I d
P ayload
T ER
U ser
b stract
f eatures
p ass
q a
t ac
t tp
or age
or ig
re quirements
de t
Ġa uto
Ġre t
ur ls
Ġthe m
Ġin valid
es c
id x
ce pt
ri p
up load
ch at
Ġr uamel
Ġpar ti
Ġst ate
ĠIn finity
ER ROR
ĠSe quence
Ġap pro
DI R
Ġzip file
2 3
A SE
C ase
P ool
c v
c ul
h ost
p r
w ar
ge os
Ġthe ir
Ġm at
yp ed
ĠN egativeInfinity
ch ive
Re port
-------- ------
que ue
Con trol
po p
che d
vi ded
env iron
ðĿ ļ
Ġno qa
iti al
-------------------------------- --------------
Ġtest s
wa it
Ġinst alled
dition al
Char acters
icro soft
sec ure
crement al
Ġ-------------------------------- ----------------------------------------------
tac lass
Ġ------------------------------------------------------------------------------ <
0 33
2 7
B O
S tring
T ext
` .<
b lock
e ded
f lags
t z
ã ĥ
Ġ Z
Ġ end
Ġ keep
en um
de p
an g
Ġre quirement
ar r
Ġd on
Ġb in
ex ec
ĠA pp
ĠL egacyVersion
Ġv ariable
Re turn
ve lo
Ġdist ribution
ĠH ttp
ĠE n
ta g
Ġex ist
Ġ{ }
`` .<
Ġat tribute
Ġla st
Ġcontain s
Res ult
ide o
[: ,
âĸĪâĸĪâķ ĳ
rit ten
Ġdiffer ent
T E
T oken
e ometry
g d
m on
m od
o ci
Ġ html
Ġ header
Ġa lso
Ġp ickle
it es
ur s
Ġs ize
ic tion
ĠT LS
ap ter
ĠS oftware
ĠN ode
ĠA r
as cii
set up
Ġv endor
Ġde code
ul n
ĠĠĠĠĠĠĠĠ ĠĠĠĠĠĠĠĠĠĠĠ
Ġurl parse
CHE ME
Ġk ind
Ġass oci
ia o
pat tern
Ġbo olean
CI I
BU G
Ġassoci ated
Q L
W alker
d ump
i k
t able
w rapper
x ml
â Ģ¢
Ġ q
Ġ ent
in st
Ġt ab
st art
Ġf n
Ġ" %
Ġw heel
Ġw ant
Ġm yp
id er
li ties
ect ed
Ġ< =
yth ing
Ġname dtuple
im al
do main
Ġdo cument
âĸĪâĸĪ âĸĪâĸĪ
Ġwe b
Ġup date
CO M
Ġsub process
field s
Ġinter face
asy nc
Comp iler
ĠGE OS
Ser ializer
Ġdep enden
erti f
NotFound Error
Ġmyp y
' .
2 56
I L
M odule
O ption
O peration
V ar
c ryp
m ask
o us
o ice
q d
{ }
ĉ ĉ
Ġ library
er o
mp ty
re turn
imp le
Ġc alled
Ġd irect
Ġo ption
Ġin spect
Ġin formation
ĠT ext
Ġm in
ad min
con nection
() ,<
ure d
Ġlo ss
Ġpro vided
cs v
command s
di gest
Ġrai sed
bo x
ci es
max size
ĠValue Error
" ))<
A t
F inder
M an
O K
T R
T LS
c le
c reate
c md
g raph
i as
l d
t ree
z ip
Ġ âĸĳ
se ssion
re en
Ġc sv
Ġre ason
Ġco ver
up date
ĠC ON
ĠN o
ĠA S
Ġth ere
ser ializers
sp aces
all back
per ly
ĠB y
SE R
comp iler
Ġal low
ok s
im um
Ġbu il
len gth
bo ard
Ġpy Ultroid
Ġim g
sock s
VER SION
velo p
gd al
> ~~~~~~~~
E AD
F O
H A
S I
S CHEME
U C
W rapper
[ -
c urrent
f ault
g ment
h o
m age
m igrations
p ri
p ip
t he
ã Ĥ
Ġ Error
or ed
al lowed
Ġre q
Ġre gister
Ġd i
Ġs ingle
lo cal
Ġb ecause
Ġw rap
ex tr
ĠT r
Ġm ay
Ġdef ined
li mit
ĠS tring
lt a
ĠA l
ction s
ith er
Ġlo cal
Ġg lue
Ġe gg
val ues
Ġst art
po se
EN SION
`` ,
sy a
ĠCon fig
Ġla mbda
iss ues
raw ler
Ġrepresent ing
HTTP Error
Ġprovide s
Met adata
ĠPy PI
ĠMutable Mapping
indow s
manage ment
pr ereleases
2 5
> -
> `
F eatures
F actory
N I
R O
U p
] .
b dist
f low
g h
k ing
er r
re v
Ġt uple
st d
ti ve
Ġc re
Ġc ls
ar ts
Ġs pecifi
ut er
Ġm o
and ard
Ġth an
() ,
ĠF I
am s
Ġpro gress
ĠB u
Ġe qual
ĠO P
Ġor der
Ġsys config
ĠRe quirement
res h
Ġdo main
rep lace
di o
Ġus age
St ream
ĠTe mplate
Enum er
Ġover ride
esc ape
- .
9 8
A d
E lements
H el
K E
M A
O ST
W N
g er
l and
s ign
v ed
on t
on day
ro perly
st amp
de bug
Ġa li
Ġc al
Ġc andidate
an nel
me taclass
Ġre port
Ġm igrations
id th
Ġco unt
ĠS er
con tain
ĠL icensed
ch or
Ġl ine
ĠU p
ĠB in
Ġbe fore
ĠH TML
code Error
lab els
Ġab s
Ġex ec
ifi ed
Ġbase d
script s
Config ured
lat lib
Ġres ource
FI X
nd array
Ġpo ss
Ġtext wrap
fil ters
sub process
Ġsp ace
arg ument
ĠJ SON
Ġfield s
Ġglob al
cur s
Ġ201 2
Se ssion
Ġdi gest
roperly Configured
) "<
) .__
E S
a ded
b it
g res
h en
m iddleware
n ow
p atch
s k
s ing
s ur
u x
ï ¼
Ġ utils
Ġ RE
Ġ kwargs
re sol
re quires
at er
le x
al low
Ġc ustom
Ġre move
Ġre nder
Ġf loat
Ġo perations
la use
ter m
str ict
Ġas y
ĠL ib
ser ializer
tr ic
Ġv ideo
tp arse
ĠM onday
Ġe lement
ĠCo mp
Ġst ride
Ġse ss
Ġse par
ĠImp roperlyConfigured
map s
DA L
eat ure
wa gger
RI B
ĠTime out
Ġfn match
KE Y
1 1
1 00
9 9
C A
C lause
O bject
T h
T RIB
U RL
W riter
c u
c ase
c cess
f g
m ory
m ulti
p arent
r ange
u age
ã ģ
Ġ uti
Ġt ensor
le vel
Ġp at
Ġc ast
Ġre d
Ġf eatures
Ġin stan
Ġ" ,
Ġw arning
ent er
Ġdef in
to pt
Ġ' \
con ds
ĠI N
end er
ĠM e
Ġe ither
In t
ite m
us r
Ġsh a
che s
Ġmodule s
read able
Lo ader
Ġpath lib
ðĿ Ĵ
ĠCon nection
spec ific
op tim
Ġsupport s
man ager
ak es
SSL v
su mmary
ĠEx ception
struct ures
Ġsu ch
view s
war ds
Ġspecifi ed
TRIB UT
# !
* *
> '''<
B ack
J SON
M iddleware
` {
a gs
b le
c andidate
g lob
k nown
l ack
o pt
o perator
u sed
y e
Ġ âĸ
on ly
re g
Ġt able
Ġt qd
st rip
Ġa g
Ġc lient
Ġc lose
__ ,
Ġd ownload
Ġin stance
Ġb et
Ġ" \
Ġw ay
un pack
ri x
Ġfor m
Ġfor ce
ĠS u
ĠC heck
ĠI D
ub le
Ġpro cess
Ġpro du
ver y
Ġby tes
Ġst atus
Ġse ssion
Ġ1 0
fer red
Ġab out
TI ON
Ġch ange
Ġar r
date time
message s
Ġwe ight
ĠUn pack
dir s
Ġapp s
Ġfil ters
vide o
AL L
Par se
Ġle vel
AN G
Ġ5 12
Ġ5 17
Ġinst ead
Ġop tparse
Ġresol ution
result s
EXT ENSION
CE SS
Ġcompat ibility
Ġdependen cies
HA SH
UC CESS
Ġwrap s
Ġtqd m
( {
( .*
2 01
5 0
> }<
C ol
M O
M issing
N um
O ptional
O perator
U TH
b atch
f ter
i an
j or
l ines
m ac
n ci
o ptional
r st
s low
~ <
Ġ )
Ġ 6
Ġ ur
re ak
he d
Ġp lt
Ġp and
Ġp arent
Ġre lease
Ġthe y
Ġin clude
ame ters
Ġco okie
Ġreturn s
Ġi ss
ĠP ip
ĠC reate
ĠA bstract
ĠI O
ĠL O
Ġ. -.
od y
Ġ` -
Ġcon tin
Ġcon tribut
ĠF ound
Ġde c
ĠM igration
ĠU se
te ger
(" \
Ġe asy
pre ter
sc an
Con text
Con tain
ĠRe moved
Ġcol or
ind ice
Ġhas attr
Ġtr ansport
Ġsy stem
St ate
Ġconfig uration
of f
iti alize
AL I
ĠDistutils Option
Implement s
idd en
wa ys
LO AD
ĠInstall ationError
Ġop tim
sv n
For mat
ĠRequest s
CU MENT
io us
Ġsort ed
Ġsk ip
Ġdocument ation
ĠCON TRIBUT
Ġposs ible
nci o
Ġpand as
ĠFound ation
ĠDistutilsOption Error
ĠCONTRIBUT ORS
/ <
= ',
D B
E D
F E
G G
G eometry
H e
M ark
O utput
S ub
T uple
V alid
W S
` `<
c c
c l
d it
e ed
f n
f inder
g acy
i que
n ing
p ace
p latform
p lot
r app
u ery
w idget
Ġ ge
Ġ right
in tern
st atic
st arts
de precation
Ġa void
le ss
le gram
le ft
Ġo pt
Ġb reak
co py
Ġw el
ex it
Ġas cii
ĠP ath
ĠC h
ĠA dd
tr ansport
et work
Ġlo gger
par sedVersion
Ġun it
Ġst andard
Ġname s
ĠRe move
Ġ1 00
load er
ag ma
Ġsh ow
ĠW ritten
Co mment
Ġdo c
âķ Ŀ
TH ON
Ġpath s
Ġiter able
Ġlog ic
Ġpo st
Ġpr agma
ain st
we en
Ġcall back
Ġgroup s
Ġdoes n
ĠPack age
ormal ized
ĠRes ponse
Ġargument s
eng ers
ĠLib rary
cu da
Ġcontin ue
intern et
starts with
5 5
? <
B u
B in
C L
D jango
E T
H EAD
P P
P AT
R C
U SER
` ,
b an
c ent
d B
e st
h and
i rror
l is
l ers
p n
p le
r c
s um
s ample
t on
w arn
ro gram
Ġt ake
de lta
Ġc md
Ġf ull
Ġf inal
Ġs ol
la g
Ġb dist
co me
Ġw in
Ġm ark
th ing
Ġto kens
Ġco mmon
Ġ( ``
Ġi p
ĠS tr
ab s
ĠA t
ĠI mage
ĠL ink
et ch
Ġl ong
ĠF ield
iz ation
ĠO utput
Ġbe ing
Ġpar ts
pre c
ĠE num
Ġname spaces
time zone
vendor ed
are d
Ġal ph
im read
read y
Ġser ializer
Ġmessage s
Ġad ditional
env ironment
FI LE
Ġz ero
Ġne eded
ign al
Ġj ust
orm alize
encoding s
dis play
DO CUMENT
)) ?
wh ere
we ight
Ġ201 3
==== ====
can ner
oint s
Ġkind s
ertif icate
SCHEME S
EXTENSION S
" {
# <
# ]*
) ))<
. ,
= [
C T
I G
I S
O ptions
S y
U ti
U RI
] ,<
] ==
a vailable
d f
h as
l r
l ate
l ated
s at
t al
u mm
Ġ &
Ġ }<
Ġ edit
in ux
re verse
Ġt ar
st ate
al th
Ġp ow
Ġc ap
__ .__
Ġf rozen
Ġd own
Ġs ave
lo sed
lo pen
Ġb atch
Ġ" -
ed ia
ex e
fi ed
Ġm ac
ue ue
to kens
Ġan s
Ġ' __
ĠS H
ĠP ool
ĠC andidate
Ġth en
pro gress
Re ad
ver ter
Ġdist ance
ĠB ot
Ġe ach
ĠO S
ĠO bject
(' .
load s
time out
arn ed
Ġab c
IT E
Ġ% (
function s
Ġuser name
Ġcheck s
Ġnode s
ĠHTTP Error
vide s
Ġcontain ing
NO DE
Ġchar det
40 4
Ġmsg pack
CU R
Ġcontent s
control ler
Ġ"" <
ĠCache Control
ĠInfinity Type
Ġbuil t
term ine
ĠMe ssage
umm y
Ġfrozen set
2 00
8 5
E mail
P A
R ec
[ [
a wn
f inal
h a
s ave
s ide
u ff
Ã §
Ġ K
Ġ et
Ġ qu
in ner
se e
se arch
de scription
le ep
me th
Ġre quired
Ġf ail
Ġin ternal
Ġin fo
ent ry
Ġm od
th on
ers on
Ġ' _
ĠP er
ĠC Compiler
ĠN ew
ĠA uth
con nect
OR D
Ġv ia
Ġu ltroid
ĠF ilter
Ġlo ok
ĠG DAL
Ġpar ams
pre p
ĠH as
sc rib
lit y
Ġma king
ace back
Ex ist
Ġhas hes
>âĢ¢ `{
wor ds
Ġpy rogram
DE FAULT
De codeError
Ġdis able
Ġcommand s
âĸĳ âĸĳ
En coder
En vironment
mi ssions
Ġac cess
struct or
link s
ĠFile NotFoundError
av engers
Ġind ice
ĠType Error
Ġstruct ure
extension s
ĠDE FAULT
(? :
Ġtele thon
Ġparti al
iction ary
OK EN
ĠBy tes
land mark
Ġspace Characters
CA CHE
#! /
" ^
: %
A l
A pp
A uth
C heck
E dit
N S
O P
O r
R ender
S ec
Y ou
b e
b ar
c ed
g i
g ener
l ur
o ption
p g
u ally
v en
} )
Ġ Key
re al
st Case
en e
Ġa fter
al ues
__ .
__ <
it s
Ġf inder
Ġd b
Ġd ig
ut or
Ġin it
ic ious
lo okup
Ġn on
Ġw rapper
ĠT h
Ġm issing
ĠS UCCESS
ol ation
ĠC lient
ĠN um
ile d
ĠA UTH
AT ION
ser ved
Ġcon nect
Ġde cor
ĠM IT
ĠM icrosoft
ĠM irror
ire ction
der r
âĸ Ģ
Ġe lements
Ġbe en
Ġst ack
Ġst atic
ĠRe p
EN T
IN DO
IN TER
Ġval idate
Ġother wise
data flow
âķ ļ
Ġro uter
ĠCommand Error
Ġnum b
Ġdefault dict
ðĿ Ļ
DE BUG
Ġsub class
De precation
202 0
ĠInvalid Specifier
clu ded
Ġap i
Ġconnection s
NAME S
Ġ> =
AB C
Ġresol ve
Ġman y
Ġhe x
PRE FIX
Ġspec ific
ĠName d
unk s
pass word
Ġret ries
cul ar
BO M
ĠApp Config
ĠHttp Response
cryp to
Ġallow s
Ġasy ncio
Ġtensor pack
Int rospection
ĠPackage Finder
landmark s
INDO WS
Deprecation Warning
( \
4 4
6 0
7 8
: :
A ll
A GE
C re
C ON
D L
P y
R ed
S QL
W idget
W arned
c lasses
d own
i ed
o up
p latlib
r ad
s ers
s ax
t list
t orch
u me
z A
z e
or d
in itial
er os
st orage
en c
Ġa round
al ias
Ġp ri
Ġre co
Ġf r
Ġs afe
is fied
es chema
ex ample
fi rst
Ġm igration
to col
Ġis n
ĠS y
ĠS NI
ĠC ase
ĠC ol
ĠC ode
ĠA ll
int rospection
Ġth ings
sp icious
Ġcon f
Re ader
ĠF rozen
am a
Ġpro ble
Ġde scrib
ĠM odule
ĠM ax
ver bose
ver ything
ul er
Ġe vent
ĠO pen
Ġset ting
Ġpar ameters
In dex
ĠE lementTree
code s
Ġse n
Ġname space
ix path
cs rf
Ġch ain
Lo okup
ial ize
Ġar chive
Ġser ializers
") ,
lic it
ans form
Ġat tributes
Ġad min
Ġ.. .<
Ġversion s
AR NING
Ġimplement ed
add ress
Ġdis play
Ġcor eschema
sh ape
FF FF
Ġle t
Ġneed s
:` ~
Ġrepresent ation
Ġid enti
AS CII
ĠType Var
node Type
Ġman age
ĠLo cation
Ġhand le
rf c
Ġattr s
Ar g
EL D
######## ########
Ġauth ors
Ġquery set
Me thod
Ġmulti ple
Ġpos ixpath
urs or
Ġvendor ed
Ġweb encodings
box es
Man ager
ĠSer ializer
resol ve
ĠIN ST
Back end
Ġbet ween
ĠID NA
ormalized Name
RC Command
sat isfied
Ġmac OS
ĠBytes IO
Render er
ĠFrozen Set
) ==
) ;<
. %
2 1
3 8
> =
C alled
C andidate
G R
M utable
S U
T S
X iao
] ]
a z
a int
a uto
b t
f time
m ote
m icrosoft
s dist
v ar
v ision
v ider
} ")<
or ies
er nel
ro p
Ġt re
st ore
st derr
de st
Ġa wait
le y
Ġp g
me tric
ar is
Ġf ails
Ġf lag
Ġs dist
ut c
ut s
Ġo ur
ic ates
co okie
Ġ" _
ist ic
es Not
ex ist
ex pre
ĠT rie
Ġm ight
il y
str aint
Ġ' '<
ĠS ub
ĠP ar
ol ver
ĠC hat
con st
tr ain
Ġde termine
ĠM ulti
te legram
Ġh ost
Ġe mpty
Ġit self
Ġwh ole
In sensitive
Ġst at
Ġal ready
Ġen able
âĸĪ âķ
ĠV iew
ĠV alid
ĠV alues
Ġex ample
mb ers
Ġ{ "
col or
vi or
Ex ec
Ex ample
Ġtime zone
`` )<
ifi ers
sy cop
Ġ.. .
Ġapp lied
Ġ\ <
ĠCon tent
Ġz lib
cal ar
Ġk now
De coder
rp m
Ġj o
ĠĠĠĠĠĠĠĠĠĠĠĠĠĠĠĠ ĠĠĠĠĠĠĠĠ
UT F
mi ssion
arch ive
Ġac cept
tribute Error
Data F
GE T
cor d
nect TimeoutError
(* *
Do esNot
pyp a
Met a
Ġwor k
PY THON
Ġview s
Install Requirement
Ġscript s
cop e
ĠX iao
Ġappro pri
host name
Result s
ites pace
uln Name
>~~~~~~~~ ~~~~
ĠFI RST
Ġwel l
pn g
ha vior
ĠCase Insensitive
aris on
sycop g
DoesNot Exist
Ġappropri ate
ĠCaseInsensitive Dict
' ),<
2 6
4 01
5 17
7 4
> *
B y
B SD
D ING
D ownload
F unc
K T
M P
M igration
P ack
P red
R ange
T OKEN
V E
V I
] {
` .
a w
a it
c all
d ownload
e u
f in
h andler
m y
n l
n eg
o perations
p b
r t
s ort
u dio
w idth
â Ħ
Ġ mp
Ġ âĸĴ
Ġ err
or ary
er ic
re leases
ro u
Ġt ri
Ġt ag
at maps
en ded
ti ces
al ity
Ġp db
Ġc t
Ġre try
ur ity
Ġd ataset
Ġd ummy
Ġo c
Ġo ptional
Ġo peration
Ġin v
def s
lo aded
Ġb ise
Ġn ormalize
th at
th read
il ar
ĠP re
pro g
Ġv ari
Ġl ang
Ġstr ict
ĠM y
ver tices
ly ing
:// ...
ache s
In put
Ġst d
Con verter
Ġse nd
po ses
EN CO
ĠIn st
ĠIn line
ĠIn cremental
Ġal ways
Ġ: ,
im ilar
Ġex c
stan t
mb ols
ĠW INDOWS
ild Environment
ind ent
Ġad ded
ĠSe ssion
ces sed
ĠUn icode
Ġpy test
Ġpy tz
ĠBase Database
Ġfunction ality
af old
FI ELD
by te
unt yped
ast er
Un supported
Un parsedVersion
Ġdis allow
Ġcontext manager
Ġcontain ed
FF FE
param s
ĠSt ream
AN D
Ġsp lit
mi rror
Ġid x
cur acy
sys config
we b
âĸĪâĸĪâķ Ĺ
ĠPro tocol
Ġhand ling
Ġtrans form
Me ssage
Te stCase
Pool Error
ĠNegativeInfinity Type
ĠAr ray
inst alled
graph y
ĠAS CII
ĠString IO
WN LOAD
Ġdigest s
opt s
Ġrelease d
Ġdec imal
Ġcolor ama
off set
GG ER
HEAD ER
App Config
Pred icate
Ġbise ct
://... ``)<
ENCO DING
ĠProtocol Error
' ])<
) }
) ")<
/ %
2 8
3 4
A c
B ASE
C all
D AT
N o
P latform
R ROR
S tr
S upport
S GI
U sed
U ID
W e
W in
] -
_ |
` :
a j
a de
b ody
c ip
c compiler
d raw
e a
e val
g ra
i ms
j ust
l int
n ext
p k
p u
p age
p ool
t ual
v id
v ate
w er
w sg
w rapp
å ®
Ġ Ð
Ġ ext
Ġ etree
ort c
se ction
re port
re nd
en tion
en ces
de cor
le arn
Ġimport ed
Ġp ur
Ġp erson
Ġc ertificate
me mory
Ġre lated
Ġf in
Ġf mt
Ġd ictionary
Ġs m
is it
ac le
ic ally
co mmon
Ġn b
Ġn etwork
un icode
ĠT O
ĠT ag
ĠT ree
Ġm id
Ġm ask
ad i
ad ing
to ml
ĠS T
ĠS QL
ĠP latform
ment s
ĠI P
as gi
ect s
tr a
Ġv ar
Ġ_ ("
Ġu uid
Ġlo okup
lib Exception
ĠM o
ĠM ark
ul ate
file list
ĠE RROR
ir tual
00 2
ĠW SGI
vi e
do c
Ġdo sya
Ġad ap
Ġcan not
Ġformat s
Ġpy lint
ĠBase Command
ument Parser
ðĿ ĵ
De fault
ublic Id
Un pack
process ors
Ġdis cord
module s
Ġsc reen
ock et
Ġsupport ed
check s
ĠSt atus
Ġcorre ct
dis able
Ch ild
ĠInvalid Version
Ġchar acters
ĠJ on
Request Exception
Ġgener ate
YE S
Tree Walker
pat ched
Ġper form
ĠDe fault
Ġind icate
Node s
Ġ4 40
sql parse
distribution s
ĠDE BUG
Ar chive
ĠPack er
mbed Payload
yped Dict
BO SE
ĠGEOS Geometry
gment ation
std out
Ġabs l
Ġdefin ition
Parse Error
ALI AS
Ġunit test
Ġsol ution
Uti lities
ĠPool Error
Ġsen ding
urity Warning
ims how
wsg i
rend re
ĠTree Walker
" ])<
% (
' re
' ll
) *
) +
. ")<
? #]*
A ML
B asic
C RE
D et
E lementTree
G S
L A
L P
P UT
Q U
S OR
W ORD
] ]<
e ar
f r
f an
g ine
h er
k path
l ict
m ute
p ickle
r b
r andom
v cs
á ´
å º
ç Ķ
in sensitive
er ate
er ator
se ssions
se lect
Ġt akes
st er
st ride
le tion
he atmaps
Ġc fg
it z
it le
Ġf lags
Ġd ir
Ġs ign
Ġs imple
ut ton
Ġo wn
Ġo ld
Ġin ject
Ġin itial
lo y
lo oks
co ver
># ##
Ġw ould
ent s
ec imal
id i
id ual
ter min
ri ver
to tal
Ġto ml
li ght
Ġi de
ap s
ĠS p
ĠS ec
ĠS wagger
ip y
and id
ĠD NS
name space
set default
end ing
end ar
__( *
__( )<
ure lib
Re quired
am age
Ġlo c
ub e
Ġde que
Ġde lete
Ġde bug
Ġde velop
ĠM ode
ĠM et
te m
ai se
(" /
Ġbe havior
Ġpar sed
pre d
pre ssion
pre ferred
ĠH ash
Ġwh at
Ġby te
In cremental
ĠĠĠĠĠĠĠĠ ĠĠĠĠĠ
sc ale
out ube
ta il
SE T
load ing
ite mplate
Ġal g
Ġab le
iv idual
ok ies
Ġma jor
ĠW rite
ĠW heel
do cument
do sya
Ġtime delta
Ġlist ener
Ġsup p
Type Var
object s
las h
SS ION
Base d
cache d
LE D
Ġrun ning
Ġimplement s
Imp ort
Un known
sh a
sh ow
Ġsc ipy
Ġle ft
fil l
ne th
Ġinter preter
:` .
license s
Ġsu ccess
Ġhttp lib
Ġextr a
Ġbo th
ĠPro xy
group s
Ġscheme s
chema Edit
pyp i
sock et
Ġwor d
content s
Ġcompat ible
Ġparti cular
secure transport
Ġvariable s
Ġdistribution s
pattern s
ĠPyPI RCCommand
Ad apter
Ġali as
sur face
Ġinstan ces
Ġiss ue
He ader
prec ated
Ġalph afold
ĠNew Type
Al ter
Ġdecor ator
ĠMirror Status
Ġnumb ers
ĠINST ALL
ĠIDNA Error
decor ators
çĶ ¨
chemaEdit or
. .<
3 6
< =
A uto
A dd
A bstract
C lass
C TYPE
D U
D ataset
E O
E mbedPayload
G RA
L I
O pen
O UT
Q ueue
S um
S canner
S oup
U R
U S
\ "
\ \
a mpl
b asic
c er
f lo
f loat
f mt
g it
o th
r s
t l
t ensor
t ected
u d
v c
w g
y le
} {
â Ģ
Ġ ~~~~~~~~
Ġ extension
er bose
re move
ro y
at ur
at trib
st ack
en able
le gacy
he els
al ive
Ġp ad
Ġp yp
Ġp atch
Ġc losed
Ġc ursor
me ta
Ġre quires
Ġd one
ge ther
Ġs imp
Ġs um
Ġs ite
is o
ac curacy
Ġb lack
co gn
co okies
Ġ" .
Ġ" /
ex c
uti ful
Ġto o
str u
ĠS h
ĠS ignal
ĠP rint
ab ility
ip File
ation Config
int s
Ġth resh
sp inner
tr ue
ch unks
all en
() [
Re present
~~ ~<
ub lis
ath er
ath an
Ġstr ftime
Ġde coding
Ġget Logger
qu i
ĠB ar
ĠB ea
âĸ Ĳ
Ġe st
Ġ2 56
ĠH ow
In Django
proto types
code c
Con v
comp lete
po ch
fer ence
ĠIn put
us ers
ag ent
Ex t
do uble
Ġpack aging
Ġch oice
Ġch annel
Co pyright
Lo ck
Ġuse s
ST R
uptools DeprecationWarning
Ġad apter
Base Version
Ġapp dirs
Ġ\ "
cache control
LE TE
iter al
iter items
ĠHTTP S
ĠDistutils Error
Ġsome thing
Ġcontain er
Ġinstall ation
lan g
query set
trans form
enti cation
Ġlen gth
Pro vides
Ġchar set
cre t
Ġmax size
Code point
func tools
space Characters
open source
ĠOrdered Set
ĠTe mp
verse IP
ĠRequest Error
ĠGE O
Ġorig inal
Ġrep lace
Ġrep lied
enden cy
ead ers
âķĲâķĲ âķĲâķĲ
Ġfilename s
ĠMutable Set
ĠDo cument
au dio
Ġcons ole
Ġ200 9
Ġappro aches
23 4
Report er
ched uler
exec utable
COM MENT
Ġdirect ories
At tributes
>~~~~~~~~ ~~~~~~~~
>` _
ĠBu ildEnvironment
Hel p
multi part
Ġpat tern
ĠConnection Error
Ġag ainst
Num ber
Ġur lopen
Ġcontribut ors
Contain s
Valid ator
static files
PAT H
hand lers
ĠAt tributeError
Ġtar file
ĠSH ORT
CUR SOR
ĠAUTH ORS
ABC Meta
ĠNamed Tuple
ĠSy stem
ĠLocation ParseError
exist s
expre ssions
Ġvari ous
ĠJon athan
Ġsupp lied
ampl er
utiful Soup
ĠBea utifulSoup
' {
' .<
' ))<
' ).
( _
) "
, )<
. `<
2 0
2 2
= {
@ @
C reate
C ATION
D ate
D ep
D irectory
F ore
I f
J ANG
L ink
M ulti
Q uery
S how
T O
T EXT
V AR
c la
e ver
e vent
i To
n a
n or
n ip
n one
n ative
n ormal
p urelib
r l
r ing
r id
s iTo
u ation
v ers
v ariable
v irtual
} )<
} "<
Ã ©
Å Ł
ä ¸
å ı
Ġ !
Ġ $
Ġ ),<
Ġ helper
or der
mp ath
se topt
re t
re st
re con
re ason
Ġt z
at ationConfig
de l
Ġa ct
Ġimport s
ti tem
he x
he alth
Ġp rep
Ġp ayload
Ġc id
Ġc atch
Ġc riter
an chor
me d
me mbers
__ )
__ ':<
Ġre gist
Ġd f
Ġd ump
Ġs ample
lo c
lo s
la st
Ġb lock
Ġb asic
Ġb ias
ist ent
Ġw idth
un used
ent ly
ri ve
Ġ' ,
Ġ' <
get text
ap in
ĠS im
ĠS apin
ol der
ĠC S
ĠD ATE
ĠL iteral
AT CH
ser ver
set s
sp awn
Ġv oid
() ``,
Ġcon struct
Re try
Ġlo cation
ma g
Ġfile Name
per missions
ĠU UID
Ġh andler
um an
ul ner
ĠB ad
', '
Ġe val
Ġe very
Ġe verything
Ġun ique
ĠO n
ĠH art
ĠH idden
In d
ĠĠĠĠĠĠĠĠ Ġ
Ġst ored
out h
ĠRe ad
EN V
ĠIn dex
Ġy aml
port s
Ġgo ts
ĠThe se
ĠW hen
und le
Ġrequest ed
mo st
Co okie
ER S
sy nc
ĠSe arch
ĠAn siTo
Ġpre d
bo olean
min imum
ĠBase Cache
ity Error
Ġconfig parser
ĠVersion Predicate
Ġk ernel
ĠNot Required
ĠDict Cache
Command Error
Ġdis pose
Ġsome one
req s
ĠSet uptoolsDeprecationWarning
Ġsc an
Ġresult at
sub enum
': '
LO B
AN S
Pro cess
Pro vider
Ġcurrent ly
Ġrepresent s
Ġ[' /
Ġadd ress
SSL Error
HTTP Connection
Ġthread s
wh at
wh ich
ĠTe st
run slow
ĠDe lete
ryp to
bin ary
ĠFor mat
Ġexp ected
char map
erti fi
ĠTime stamp
post gres
," \
Ġrefer ence
net work
Connection Error
Ġmat rix
Ġmat plot
[:, :
uln Info
domain s
Module s
Ġdirect ly
TR ANS
ho to
extr a
ĠConfig uration
Enumer ator
Ġsepar ate
Ġinstan ti
ĠSu spicious
ĠUnpack Exception
ĠAbstract Distribution
Ġ`- '
ĠRemoved CommandError
ĠHas hes
Sec urityWarning
gener ic
Ġconnect ing
ĠRep ly
Red irect
Ġreco mm
Method s
Mutable Mapping
ĠValid ationError
rou gh
Ġlang uage
Ac cept
gra mm
åº Ķ
andid ates
qui val
JANG O
nor mpath
virtual env
ĠSim on
ĠDATE TIME
ĠHart ley
ĠAnsiTo Win
Ġmatplot lib
) ?
) [
) ]
) ')<
2 4
> (
A gg
A nd
B ar
C C
C ore
E AR
F il
I ter
K B
L et
M T
M ax
N G
P ath
T rie
T ypedDict
Y AML
] ):<
] ])
a ut
b c
c ss
e lt
e lif
f ers
g ate
h s
h ou
j ection
j pg
l m
l in
l us
m ro
m me
p i
s rc
t w
t ure
u ce
v ice
w arning
w ard
Ġ 7
Ġ ):<
Ġ lib
Ġ exce
Ġ queue
in ay
re lease
re cogn
ro ject
at io
st yle
he ight
Ġp ort
Ġp ure
Ġp ix
Ġp sycopg
Ġc rypto
an ne
Ġre verse
Ġre gex
Ġre cent
Ġre members
ar th
ur ing
ur istic
Ġd ot
Ġd amage
ge titem
Ġs low
Ġs imilar
ic s
Ġb s
Ġb ar
Ġ" --
ĠT E
ĠT oken
Ġm ass
Ġm apping
ter face
ce ptions
Ġ( -
str ings
Ġan ything
ĠS aj
ĠP arse
ĠP IL
ĠP OST
ol ds
ĠC rawler
ĠD is
ĠD irect
ĠD ecimal
ĠL e
name d
ect or
et c
Ġl ater
Ġcon stants
~~ <
Ġfile system
Ġde l
ĠM iddleware
ĠU T
qu ote
ĠG eometry
âĸ Į
Ġ2 4
Ġme ta
Ġme mory
ict Version
Ġnot e
Ġpar sing
val s
Ġwh ose
ĠE xt
ĠE mbed
sc reen
ow er
Con tent
Ġse nt
Ġse arch
Ġse conds
Ġ1 6
IN FO
path s
ĠV ariable
ĠV inay
Ġy az
Ġte mplates
Ġgo od
Ġex pression
base d
base s
Ġso mme
ĠW ill
ĠW indows
Ġ{ '
CK ET
ree ment
mo unt
RE D
Ġtr aceback
ĠY ou
Ġad ding
Ġad ds
user id
Ġro und
list e
back port
Field Info
Base Command
St art
St orage
Ġapp lication
Ġconfig ur
UN K
cal c
Ġk nown
dict or
point s
ĠNot e
spec ifiers
Par sedVersion
Ġass ume
Ġresponse s
ick ling
red uce
En ter
ak ref
LO W
AN N
[: -
Ġsp eed
arg v
Pro xy
lif y
Ġgener ation
wh ile
Ġimage s
56 78
Se e
ryp oints
atase ts
ĠGE T
Ġexp licit
ĠWe b
AB LE
Ġrep r
Ġhe ight
Ġunpack ed
ĠLo okup
ĠData Loader
Ä± r
Ġtele gram
ĠQ uery
ĠName Error
eng ine
Ġload ing
Ġauto mat
ĠZ ipFile
Ġbin ary
ĠEn vironment
Ġexist s
mod ified
ĠTLS v
Ġq r
ertif icates
Ġcre ated
ĠRequirement Set
98 6
Ad min
Hel per
ont end
Ġcal cul
Ġcal endar
contain s
ĠUp date
sk ip
Ġuti lities
Ġuti lity
Ġdefin ing
glob al
reg ate
Ġag reement
TION S
MO DU
Ġcontribut or
Contain er
ĠRemoved InDjango
Format ter
Ġip address
ĠOutput Config
IG H
Ġconf lict
dest roy
metric s
nl p
Ġerr no
ĠMy SQL
ĠMet adata
Auto Field
Represent s
Retry Error
LOB AL
åºĶ çĶ¨
quival ent
CC EP
Ġcrypto graphy
ĠSaj ip
MODU LE
( -
) \
) ."""<
- %
1 3
3 1
: ]<
= ""
= ['
> ):<
C Compiler
D is
E C
F orm
H TML
H older
M S
M is
M edia
N OT
N LP
P re
R F
R un
R out
S O
S ite
S calar
T ypes
Z E
] ))<
c p
c ast
c fg
d ated
d uct
e k
e lement
f y
f it
f rame
f eature
h yp
m k
m db
m ary
m apping
n ed
o ok
p c
p ol
p tr
p ayload
r and
s lo
s ites
s leep
t or
t act
v ing
Ġ //
Ġ urls
Ġ limit
Ġ escape
in ator
on d
se gmentation
re quirement
re nder
Ġt k
st at
en neth
de an
ti c
ti ties
Ġp n
Ġp ot
Ġp age
Ġp latlib
me an
Ġre g
Ġre v
Ġre set
Ġre mote
Ġf ramework
Ġf av
ss ql
Ġd irection
Ġd uring
ge ometry
Ġs chema
Ġs leep
Ġin ser
Ġin planes
Ġin itialize
Ġin side
def in
lo ss
la p
la ke
Ġb it
Ġn ow
Ġn atur
ame ter
Ġm ar
Ġm ixin
go od
to p
Ġco st
Ġreturn ed
Ġ' '
get attr
ĠS U
ĠS pec
ĠS upport
ĠS afe
ĠS imple
ĠN ormalizedName
ĠD ownload
ĠD ataset
ĠA d
int ain
Ġth rough
Ġof f
con n
ĠL ine
ser ve
tr act
ch ild
Ġ_ ,
() )
et f
Ġr ather
Ġl r
Ġl xml
Ġl mdb
Ġcon fi
ure Transport
ĠF ake
ma jor
ĠM ake
ĠG roup
Ġg raph
(" [
(" {
ternal Error
Ġe p
Ġe ar
ĠO GR
ĠH el
ĠE mail
mat ches
mat rix
Con structor
Con straint
Ġse cs
ĠRe itz
Ġon ce
Ġcomp arison
ĠIn secure
are a
Ġen gin
ĠV S
Ġab stract
iv ed
sol ution
ag ment
ag ainst
Ġma il
ind ll
do ck
ree ze
Ġch unk
pp ed
ary IO
ĠY EAR
Ġat t
Ġad just
len NLP
list dir
Ġpre ferred
Ġpre served
bo und
ĠR ed
ĠR Lock
Ġ3 0
min or
ou gh
ĠBase Specifier
Ġ| =
St ack
Ġcheck ing
DE D
FI G
ĠCon text
.. /
ĠHTTP Response
Ġdet ect
Ġunicode data
test Case
attr s
De f
ast ype
Time stamp
Un icode
Ġdis patch
xt Output
Ġ202 2
pos ition
Res olver
Ġle ast
Ġle gacy
Gener ator
ĠSt ore
ĠSt art
ĠĠĠĠĠĠĠĠĠĠĠĠĠĠĠĠ Ġ
LO CK
ĠOr acle
([ "
enti al
12 34
jo ints
Ġchar ge
Ġrepresent ative
cli dean
Ġmatch ing
ID NA
Ġgener al
Ġgener ating
sche ma
cur ity
âĸĪâĸĪâķ Ķ
ĠURL s
Ġorig in
Ġman ip
dot env
Ġencode d
ĠData S
how to
find ers
Ar ray
Ġlink s
inter preter
(? =
ĠQ u
Ġmulti part
Ġcons ider
ĠDatabase Features
mmary Writer
Ġ200 8
Ġmat ches
wait Key
ĠZ IP
enum erator
dep loy
cle ar
ld flags
SI ZE
ĠAl lenNLP
Enumer ation
ï¼ Ī
ï¼ ī
Th ere
range s
ãģ ®
Ġred irect
ĠSu mmaryWriter
Ġur itemplate
Ġiss ues
ĠPip Session
ĠLO GGER
Ġoptim izer
widget s
Ġdoc utils
Bu il
Ġwin reg
85 9
OP EN
Or dered
ĠKey Error
ĠNum ber
ĠCode c
Ġproble m
ĠMax RetryError
âĸĪâķ Ĺ
Pack age
Ġoc curs
Support ed
vid ing
ortc uts
ĠIP v
Ġvar name
ĠMark up
Ġcorrect ly
Archive View
Ġide a
ĠSec ureTransport
Ġloc ale
GRA M
cer ts
Ġ~~~~~~~~ ~~~~~~~~
erbose Logger
lang uage
ĠTemp Directory
Help Formatter
ĠRead TimeoutError
Ġrecomm ended
aut og
hou se
lin space
Ġexplicit ly
CCEP T
slo ts
Ġengin es
deploy ment
" \
" }<
) -
) ``
8 859
= (
> :
? ,
C allable
D JANGO
E LS
F RA
F FIX
G A
G LOBAL
H ook
K IP
M Q
M ap
M atch
N orm
N ull
O INTER
P or
P EP
P TR
S c
S h
S NI
S ampler
S KIP
T arget
U se
W indows
W ARNING
Z a
Z one
Z MQ
` _
a zy
a iled
b s
c ing
c id
d l
e asy
f c
f actory
g zip
i er
i ver
l inux
m as
n ter
n am
o olean
p pro
p ublicId
r Config
s m
s up
s ources
s ole
u c
u int
w in
z eros
} .
} ,<
} ({
Ð °
ç »
Ġ ed
Ġ li
Ġ head
Ġ ends
Ġ 40
Ġ âĸĪâĸĪâķĳ
or k
in ation
in valid
er ge
on es
on th
se nd
se ctions
imp lement
ro pped
Ġt itle
at ter
st ock
al ph
Ġp x
Ġp lay
Ġc allable
Ġc ause
an i
an ose
Ġre ce
Ġre str
Ġre quire
Ġf ix
Ġf allback
Ġf eature
ss ian
Ġd er
Ġd id
ge topt
Ġs at
Ġs light
is olation
ut es
ac ti
Ġin teger
lo gs
la mbda
Ġ" :
Ġw alker
Ġw ritten
un its
es er
ex p
fi er
ĠT EXT
ĠT akes
ĠT ags
ec k
Ġm ost
ad do
Ġdef ines
Ġto ol
il ation
Ġfor ms
ate ver
ĠS E
ĠS ome
ĠS how
ĠS canner
ĠP ref
ĠP ep
ĠP ost
ĠP OINTER
ab ly
ab out
ip v
ĠC A
ĠC allback
ation Result
ĠD AT
ĠA N
ĠA c
ĠA re
ĠL ock
ser ialize
name dtuple
set ter
set Le
sp ath
Ġ. __
Ġ. ._
ch ange
() `
Ġr aw
ĠF ore
ĠF unc
ĠF inder
Ġlo wer
Ġpro cessed
Ġde al
Ġde precation
ver i
ver ride
te gr
Ġh uman
um b
ul ar
(" -
(" --
par ation
par ts
ĠB ack
', "
ĠO peration
ct or
app ed
ĠH and
Ġwh itespace
Ġwh atever
In spect
sc atter
out files
(' /
Con nectTimeoutError
version control
com ment
Ġse lect
ĠRe verseIP
00 1
00 00
00 01
EN D
fo und
IN E
ĠV ER
Ġma de
Ġma intain
mb re
TI CKET
ĠW arning
ĠW ARNING
ĠW KT
Ġurl join
Ġpass word
read er
config uration
Lo ss
Ġtr ain
data Elements
ST AT
ĠAn chor
Ġpre vent
Ġpre paration
ĠDist libException
ĠR un
ĠR ec
ĠR NG
os x
Ġpy ssql
las k
Ġnum B
ĠDO WNLOAD
ĠCon tain
Ġkey board
The se
Ġrun ner
test s
gr pc
ĠNot Supported
Ġla zy
Un ion
Ġtest ing
ari es
ign Attributes
prese nter
NU M
Ġsc ene
Implement ation
red irect
red enti
Ġencoding s
iss ue
Ġter min
En able
ak ing
method s
enti ally
dis patch
Ġinter pre
ĠInvalid Header
DO CTYPE
HTTP Warning
Key board
clu ding
su ch
inser t
onic al
system Id
Data ZMQ
Ġind ent
not e
ĠSpecifier Set
Tr ansform
Ser vice
Ġexp ects
ized Format
Ġcase s
Ġunpack b
char s
rit ing
Do c
]+ \
Ġspec ial
Ġhand lers
Ġwor king
can onicalize
regex p
Ġaction s
au ssian
content types
ĠSSL Error
ĠSSL Transport
Te mplate
ASE T
ĠEn coding
Ġexist ing
âĸĪâĸĪâķĳ âĸĳâĸĳ
Token izer
mon th
xml rpc
âĸĪâĸĪâĸĪâĸĪ âĸĪâĸĪ
connection s
ĠAS GI
ĠTr aceback
ĠTr ansform
Ġstart ing
Ġtuple s
Ġcre ating
ĠUp load
ĠHTML Input
Ġexec utable
curs or
ye ar
Ġprodu ction
ĠUnpack er
(.* )")<
ALI Z
Valid ationError
Bu ild
etch DataZMQ
lr u
Ġpow er
ĠOS Error
ĠCacheControl ler
ĠCacheControl Adapter
Email Backend
Rec urs
Ġet c
Ġqu ote
ven i
âĸĢ âĸĢ
Cre ates
enc los
Ġdescrib ed
ĠModule s
ĠOpen SSL
SU FFIX
Exec utor
DataF low
ĠInline Keyboard
FIELD NAMES
Call er
ĠÐ ³
Ġpur poses
Ġfin ding
tra ined
Basic Auth
Det ails
namespace URI
ĠMode l
Ġparsed ate
Abstract Distribution
flo od
Ġpad ding
Ġsimp ly
âĸĲ âĸĪ
Ext Type
Fore ignAttributes
normal izer
ÅŁ t
ulner able
ĠOn ly
ĠHidden Text
Ind ividual
Ġscan ner
what wg
recogn izedFormat
Ġconfigur a
5678 9
ĠLookup Error
IGH TS
Scalar String
Ġpot entially
Ġfav or
ĠSpec ific
Hook Caller
anose conds
Ġrestr iction
Ġslight ly
addo ption
ĠPref etchDataZMQ
setLe vel
tegr ityError
Inspect or
ĠVER BOSE
ĠRNG DataFlow
redenti als
ĠHTMLInput Stream
SUFFIX ES
" (?
" (?:
' ".
) /
- _
- ]*
1 9
3 0
3 986
4 00
= (),
> )
> /
> ``
A k
A RE
A PP
A ppro
B RA
C ustom
C lose
C rawler
E vent
E arth
F C
F ind
F UN
G P
G n
G MENT
I mage
J ar
L LOW
M od
N ormalizedName
P AR
P OST
S cheme
S chema
S ITE
U AGE
W H
Y Y
[ <
[ \
[ ^
_ /
a Ã§
b ad
b lack
b idi
b ably
c tr
c ice
c lose
d t
d ic
d ating
e ff
e poch
f p
f act
g ame
g round
h ere
i hat
k t
k es
k ik
n on
n py
n om
o lt
o ser
o ve
p d
p in
p ad
q rt
r ong
r aise
r aries
s ity
s ome
s rf
s lash
t ls
t ask
u ch
u uid
v ari
v ulnName
w s
w ay
w alker
w heels
x ff
} ".
» ç»
Ð ¾
Ñ Ģ
á ŀ
å ħ
ð Ł
Ġ ,
Ġ 64
Ġ label
or ith
or land
in p
in ject
in ct
er atationConfig
er cice
mp orary
se q
re n
re set
re di
at tern
at ial
at ibility
en u
de b
rom e
le t
Ġimport ant
Ġp ol
Ġp lot
Ġp ickling
Ġc are
me ss
__ `
ing redi
Ġre li
Ġre lat
Ġre dis
it able
Ġf ast
ur lopen
Ġd ay
Ġs in
Ġs ide
is h
Ġo w
ac tive
Ġin cluded
Ġin stru
Ġin cluding
lo cation
la m
Ġb ound
Ġb undle
Ġ" *
Ġn one
ist ant
Ġw s
Ġw ere
un ix
ex ml
Ġm d
Ġm y
Ġm kpath
ad ow
ase s
Ġto p
Ġco p
Ġco me
Ġco uld
li m
li p
Ġ( /
ot onic
Ġi Ã§
Ġ' {
get root
get mro
ap pro
ĠS cheme
ĠS ocket
Ġas k
ĠP attern
class method
ĠN ight
ĠN EO
el y
ĠD ate
ĠA lso
Ġth ose
con d
con vert
ch er
ch oice
Ġv cs
Ġ_ |
() '
() ):<
__( <
Ġcon n
Ġcon v
Ġcon stant
Re g
Ġlo op
ma ke
Ġde le
Ġde sign
ĠM edia
ĠU sed
Ġget env
Ġget gr
te ur
ĠG o
Ġg zip
(" .
(" _
ĠB ert
ĠB orland
âĸ Ħ
Ġun ix
Ġos crypto
Ġme taclass
ĠO ther
Ġbe low
:// ``
file system
pre ds
pre process
rib ute
ĠH at
ĠH EAD
ĠH eaders
ols un
In ternalError
ME GA
if ler
SE CU
SE SSION
comp letion
Ġname d
Ġname prep
Ġon es
ĠIn teger
IN PUT
are Mixin
Ġen v
ĠV erboseLogger
us age
Ġ: "))<
key ifler
CH ANN
vi ous
Ex ercice
read the
do m
Ġlist s
Ġtr ail
Ġuse ful
Ġar aÃ§
ING S
") ):<
IT P
IT Y
Ġat temp
Ġwe akref
Version TypeVar
bo sity
ĠR andom
ĠR ename
ĠR FC
Ġformat date
Ġformat ting
ĠBase SSLError
Ġread ing
SS WORD
dir name
Ġ| -
ĠNOT E
af f
af Ä±
Ġtorch vision
CO UN
Ġcache s
DE F
LE MENT
ĠCon nectTimeoutError
.. .<
ĠHTTP Exception
Ġsub command
Ġsub domains
Ġrun s
gr id
nd an
Ġout planes
compat ibility
ĠDistutils Exec
ĠDistutils Platform
Ġla m
sh ared
ĠSet s
ick er
Gener ate
ne ed
NO WN
raw l
dev ice
Ġfol der
Ke kik
Ġ5 0
Ġback wards
Ġsp awn
dis pose
ĠTo ml
AD D
Ġnew er
su ccess
ĠEx ceptions
)) ;<
Request s
Ġgener ated
sche mas
log y
pat ial
match ing
Ġper missions
Comp areMixin
support s
ĠRequest Methods
ĠPro vides
abstract property
COL OR
Ser ver
View Set
GI S
Ġresol ver
Do main
pyp lot
Char Field
'] ,<
Ä± lm
Ä± ÅŁt
ph o
Ġ"" .
Ġtele graph
ĠQ ueue
edit or
Ġenum erate
Te mporary
Ġcons istent
row s
row ser
manage d
Ġret val
Ġret rie
Ġstate ments
27 28
ãĥ ³
ãĥ ¼
Ġend ing
mon otonic
ĠAr g
ĠAr gs
Ġdependen cy
Option Parser
return s
Ġoption ally
ĠText IO
At tribute
ĠAl ter
ĠConfig OptionParser
Up per
ĠFI X
contain er
argument s
Ġasy nc
Ġsepar ated
operator s
Ġâĸ Ħ
unpack ed
ANG UAGE
MO DE
Ġinclude s
ĠIO Error
scan ner
Mark up
cl us
Ġopt s
Ġlogic al
Ġpost gres
PP ORT
Ġfull name
ĠEnum eratationConfig
))? "<
======== ========
Sy stem
Ġtar afÄ±
Ġdown sample
Ġmod ify
ĠPer mission
"^ (?:
}) >
Ġfr ontend
Ġproble ms
Arg umentParser
resolve lib
bt n
cookie lib
>~~~~~~~~~~~~ ~~<
eu clidean
Ġinv ok
Used Container
ade mi
wrapp ers
å® ļ
ĠTO DO
QU I
ĠHash Mis
Ġalg orith
Based CompareMixin
ĠProxy Error
Alter Field
allen nlp
ublis hed
complete Read
Ġpattern s
Ġtz info
Ġcriter ion
ently UsedContainer
Cookie Jar
Process or
Let ters
Ġlib raries
anne ls
ĠUT F
screen x
Ġyaz Ä±lm
MS G
Ġinser ted
Ġconsider ed
FRA GMENT
Ġder ived
ĠHand le
Recurs ive
Ak ademi
ihat exml
vari ant
ingredi ents
Ġinstru ctions
ĠiÃ§ in
Ġgetgr nam
SECU RE
keyifler olsun
readthe docs
COUN T
ĠDistutilsExec Error
ĠDistutilsPlatform Error
Kekik Akademi
Ä±ÅŁt Ä±r
ĠtarafÄ± ndan
ĠHashMis match
ĠyazÄ±lm Ä±ÅŁtÄ±r
! ")<
# (.*
' \
) (
) >
) ]<
- =
- \
/ ?#]*
1 5
1 99
3 5
3 7
4 6
4 40
5 00
6 5
8 6
9 1
> |
> ..
? ([^
A M
A g
B it
B atch
C AL
F rom
F irst
G EX
G raph
G DAL
H O
H i
H ost
I t
I ME
L Y
L ATE
L ine
L egacyVersion
M IN
M ATCH
N on
O L
O M
P L
P er
P ass
P ORT
P RO
S A
S end
S ingle
T OR
T able
T ok
T ags
U P
U SE
V AL
V ideo
W hen
W KT
X X
[ (
\ ",
b a
b ro
c a
c r
c at
c ap
d an
d if
d river
d atasets
e ign
e lementTree
e mbed
e mpty
f lat
f fix
f qd
g on
g en
g iven
h n
h ig
h ome
l on
l lic
m or
m igr
n ull
p lit
p ep
q r
r atio
s l
t ection
u i
u ish
v ale
v Options
w b
x ception
x ies
³ »ç»
ä »
ç ļ
ç ³»ç»
è ¡
Ġ 8
Ġ OR
Ġ labels
Ł åºĶçĶ¨
or ing
or ator
in i
in s
in to
in ery
in spect
in itialize
on ent
se ed
imp l
Ġt type
de velop
Ġa label
Ġa udio
le ar
le ve
ti re
al ter
Ġp ic
Ġp ai
Ġp ublic
Ġp lus
Ġc l
Ġc m
Ġc ar
me di
__ ).
ing uish
Ġre m
Ġre nd
Ġre ponse
Ġre du
ar ge
Ġf ig
Ġd st
Ġs ignal
Ġs cope
Ġo l
Ġin her
ic ies
Ġb an
co unter
Ġn d
Ġn ormal
># :
Ġw indow
Ġw indows
Ġw indll
un install
ent rypoints
ĠT ask
ĠT xtOutput
Ġm i
Ġm ix
Ġm iddleware
Ġm erge
Ġm onth
id na
ad v
ad apter
ce il
ri llic
th is
to day
Ġto gether
Ġco mb
li er
ot s
ot ation
Ġi glob
ate g
Ġan other
Ġ' *
ĠS o
ĠS ite
ĠS und
ĠS calar
ĠP ri
ĠP ass
ol ution
ĠC ertificate
ack ing
and Holder
el come
int ranges
Ġth ing
con stant
as ure
ĠL og
ĠL inux
name spaces
sp atial
gg regate
Ġv isit
Ġv ulnInfo
et val
Ġr and
Ġ` __
Ġu label
Ġu dB
mm utable
Ġlo ader
for ce
for wards
Ġpro file
Ġpro gram
Ġpro viding
Ġpro bably
Ġde precated
", "
ĠM IME
per andHolder
Ġget s
ire f
ire ctions
qu ential
ĠG e
Ġg en
Ġh app
um ns
âĸ ĵ
Ġe mit
Ġun su
Ġun less
Ġ2 55
Ġme ant
ig u
Ġbe come
file post
Ġpar ses
pre trained
ĠH AS
In teger
ĠĠĠĠĠĠĠĠ ĠĠĠĠĠĠ
Ġst ar
Ġst ore
Ġst ep
Ġst op
Ġst orage
(' \
(' --
com bin
SE TT
SE xception
Ġse g
Ġse ction
Ġse cret
comp il
ĠRe vOptions
Ġ1 28
fer ences
Ġcomp ile
Ġcomp teur
ĠIn tegrityError
Ġen vironment
Ġen gine
Ġen tities
~~~~ ~<
Ġab ove
Ġint rospection
ag inator
ok u
Ġsh ort
key words
Ġex it
Ġex poses
Ġma kes
Ġcode s
mb igu
CH AT
CH AR
ĠW ork
Ġurl encode
Ġlist e
form data
Co uld
ER T
RE CT
RE GEX
ĠGener ate
Ġdo ing
Ġdo uble
IT ext
lic ations
TIME OUT
sy mbols
Ġat om
ĠImp lement
Ġbase name
Ġbase string
ive Server
ĠUn parsedVersion
back wards
Ġ3 2
Ġ3 00
Ġ3 02
lu g
SS chemaEditor
Ġup dated
num ber
hel lo
], "\
St ore
uct ure
ra ster
Ġz one
Set up
ĠVersion Control
gr ad
De lete
Ġpo p
AL P
ĠDistutils InternalError
sh ortcuts
sh grid
man y
ĠSt atic
enti ties
buil der
DO WNLOAD
Pro vide
EX CL
default s
Ġadd tor
Ġmax imum
ĠEx it
Dist utils
ach inery
Se quence
Se quential
ĠDe codeError
ĠFile s
ĠFile List
av ing
DI S
ĠPro gramm
Database Error
Database Wrapper
node s
Ġver ify
Ġexp ire
Ġstruct ures
GI SSchemaEditor
Ġrep ly
ĠCallable Operator
enden cies
ĠLo ad
Ġtrans lation
Ġtrans action
): )?
Ä± n
PY OPEN
mark ers
API Exception
Ġauth entication
ĠRes olver
au sed
Ġextract ed
Ġsk image
([^ }
([^ ?#]*
ĠDatabase Wrapper
Ġappro ach
block s
tz info
dep endencies
Ġbin ascii
exec ute
TE ST
mon go
Ġent er
Ġent ry
ĠGEOS Func
ĉĉ ĉĉ
Ġmin or
Ġbuil ding
pri v
extr as
extr act
ĠTr ans
Factory Factory
RO OT
Up date
err check
rev ers
Ġmo ve
Ġmo ving
ĠTemplate DoesNotExist
Ġoverride s
Ġreport s
ĠBin aryIO
Ġexec ute
bit wise
gres Operator
sk learn
resol ver
ĠTimeout State
Th read
Ġtable s
Ġbet ter
Ġchange s
Col or
Missing Warning
ĠPip Error
Ġge om
Ġge ometry
Ġright s
Ġascii Upper
Ġascii Letters
âķĿ âķļ
ĠResponse Error
CL I
USER S
ĠStr ictVersion
ĠStr ucture
ĠAt tributes
Ġalph a
prep are
"^ \
ĠTh ere
ĠTh read
Ġspecific ation
All Windows
ĠSNI MissingWarning
Ġevent ually
DataF rame
74 98
MP LATE
VI DED
thread ing
ĠInst ead
ĠIncremental Decoder
web m
DAT ASET
Platform Warning
wrapp ed
Ġadap ters
Ġscreen y
Child Nodes
fr agment
termin es
ĠSp inner
Ġdevelop ment
Ġbyte array
Incremental Decoder
Ġsuccess ful
ĠHow ever
ĠGEO SException
Dep endency
Ġact ually
Ġprep are
Ġregist ry
ĠIndex Error
HTTPConnection Pool
ĠSuspicious Operation
Fil ename
Ġdot env
destroy AllWindows
Ġtk inter
defin ing
("{ ([^}
ĠInsecure PlatformWarning
âĸĪâĸĪâķĶ âķĲâķĲ
(?= \
Enumeration Time
Buil der
?, ?,
ĠContain er
ĠNotSupported Error
veni ence
Appro ach
Close Approach
Ġpol icies
vious ly
Temporary File
ĠArg umentParser
ĠFIX ME
})> ".
#(.* ))?
?([^ #]*
Batch Norm
fqd n
migr ate
çļ Ħ
ç³»ç» ŁåºĶçĶ¨
Ġinher it
ĠSund ay
ĠCertificate Error
Ġunsu itable
SETT INGS
Ġatom ic
iveServer TestCase
Ġaddtor etval
PYOPEN SSL
ĠGEOSFunc Factory
gresOperator Lookup
ĠTimeoutState Error
! !
" [-
" (\
$ \
$ ")<
' }<
) }<
+ )
+ +
- '
. |
. )<
. ",<
. '<
. ]+
/ '
1 4
1 55
4 5
8 60
8 74
9 0
: \
> âĸĳ
A V
A v
B an
B ound
B utton
B idi
C lasses
C ast
D LE
E nd
E LEMENT
F low
F eature
H ash
H OST
L INE
L ANGUAGE
M ac
M IS
O DE
O perations
P M
P age
P ER
P ickle
P oint
Q u
S u
S ur
S ib
S wagger
S UCCESS
S cope
S patial
T A
T ag
U I
U rl
W G
W M
W R
W heel
] %
] :
] >
] ')<
] ),
] +=
_ .]+
a at
b et
b lit
b old
b lue
b lake
b rowser
c d
c ython
c pp
c ert
c rawler
c rt
c ertifi
c dataElements
d ig
d ence
d ataset
d ater
d umb
e ss
f ull
f allback
f etch
g id
g mail
h an
h ol
h ang
h mac
j k
j it
m li
m up
n od
n orm
n tax
n fc
p l
p ed
p ower
s age
s ingle
s nip
s rid
s HelpFormatter
t re
t ar
t li
t len
t Color
u do
v isit
v mess
w d
w ik
z z
z ero
{ [
£ ħ
Ã ł
Ð ±
á Ł
å Ī
æ ľ
è £ħ
Ġ es
Ġ âĸĪâĸĪ
ī è£ħ
or ry
in v
in clude
er ly
er tain
se n
se il
se conds
se cret
se curity
re m
re name
re sp
re ssion
re map
re lated
re leve
re ferences
ro uter
ro gate
Ġt ries
Ġt idx
st ere
st ored
en ied
Ġa ff
le l
le ach
Ġimport er
ti tion
al g
al ind
al cul
al lel
Ġp lan
Ġp ublicId
Ġp hoto
Ġc e
Ġc r
Ġc li
Ġc ertifi
Ġc andidates
Ġc ertain
an no
me shgrid
__ ",
Ġre al
Ġre sp
Ġre spon
it ow
Ġf p
Ġf ed
Ġf rame
ss al
Ġd t
Ġd ry
Ġd rop
Ġd ilation
ge s
ge to
ge om
Ġs ure
Ġs ources
Ġs rc
Ġs qrt
is ing
is hed
Ġo cc
ac cess
Ġin tern
Ġin line
Ġin cremental
def late
ic i
ic er
la in
Ġb ad
Ġb ns
co st
co ls
co mm
Ġ" &
ed Graph
Ġn og
Ġn ative
Ġn ull
Ġn anoseconds
Ġw ild
Ġw rapp
Ġw riting
Ġw rong
un ce
un der
un named
ex to
ex clus
ĠT F
ĠT urn
ec tive
ec orator
Ġm k
Ġm us
Ġm uch
id enti
Ġdef ine
ri vers
to o
Ġto day
Ġto tal
---- <
li eu
ers core
Ġ( ...
il ent
Ġi mmutable
Ġfor eign
ate ly
Ġ' )<
Ġ' ',
Ġ' ''
get env
get TreeWalker
ĠS c
ĠS ty
ĠP M
ĠP rom
ab el
ab solute
ab lis
ab seil
ĠC an
ĠC lass
ĠC ore
el low
ĠD eser
ile Error
ĠA s
ĠA ctor
int eg
con su
con cat
as c
as d
ĠL AB
AT WG
sp lash
pro tected
OR Y
ch art
ch ard
Ġv ary
Ġv ide
Ġv oice
Ġv ulnName
() .<
() ]<
Ġr cdataElements
bu y
bu gs
Ġ` .
Ġ` `<
Re verse
ĠF lask
Ġlo ck
Ġlo oks
que es
ext end
ma ss
Ġpro tected
Ġpro duct
Ġpro tection
Ġde v
Ġde st
Ġde prec
", )<
ĠM S
ĠM ac
ĠU R
ĠU RI
ĠU sers
Ġget Node
Ġg u
Ġg id
Ġg pu
Ġdist inguish
Ġh ow
Ġh ou
ai x
ĠB asic
ĠB ASE
ĠB lur
Ġe k
Ġe lt
Ġe ff
Ġe ven
Ġe uc
FORM ERS
Ġ2 7
ĠO ne
:// ",
ct x
Ġpar ameter
pre ss
pre dictor
Ġor dered
ĠH e
ĠH olds
ĠE X
ĠE OF
proto col
Ġst ill
Ġst arts
version s
com ing
Ġse quence
Ġse cond
comp onent
endor Import
ĠRe port
ĠRe mote
Ġ1 3
ay ssal
cont exto
ĠIn terface
fo o
Ġen coder
ĠV endorImport
us h
iv es
Ġint ention
ok ri
Ġ+ <
Ġcol ors
Ġcol lect
Ġex pos
Ġex cl
ĠW KB
Ġurl un
mode s
col umns
Ġmodule FactoryFactory
do ptions
dist ributed
Ġch unks
res ize
`` .
02 4
ml ink
Lo cation
RE P
RE S
RE SET
RE QUI
RE DIS
Ġtr a
Ġtr ack
ĠGener ic
Ġar ch
Ġar ray
ĠY ear
lic k
ource Cache
ans itow
valid ate
valid ators
Ġunder lying
Ġro ut
ĠUn supported
ĠUn known
Ġx space
Ġpre process
ĠR aised
ĠR aise
ĠR PM
Ġsy m
Ġsy mlink
ĠCommand Handler
Ġformat ter
Field Mixin
Ġpy open
Ġpy autog
ib ly
min i
PI P
Base Model
Base Specifier
ill on
Ġdefault s
num A
01 234
ðĿ Ķ
Ġapp ly
Ġapp lications
af k
af ter
ra ys
AR Y
CO DE
DE LETE
Ġno python
Ġno mbre
LE GRAM
ĠCon tact
UN D
ep at
ep gram
Ġz eros
build ers
urre d
urre nc
cal lable
by e
Ġsub classes
abc def
Ġimplement ations
Ġout files
compat ible
Time Error
Time zone
Time Zone
Ġinput s
spec s
format s
Un recognizedFormat
ign ore
Par ti
Par ams
Ġsome file
Ġsome other
image s
LS cheme
Ġsc ale
FF SET
Ġinstall ing
][ '
lan chard
NO FO
ends with
Ġter m
ĠĠĠĠĠĠĠĠĠĠĠĠĠĠĠĠ ĠĠĠĠ
ak ik
LO GGER
trans action
Ġback ends
Ġback ports
12 7
12 8
Ġsp acy
WE B
WE IGHTS
dis p
Ch annel
ĠInvalid Codepoint
DO UT
AD ME
File Error
mi lieu
ĠJ ust
Ġpkg util
cre te
Ġnew name
Ġmax vals
Key word
Ġfollow s
Ġac tive
Request Error
Ġgener ic
Ġ*_ :
sche d
Ġvalid ators
Tree Builder
Ġap kpath
Ġinst allable
Ġcall ing
Dist libException
ĠTe legram
ML DecodeError
run ner
ĠDe termines
ific ation
av ily
ĠAPI View
context j
context manager
Ġextr action
DI RECT
Ġtw ine
Database Features
node Value
hash lib
Ġ4 27
extern ally
AB ASE
Ġtoken izer
]* )}
Ġhe alth
Ġdep th
safe string
PRE TER
PRE SSION
ĠData Loss
ĠData Processor
Ġhand led
ĠPY THON
ĠPY TOR
Ġtrans late
VER BOSE
ĠDo es
TYPE S
cy rillic
Ġrefer enc
Ġsort ie
edit able
Install er
Install ationResult
Ġxml rpc
Ġextract ing
net loc
wrap s
Ġsk learn
([^ \
Ġpos ition
ĠDatabase Error
Invalid Codepoint
TER N
det ails
cv tColor
block ing
dump s
inst ead
COM P
COM PRESSION
Ġcover ed
ĠNo Return
ĠNo Reverse
FO UND
ho oks
rev ctr
std lib
resh old
Ġusage s
Stream Handler
Stream Writer
Stream Reader
MA IL
sign als
Ġexec utor
Ġrender ers
KEY S
Ġpat ches
Ġred act
ĠIN FO
optim ize
JSON Field
201 5
Ġparent hes
ĠCreate Model
ĠLO GS
Ġsystem Id
Ġoptim ization
DB Feature
He uristic
Output FieldMixin
plot ly
Ġwel come
ĠCh ange
Comment Type
ĠLibrary Loader
PAT TERN
Ġsol ve
=[ ]<
CT RL
Uti lity
ĠSH O
Read TimeoutError
('. ')<
CUR ITY
PA SSWORD
ĠK enneth
ĠAuth Info
Ġlook ed
Auth or
OP TIONS
lur al
Ġdig its
lookup s
ĠNum Py
Ġstatic files
INTER PRETER
ĠNamed TemporaryFile
44 860
CON N
CON FIG
Ġpri mary
example s
Ġdescrib ing
ĠElementTree CommentType
Ġhandle s
################ ################
Ġtre es
Ġtre ew
ĠPar ser
ĠPar sedVersion
âĸĪâķ Ķ
Download Status
Pack er
my stere
eric OutputFieldMixin
Ġtri ed
Ġct x
ĠIncremental Encoder
indent ation
Str Field
draw ing
pk gs
å® īè£ħ
Ġperson al
Ġsm all
tra Data
ĠMo vie
doc strings
Default sHelpFormatter
Unpack Exception
Unpack ValueError
CRE AT
Incremental Encoder
ĠProxy Scheme
Ġparticular ly
OUT PUT
tensor flow
Ġpyp roject
Ġthresh old
Ġest ablis
ĠInput Features
ĠInput Example
Ġchoice adv
Ġreplace ment
)" ')<
@@ @
Date Time
cla zz
ä¸ º
Ġdump s
Ġvoid Elements
Ġeval uation
TRANS FORMERS
Core APIException
Iter able
tw ine
Ġexce eded
Ġpix elt
ĠDirect edGraph
ĠMiddleware Mixin
âĸĮ âĸĲâĸĪ
ĠExt Type
UNK NOWN
Ġautomat ically
="" ,
Form erly
hyp hen
Ġnatur ally
Ġmar quees
Ġ'' '<
ĠSU PPORT
Ġconfi dence
solution s
Ġadjust ForeignAttributes
../ ../
Def ect
Ġorigin ally
Ordered Dict
Sc ript
sup er
ani ye
ĠSE CURITY
ĠAre a
Ġmaintain s
STAT US
xmlrpc lib
Individual Specifier
-_ ]+\
Mod ified
WH ATWG
dating DefaultsHelpFormatter
eff ective
task s
Ġreli es
Ġrelat ive
Ġsin ce
ĠInteger Field
CHANN EL
Ġinvok ed
Recursive TreeWalker
Non RecursiveTreeWalker
SA FE
VAL ID
flat page
è¡ ¨
Ġcm doptions
Ġrend u
Ġhapp ens
combin er
compil ers
CHAR S
Ġzone info
CLI ENT
("{([^} ]*)}
âĸĪâĸĪâķĶâķĲâķĲ âĸĪâĸĪâķĹ
"[- _.]+
$\ {[
Bidi Error
MIS MATCH
Sib ling
hol istic
tlen eck
alind rome
anno unce
geto ption
Ġocc urred
Ġintern ally
Ġbns buy
comm it
Ġnog il
exclus ion
Ġmus l
integ er
consu me
ĠLAB ELS
Ġdeprec ations
ĠgetNode Details
Ġhou ses
ĠVendorImport er
Ġexpos ing
Location ValueError
ansitow in
Ġpyopen ssl
Ġpyautog ui
urrenc y
TimeZone Error
Ġsomeother file
LScheme Unknown
NOFO LLOW
akik a
ĠDataLoss Warning
ĠPYTHON PATH
ĠPYTOR CH
Ġreferenc ing
ĠNoReverse Match
revctr l
ĠProxyScheme Unsupported
clazz es
("{([^}]*)} (.*)")<
"[-_.]+ ")<
" %
( %(
) ^
) `
) "),<
) (.*
* \
+ .
, -
. ')<
/ {
/ ')<
0 9
3 002
4 3
5 12
6 1
9 3
: /
: =
; ")<
> '<
A C
A ss
B C
B E
B L
B IN
B OT
B GR
B LOCK
C N
C ls
C ash
C TION
C ENT
C IText
D D
D OT
D irect
F unction
F rame
F ull
G H
G e
G iven
H AS
H eaders
I F
I ST
J K
L M
L en
L ite
L og
L azy
L iveServerTestCase
M M
M ID
N EO
P Q
P i
P o
P ri
P ip
P rep
P ost
R G
R aw
S te
S ta
S ources
S OCKS
S can
T U
T Z
T ENSION
U V
U TI
V ariable
V EL
V GG
W X
W h
W hat
W KB
W ARE
Y Z
] (
] =
] \
] '<
] ]:<
_ *
a wait
b b
b i
b order
c nt
c losed
c ertificates
d irection
d rop
f A
f alse
f ont
f lex
g iref
h i
i mag
i etf
j a
j ar
k s
k u
k ind
k ernel
l st
l ings
m q
m ath
m ult
m ime
m time
m ixin
m outh
m apped
m achinery
n an
n ier
o peration
p ic
p lt
p time
p lat
p lugin
r up
r am
s om
s ible
s av
s imilar
t up
t ty
t ries
u u
u cle
u gment
v env
v ulnInfo
w it
w kt
x x
y ond
y gon
z ing
z ily
} .<
} '".
Â ·
å ¹
å Ĳ
è ĩ
Ġ ]
Ġ sel
Ġ el
or es
in el
in ations
er tion
er ce
on ts
ort h
se p
se par
se nt
re w
re ater
re cent
re cip
ro ss
Ġt a
Ġt u
Ġt urn
Ġt ags
Ġt aking
at t
at ure
at tribute
at tributes
st or
st ar
st ed
st ep
en o
en es
en nel
Ġa way
le v
le gate
Ġimport ing
ti fact
al f
al ways
Ġp lace
Ġp lanes
Ġp pu
Ġc y
Ġc ur
Ġc ame
Ġc api
Ġc enter
Ġc ertificates
an a
an al
an is
me tin
me dia
__ _
ar ange
it ect
Ġf s
Ġf ul
Ġf ree
Ġf lex
Ġf eed
Ġd en
ge o
ge ome
Ġs cop
ut ex
Ġo b
Ġo dd
Ġin sensitive
lo gin
lo op
Ġb ash
Ġb lan
Ġb ody
Ġb tw
Ġ" $
Ġ" '
Ġ" +
Ġ" [
ed YAML
Ġn ormalized
Ġn gettext
ist ory
Ġw on
Ġw ar
Ġw alk
Ġw riter
Ġw idget
Ġw ait
un ct
un ique
un patched
es pec
ĠT AR
ec es
ec ess
Ġm ot
Ġm ag
ad ap
yp ically
go ogle
go bj
ce stor
ri a
ri gin
th an
th ough
uti ve
to bool
Ġco uple
li r
li x
ers ity
il ater
up per
ot es
str ptime
Ġ' %
Ġ' -
ap ed
ĠS pat
ĠS ingle
ĠS can
Ġas st
Ġas giref
ĠP UT
ĠP oint
ĠP ATCH
ab i
ab ib
ab spath
ip e
ip s
ĠC re
ĠC all
ĠC ython
ĠC urrent
ĠC ustom
ĠC enter
ĠC ursor
ĠN e
ack s
Ġ__ <
Ġ__ ___
ĠD ep
ĠA ction
ĠA void
ĠA sync
Ġth ir
Ġth ink
Ġth row
con struct
con ditional
con verter
ĠI d
ĠI Domain
ĠL OCK
AT A
AT OR
pro file
pro vid
pro fit
tr action
OR E
OR ITE
ch annel
ch annels
ch ennel
ch anis
Ġv ow
Ġv ery
Ġv ale
Ġ_ )
() }<
() `,
et ag
od le
Ġr ich
Ġu f
Ġcon form
Ġcon trib
Ġcon structor
]< =
Re quires
Re presenter
ĠF orm
ĠF ull
ĠF actory
Ġlo aded
lib geos
tern ative
for med
Ġpro perty
Ġpro vider
Ġstr tobool
Ġde s
Ġde lta
Ġde tail
ĠM ixin
ĠM aps
ys ql
ĠU rl
ĠU sage
()< >
der nier
qu er
ĠG iven
Ġg ame
Ġg rid
Ġdist ribute
Ġh o
Ġh our
Ġh ome
Ġh mac
Ġh olds
Ġh aving
um n
ul ated
(" '
par tition
ĠB oolean
âĸ ª
Ġun ich
Ġun known
Ġun quote
url parse
url encode
Ġ""" :
Ġ2 3
Ġ[ ],
FORMAT S
Ġme ans
Ġme chanis
ĠO verride
ĠO perandHolder
Ġbe yond
py open
ult d
file Name
app dirs
ĠH um
Ġwh o
Ġby ref
In Text
In terface
ME SS
ĠE very
ir cle
ir cular
if est
ĠĠĠĠĠĠĠĠ ĠĠĠĠ
sc ene
ON E
ON G
ON LY
Con dition
Con sole
Ġse ctions
comp lex
ĠRe f
ĠRe try
00 02
Ġcomp ute
Ġcomp are
Ġcomp lex
Ġcomp letion
time s
are house
ange s
path lib
us ing
cs ize
iv ersity
Ġ: :=
ag ers
ag ram
Ġgo t
Ġsh are
Ġsh lex
Ġsh ared
Ġsh ortc
Ġso ft
CH UNK
ĠW arehouse
Ġurl patterns
col ors
Ex p
Ex it
IC ODE
dist inct
Ġpack ed
Ġtime stamp
Ġch r
Ġch ild
res ource
config s
config ure
RE SH
Ġar tifact
Ġ== '
ĠY outube
IT ORY
ST AR
rap s
ans ion
valid ation
valid ator
Ġbase s
em y
Ġcan onical
Ġro ck
TH RESH
Ġpre ds
Ġpre serve
Ġpre sent
bo ucle
ĠR o
ĠR ound
back ground
ens ure
=" \
ib lings
Ġnum A
SH andler
ĠBase Codec
ĠBase Reporter
ĠBase FieldInfo
ĠBase EmailBackend
Base Exception
Base Cache
Ġ| _|
St ub
Ġapp end
Ġimp licit
ra o
DE V
DE PRE
Ġno thing
LE VE
Ġiter ator
iter able
iter tools
Ġkey word
Ġkey words
Ġkey ring
auth token
Ġne ar
De v
De legate
nd image
202 1
ĠDistutils Setup
add r
ber t
ĠDict Metadata
Ġla y
Ġla zily
process ing
Command s
Ġdis p
Bot tle
sh ould
Ġ202 0
ant ed
Ġ/ <
Ġle ading
ia Lite
][ "
ne os
Ġsupport ing
Not e
sub classes
check point
ĠGeneral Scanner
ĠSt ate
ĠSt andard
ĠĠĠĠĠĠĠĠĠĠĠĠĠĠĠĠ ĠĠ
ĠĠĠĠĠĠĠĠĠĠĠĠĠĠĠĠ ĠĠĠĠĠĠĠĠĠĠĠĠĠĠĠĠ
En try
LO CATION
trans late
[: :
buil t
Ġsyn c
asy ncio
cre ase
cre ating
ĠEx p
âķĲ âķĿ
)) :
OS ITORY
Ġac count
Ġgener ates
IO Error
RST UV
ff set
wh l
Cache d
open api
Ġ201 7
Ġper formed
run time
run ning
ryp oint
Ġind ividual
Comp atibility
cor re
Ġ"< {
Ser ialize
Ġexp ansion
To o
To ols
View Middleware
Ġchat s
]* (
Ġhe uristic
Ġhe avily
sql ite
ĠLo cal
ĠLo ader
char ge
dot s
rit able
Ġdif f
Ġdif fers
pyp y
pyp roject
Ġspec ify
ĠData Error
Model Admin
Get All
loat Field
ĠDE LETE
ail View
Ġlink ed
sec utive
Ġ"" )<
ĠDo sy
âĸĴ âĸĴ
CI F
Ġauth or
BU IL
Ġquery ing
target s
ĠX XX
ĠDatabase Introspection
Ġfilter ed
User Model
orig inal
Ġauto complete
DIR S
Pool Executor
Report InText
27 27
dep th
ĠApp le
Return s
Ġ{} ".
Token Type
Ġent rypoint
start Logger
cryp t
cryp ted
{} \"
Ġthere fore
board X
velop e
ĠAl most
25 5
RO P
Up load
Ġcre ates
resh ape
ĠTemplate Response
ĠTemplate Sy
98 7
MA GE
Ġali ases
curs ion
sur ance
sur rogate
ï¼ ļ
ĠRE ST
Ġrender er
Th an
case s
Ġtensor boardX
Middleware Mixin
Ġâĸ Ģ
Ġâĸ ĵ
Ġprocess ing
Ġprodu ced
Ġweight ed
HASH ES
201 7
Col lection
scan css
Ġge topt
Ġopt name
Comment ed
Ġiterable s
Ġmark up
oints Dataset
Sy mbols
]== '
has hes
Ġ"- ":
Ġans wer
ĠPool Manager
Read y
ĠBot Commands
('. ')
PA CE
ORD ER
ĠGDAL Exception
ĠKey BasedCompareMixin
âķļ âķĲâķĲâķĲâķĲ
ABC DEF
crypto graphy
Py PI
down loaded
sax utils
Ġpri me
Ġpri vate
ĠCol or
spicious Operation
ĠMax imum
Ġlet ters
Ġmanage ment
38 4
Mutable Set
bt w
ĠContent Type
Ġjo in
>~~~~~~~~~~~~ ~~~<
By tes
Range Field
fin alize
sort ed
loaded File
ĠInst alled
ĠSession Base
ĠSession Store
ĠUnicode DecodeError
ĠArray Field
)} /
Ġsm art
ĠMo odle
vie py
Ġadap ted
)+ (
fan ity
fan cy
Ġdir name
aps ulate
ĠSwagger ValidationError
Import Error
Unknown TimeZoneError
Header Dict
Add ress
Open SSL
UR CE
basic Config
enable d
allen ai
ublis h
Ġ\" {}\"
ĠGEO M
>~~~~~~~~~~~~~~~~ ~~~<
>`_ <
Dep th
event s
åı ¯
ret ries
Ġact ual
ĠCS V
ĠCS RF
[:,: ])
Modules Options
TRANS PORT
ĠConfiguration Error
gramm ing
24 7
Iter ator
Ġexce l
Ġport ed
ĠGeometry Field
Ġsent inel
SO URCE
mk dir
render er
stat s
child Nodes
etf lix
Ġdispatch er
Ġdispatch ing
Ġmanip ul
Ġmanip ulate
ĠDataS ource
ĠDataS cheduler
ï¼ī \
win inst
implement ation
Ġrece iver
acti vate
ĠAN D
ĠAc tive
Ġselect ed
ĠReverseIP Config
Service Stub
âĸĪâĸĪâķĳâĸĳâĸĳ âĸĪâĸĪâķĳ
ĠInlineKeyboard Markup
ĠSpecific ally
dic o
olt age
srf ViewMiddleware
Ġcop ied
ĠNight Mode
ĠGo ogle
ĠOther wise
Ġenv iron
Ġattemp t
ADD R
Ġalgorith ms
SECURE TRANSPORT
86 01
Bit wise
Pass Arg
PRO VIDED
sl ider
vale ur
Ġpai r
Ġol der
ateg y
hello django
ĠExit Stack
Thread s
ĠThread PoolExecutor
Ġsuccessful ly
Av g
DLE WARE
Su spiciousOperation
Sur face
Spatial Features
ntax Error
Ġrespon sible
Ġwrapp ed
ĠSty le
ĠProm ise
asc time
Ġeff ects
ĠEX TENSION
ĠRemote NotFoundError
Ġurlun parse
REP OSITORY
01234 56789
sched uler
Ġpixelt ype
consume s
)(.* )
Cash Value
Function s
Ge om
JK LM
Len gth
PQ RSTUV
Pip Session
Post gresOperatorLookup
Sta mp
WX YZ
Wh itespace
mixin s
som me
èĩ ª
ertion Error
recip es
itect ure
Ġful ly
Ġscop ing
Ġblan k
unct uation
espec e
Ġmag ic
ilater al
ĠSpat iaLite
Ġthir d
Ġthrow ing
ĠIDomain Enumerator
provid ers
Ġunich r
pyopen cl
MESS AGE
Ġshortc ut
Ġartifact s
STAR T
LEVE LS
ĠDistutilsSetup Error
ĠTemplateSy ntaxError
ABCDEF GH
Ġ\"{}\" '.
PQRSTUV WXYZ
! ')<
" ',
" ],
" ([^?#]*
$ ",<
$ ')<
' })<
' ));<
( "<
) |
) ',
) '<
) `<
) ).
) ),
+ -]*
+ )"')<
- <
- [
- .<
. '
/ "
/ ",
/ ',
/ '<
/ ``,
/ )")<
1 8
3 00
4 1
5 2
8 0
9 4
9 7
: ]
: |
= >
= _
= ",
> [
> ",
> ")<
> ----------------
A lt
A SS
A pache
A mount
A ugment
B LE
B lock
B AS
B oolean
C redentials
C ircle
C srfViewMiddleware
D on
D ay
D ictionary
D rive
D enied
E r
E le
F ig
F allback
F MT
F ailed
G RE
G AL
G aussian
H ap
H AB
H istory
I E
I Z
I LED
I JKLM
K ind
K enneth
L ay
M o
M y
M on
M ar
M ot
M as
M ake
N C
N F
N V
N e
N ORM
N etwork
N DL
O p
O ffset
P K
P unctuation
Q t
R AN
S L
S ock
S oftware
S imple
S ocket
S chemaEditor
S lam
S PACE
T z
T ra
T AD
T rip
T ENT
T itle
T pd
V A
V O
V ulnerable
W ait
W raps
Y es
Y NC
Z ip
[ _
\ __
\ ?([^#]*
] /
] ")<
] "),<
_ -
_ ]\
` -'
a a
a ul
a CCEPT
b r
b z
b on
b ecause
b idden
b utton
b undle
b bc
c n
c ar
c ate
c as
c ay
c lock
c ake
c ibly
d g
d y
d at
d irect
d ns
d temp
d uration
d ropped
d erscore
e or
e verse
e ye
e quivalent
f d
f ort
f cc
f ait
g if
g pic
h in
h ard
h idden
h bar
i od
i um
k ick
l ar
l ision
l Code
l aces
m id
m all
m ore
m ention
m ysql
n ai
n ms
n umpy
n æľ
o ke
o ver
o ir
o ie
o Queue
o verride
o hn
p s
p li
p wn
p olation
p ublished
q size
q rst
r m
r ist
r ation
r hs
s o
s ame
s In
s mo
s Config
s imple
s wagger
s cope
s aj
s istent
s lam
t mp
t WM
u h
u v
u ck
u ltroid
v is
v es
v ict
v ated
v ary
v IP
v less
v ulnerable
w ould
w xy
w riter
w elcome
w ritable
x is
y outube
y ellow
z b
z er
z ma
} ')<
} '.
} -[
¦ ģ
¯ ·
¹ ī
Ã ¨
Ã ¼
Ñ Ĥ
ä ¹ī
å ½
æ ķ
æ ĸ
è ¦ģ
è ¯·
é Ģ
é ľ
ì Ľ
Ġ ^
Ġ ~
Ġ kw
Ġ ):
Ġ âĢ
Ġ ãģ®
Ġ },<
Ġ ÑĢ
Ġ áŀ
Ġ ingredients
Ġ Ãł
Ģ è¦ģ
ĩ ä»
or sel
or mo
or ds
in ate
in line
in planes
in secure
in ley
in coming
in ja
in eno
er n
er oku
on s
on gs
on gest
re y
re at
re ce
re po
re itz
ro ck
ro ute
Ġt el
Ġt ire
st e
st and
st icker
en ium
de s
de que
de coding
de lete
de coder
de cla
de cay
Ġa m
Ġa u
Ġa ria
Ġa xis
le an
ti ation
al Error
al Scanner
al loc
al abel
Ġp ile
Ġp lease
Ġp ull
Ġp ublished
Ġp ush
Ġp lural
Ġp alindrome
Ġp Amount
Ġc rawler
Ġc words
Ġc gi
Ġc aused
Ġc pl
an port
an iti
an ast
an Ä±n
me tic
me asure
__ }
__ ):<
__ ")<
Ġre tain
Ġre leases
Ġre lation
Ġre served
Ġre cip
Ġre cher
Ġre tire
Ġre lev
Ġre cursion
ar di
ar Field
Ġf all
Ġf ire
Ġf ace
Ġf onts
Ġf charge
ur itemplate
Ġd s
Ġd Ã©
Ġd atasets
Ġd irections
Ġd akika
Ġd inley
ge d
Ġs cheduler
Ġs nip
Ġs aat
is ol
is instance
is Enable
ut ing
Ġo up
tion s
ac ing
ac ter
ac count
ac cept
Ġin tr
Ġin ner
Ġin fers
ic al
ic it
lo od
la zing
Ġb ro
Ġb as
Ġb ast
Ġb lazing
co co
Ġ" #
Ġ" @
Ġ" ))<
Ġn ou
Ġn egative
># #
ist or
Ġw ww
un it
un ately
ex er
ent r
ent ally
fi es
ĠT able
ĠT hat
ĠT OKEN
ĠT ypedDict
Ġm ime
Ġm im
Ġm icro
Ġm outh
ad just
ter section
go tiation
ri ed
th reshold
to sections
to mli
Ġco ok
li se
li ant
Ġ( %
Ġ( (
Ġ( >
up lic
ot ed
str ftime
Ġfor med
ate st
Ġan not
Ġan chor
Ġ' ('
Ġ' '.
Ġ' {}
get ChildNodes
ĠS on
ĠS ource
ĠS CHEME
ĠS TR
lt r
ĠP lease
ĠP ress
ĠP op
ĠP lay
ĠP IP
ĠP hoto
ol low
ol ygon
class ifiers
ĠC atch
ĠC ERT
ĠC alcul
ĠN etwork
ĠD on
ĠD ST
ĠD ummy
ĠA uto
ĠA ggregate
ĠA mbigu
int ypes
Ġth ough
con sole
con sistent
ĠI S
ĠI T
ĠI s
ĠI mpl
ĠI ts
as st
as set
ĠL if
ĠL ay
ĠL azy
ser t
set ting
set Filter
sp eed
sp hin
pro du
pro jection
tr acking
Ġ. -.<
OR IZ
ch r
Ġv ector
end ix
Ġ_ /
Ġ_ `
Ġ_ )<
Ġ_ ):<
ith metic
() ``<
et s
Ġr atio
Ġ` --
Ġ` -.
Ġl arge
Ġl ineno
Ġl ongest
Ġu id
Ġcon ver
Ġcon trol
Ġcon current
Ġcon tact
ure Tr
Re gister
Re verseIP
Re startLogger
Re vIP
ĠF ix
ĠF ill
ĠF ast
ĠF eng
ĠF ollow
lib s
ject ory
ject Alt
for cibly
ma ster
Ġpro vision
Ġpro xies
Ġpro gramming
Ġde ci
Ġde bt
ĠM ock
ĠM orsel
per m
per ties
per mission
ĠU ti
ĠU SER
ĠU sing
Ġget pwn
ire d
quest ion
ver al
ver bosity
ĠG MAIL
ĠG CN
http bin
Ġg is
Ġg if
Ġg ive
Ġh im
Ġh op
Ġh ach
Ġh eroku
(" ../../
par fait
ĠB Z
ĠB ut
ĠB RA
ĠB ecause
ĠB utton
ĠB ond
ĠB leach
Ġe mbed
Ġe quivalent
Ġe vict
Ġun e
Ġun safe
Ġun supported
Ġun used
Ġun patched
Ġun hex
Ġun exp
Ġun derscore
FORM S
url patterns
Ġ2 0
Ġ[ [
Ġ[ ])<
Ġme saj
Ġbe ings
:// ([^
Ġit ypes
Ġset s
Ġset attr
ct ypes
py epat
Ġpar ty
Ġpar sers
Ġpar allel
pre ading
app name
ĠH u
ĠH ong
ĠH NDL
In clude
In formation
In itialize
In completeRead
In sert
ME TAD
ĠE ns
ĠE nc
ĠE mpty
ĠE NV
if t
ĠĠĠĠĠĠĠĠ ĠĠĠĠĠĠĠĠĠĠĠĠĠĠĠ
Ġst ud
Ġst icker
sc enes
out planes
(' ^
(' '.
Con vert
SE P
SE PAR
Ġse nsitive
Ġse gment
Ġse curity
Ġse veral
ĠRe Doc
Ġ1 2
Ġ1 5
Ġ1 27
EN TI
Ġcomp iled
ĠIn itial
ĠIn completeRead
ix el
time delta
IN T
IN ST
IN ED
Ġal though
Ġal ternative
Ġen ormo
~~~~ <
iv ing
Ġint ro
Ġint ended
sol ve
Ġ: -
ag on
Ġsh ips
ĠThe y
Ġex ternal
Ġex cluded
future s
Ġma illon
Ġso le
ĠW E
Ġpass ing
Ġpass words
Ġproto types
Ġare a
col lection
Ġmodule Name
vi es
json line
und ant
read lines
IC E
Ġtime Stamp
Ġch o
`` -
core api
Co unt
Ġhas n
Lo aded
Ġar rays
Ġar ithmetic
data frame
Ġser ializ
Ġser ious
ĠY our
lic e
ST D
ST S
## #<
Ġat exit
Ġnp rint
Ġ`` "
Ġ`` /``,
Ġad dition
ĠSe par
ĠImp lements
Ġunder stand
ĠAn d
Type Error
Ġro w
Ġro ws
Version Predicate
Ġx range
Ġpre dictor
ĠDist ance
bo ot
kw are
tain ing
back end
os name
Config Parser
Ġpy style
Ġpy dan
mail lon
=" (\
min utes
Ġnum eric
split Comp
fix ed
ĠBase Model
ĠBase Distribution
ĠBase Resolver
PI LED
Ġread y
Ġjson lines
Base Database
Base EmailBackend
ump tion
Ġup per
Ġshould n
Ġ| (
Ġ| .|
af finity
Ġimp ending
ra ke
ra vel
Ġ\ __,
package d
CO OK
cache s
FI ER
LE SS
LE VEL
LE GAL
ĠCon dition
ĠCon venience
eg in
Ġiter keys
Ġiter ating
Ġiter values
iter keys
UN SAFE
UN ICODE
cal er
Ġk on
ĠHTTP Warning
ĠHTTP Connection
ĠHTTP BasicAuth
ave function
ĠUser names
ĠUser ViewSet
Ġne sted
test ed
Ġout box
ark net
AL LO
AL LED
Time Warning
Ġhash er
ĠDistutils FileError
add Handler
format ted
Un less
ken neth
Par ses
Ġarg types
sh ot
ĠSet up
Ġj ax
Ġass istant
Ġ/ __)
gist ry
Ġtemp orary
Ġpr ices
Gener alScanner
lan e
ne eded
âĸĳ âĸĴ
NO PQRSTUVWXYZ
sub directory
man ent
ĠĠĠĠĠĠĠĠĠĠĠĠĠĠĠĠ ĠĠĠĠĠĠĠĠĠĠ
En coding
En gine
Name Warning
Value Dict
Ġ5 43
trans forms
enti fier
enti cate
Ġback link
Ġback tracking
WE D
Ġinter f
ĠTo ASCII
ĠTo Unicode
Ch at
Ch ange
ĠInvalid Requirement
ĠInvalid Wheel
Pro jection
EX EC
Ġchar acter
40 3
Ġ[' .
Ġadd tosections
SSL Context
Ġmax Sub
HTTP HeaderDict
Key Ex
ID ENTI
Ġac ti
Ġac cessed
Ġac cid
Request Factory
Request Unsupported
Request Methods
Ġserv es
Cache Middleware
AS GI
Ġ201 9
Data Payload
Ġper m
Ġsu ffix
Ġyour self
link ed
ĠDe precated
ĠFile Meta
ĠFile System
title s
Ġind icates
For bidden
context lib
GE OS
GE OM
Ġtw ice
Ġbo to
Ġver bosity
Ġzip import
To gether
Ġens ures
IP V
Ġman ager
Ġtoken ize
Enum Value
Enum Key
Ġdep end
Ġdep ends
ĠLo gger
Ġ'/ ',
Ġ'/ '<
Do cument
... `<
FA ILED
000 8
Ġtrans forms
Get D
Get Target
Ġtarget s
action s
filter db
CE LESS
can onical
find all
ĠPy Pi
ĠPy Sock
mark down
Ġbut ton
EL L
Ġcomment s
Ġmedia info
Ġ"" ,
Ġ"" ),<
inter Base
inter active
ĠRes olution
cy an
Ġrefer ences
"] ,<
Ġmulti processing
token ization
Ġcons umption
ĠX Z
Ġ'. '<
Ġ'. ')<
proxy man
Ġload s
.* ?
chat s
Pool Manager
tz name
ĠZ ero
ĠZ hang
ang uage
ĠApp endix
Ġattribute Map
âĸĪâĸĪâķĳ âĸĪâĸĪâķĳ
TE MPLATE
mod al
mod ify
ĠTLS ing
Ġent ries
Ġent rypoints
âĸĪâĸĪâĸĪâĸĪ âĸĪâķĹ
âĸĪâĸĪâĸĪâĸĪ âĸĪâķĶ
Ġweb browser
COM PILED
IL LEGAL
{} .
admin s
connection pool
At temp
At tributeError
OK UP
ĠCON FIG
Ġthere of
current Token
gment s
ho c
ho od
the ir
ãĤ ĭ
ãĤ Ĵ
>` {
Up loadedFile
Ġcre ation
Ġmo viepy
Ġdomain s
replace ment
Enumer atationConfig
Hel lo
MA P
MA X
MA GI
WN ER
Ġreport ing
ĠSer ver
ĠUp datingDefaultsHelpFormatter
ĠJSON Field
ĠJSON DecodeError
Ġcustom ize
Ġrender ing
ĠLib Error
ĠComp are
ĠComp iled
ĠComp ileError
Ġsepar ator
ĠTimeout s
ĠTimeout Error
100 0000
Ġuti lise
level name
Ġred undant
optim izer
** <
opt name
Ġâĸ Ĳ
Ġ"\ "
Ġprodu ce
Ġprodu cing
HASH FUN
({ "
201 3
Col lap
Num ericOutputFieldMixin
Ġ6 0
Ġcookie lib
ĠCreate Error
ĠAbstract Provider
ĠLO G
Ġ`- .<
Ġ`- '<
Ġ`- `.
Ġdec ay
ĠUse ful
off ers
Mark edYAML
WS GI
static method
Ġopt val
ĠCh annel
transport s
Ġshow ing
Ġtake while
ĠLink Error
ĠEnum erator
weight s
IG N
Ġpow ers
Ġcap able
ĠCandidate Lookup
200 6
Email Field
PA CK
Rec entlyUsedContainer
save opts
Ġet a
ĠPer m
ĠNew ConnectionError
ĠAuth or
ĠAuth Base
Ġdisable d
Sec ureTr
Ġdig it
âķļ âķĲâķĿ
Ġnumb a
cluded Modules
Ġhex lify
ĠHttpResponse Redirect
44 3
Cre ation
DL L
ĠCol ors
ĠModule Type
Ġevent s
ĠOpen Lay
Index Candidate
Lookup Dict
Ġidenti fy
Ġidenti fier
Ġmanage d
ĠINST ALLED
var name
ĠSub commands
ĠSub jectAlt
Ġjo b
Ġjo ined
ĠĠĠĠĠĠĠĠĠĠĠĠĠĠĠĠĠĠĠĠĠĠĠĠ ĠĠĠĠ
Ġwork s
>~~~~~~~~~~~~ ~<
Ġappropriate ly
26 16
By te
Range Widget
Range RequestUnsupported
Ġoc cur
Ġinv oke
Ġsend Message
ĠInst agram
ĠBaseDatabase Introspection
byte array
mirror bot
DAT A
DAT ABASE
No ise
Str ictVersion
We ight
Ġext ending
ĠTO MLDecodeError
Ġmid Ele
ĠIP V
Ġperform ing
Ġperform ance
ĠDefault Dict
ĠPoolError s
CRE T
Det ailView
vcs udo
Ġsign als
Ġinitial ization
ĠSp lit
Class ification
Open KeyEx
oth ers
Ġblack list
Ext ension
>~~~~~~~~~~~~~~~~ <
>~~~~~~~~~~~~~~~~ ~~~~~<
ĠSystem TimeWarning
22 9
Multi part
order ing
ret rie
hex version
Ġcriter ia
Ġregist ration
rive Tools
Ġconstruct ors
Ġeval u
[:,: ],
Ġseparate ly
Ġinstanti ate
Agg regate
Fil ters
MT P
bc pp
ĠCrawler Config
ĠDis play
ĠEmbed Type
ĠEmbed ded
ĠVariable s
ĠWeb site
Ġautomat ic
Ġqr code
Ġcalcul ate
ĠUpdate Error
Ġconflict s
åºĶçĶ¨ ä¸º
Media Type
Rout er
Rout es
hyp er
Ġreg ular
Ġnatur al
Ġmar sh
ĠSupport s
ĠSafe Data
ĠAd min
ĠLine ar
ĠLine String
Ġep e
Ġear ly
Ġear lier
ĠOGR Geom
ĠHel p
ĠEmail Backend
reeze Command
bound ary
ĠRed irect
ĠContext Mixin
1234 56
autog rad
)`` ,<
Sh ared
Ð° Ð±
Ġed ges
Ġsat ir
ĠSome one
ĠDAT rie
ĠAN SI
ĠFinder Config
ĠReverseIP Base
ĠRec entlyUsedContainer
Enable d
Ġinterpre ting
âĸĪâĸĪâĸĪâĸĪâĸĪâĸĪ âĸĪâķĹ
Ġexecutable s
ALIZ ABLE
ĠModules Options
ĠInlineKeyboard Button
Ġrestriction s
"(? ://([^
"(?: #(.*))?
"(?: \?([^#]*
-]* ):)?
APP S
BRA CK
pad s
Ð¾ ÑĢ
åħ ¥
deb ut
Ġplot ly
Ġcare ful
Ġfast api
Ġow ed
Ġow ner
Ġ"* "
adow ban
ĠSocket Error
ĠSocket Timeout
ĠDate Time
ĠBert Config
Ġtrail ing
ĠRandom Sampler
pho to
pho logy
"^(?: [
"^(?: ([
å®ļ ä¹ī
/?#]* ))?"<
199 9
35 78
37 0
Ag ent
GDAL GetD
Tok ens
cap tion
hig her
mor phology
Ġredu ce
Ġmix up
Ġmerge d
ceil rad
Ġcomb ined
Ġrand int
ĠGe o
CHAT S
Could n
Ġpop ulated
many linux
ĠStatic File
revers er
Ġmove ment
ĠasciiUpper case
ĠSpinner Interface
ĠContainer Cls
155 5
PER CENT
UI Renderer
nod ot
Ġaff ect
Ġce il
Ġcr ash
identi ty
Ġ(... )
ĠSc ene
Ġvide os
Ġlock s
Ġdev pi
ĠHe ader
Ġcollect ing
REQUI RED
Ġtra jectory
ĠUnsupported Operation
abcdef gh
Ġparenthes ized
å®īè£ħ èĩª
ĠSUPPORT ED
flatpage s
âĸĪâĸĪâķĶâķĲâķĲâĸĪâĸĪâķĹ âĸĪâĸĪâķĶâķĲâķĲâĸĪâĸĪâķĹ
"% [
+. -]*):)?
Ass ertionError
DOT ALL
Direct Url
MID DLEWARE
Po interBase
Prep are
Raw ConfigParser
Ste p
UTI LS
sav ings
recent ly
Ġta ken
Ġturn ed
Ġcur Sum
ĠScan Results
ĠCustom Filters
Ġdes ired
quer ade
Ġho oks
urlencode d
ĠHum ans
Ġtimestamp s
ĠYoutube DL
Ġcanonical ise
ĠRound Trip
DEPRE CATION
Dev s
ĠState ment
[:: -
corre ct
MAGE MAGI
ï¼ļ ")<
Ġmarkup safe
âķļâķĲâķĲâķĲâķĲ âķĿ
PyPI RCCommand
ĠColor ate
ADDR Z
Avg Pool
ABCDEFGH IJKLM
"([^?#]* )"<
+-]* :|
>---------------- ----<
BAS IC
Fig ure
Hap py
HAB ET
NORM ALIZABLE
Slam Devs
everse en
fort unately
næľ Ī
ps f
qrst uv
sIn Scope
wxy z
æķ °
æĸ ĩä»
éľ Ģè¦ģ
ìĽ Ķ
ĠâĢ Ķ
rece iver
alloc ate
anast y
ardi sed
Ġdinley ici
isol ate
Ġintr anges
Ġbast ardised
Ġmim ic
ĠCatch ing
ĠImpl icit
ĠLif oQueue
ĠLay er
sphin x
Ġconver ts
ĠFast API
Ġprovision al
Ġdeci des
ĠMock Request
Ġgetpwn am
Ġhop e
Ġhach oir
ĠBRA CELESS
Ġevict ed
Ġunhex lify
Ġunexp ected
ĠHNDL R
METAD ATA
ĠInitial izer
Ġenormo us
Ġserious ly
Ġpydan tic
splitComp arison
COOK IE
ALLO WED
kenneth reitz
ĠInvalidWheel Filename
IDENTI FIER
Ġaccid entally
ĠFileMeta DataPayload
Forbidden Error
ĠPySock s
HASHFUN C
Ġ`-`. `-'
SecureTr anport
ĠOpenLay ers
IndexCandidate Info
ĠSubjectAlt NameWarning
åºĶçĶ¨ä¸º ç³»ç»ŁåºĶçĶ¨
ĠOGRGeom Type
"(?:#(.*))? $",<
"(?:\?([^#]* ))?"<
å®ļä¹ī åºĶçĶ¨ä¸ºç³»ç»ŁåºĶçĶ¨
å®īè£ħèĩª å®ļä¹īåºĶçĶ¨ä¸ºç³»ç»ŁåºĶçĶ¨
+.-]*):)? "<
ABCDEFGHIJKLM NOPQRSTUVWXYZ
+-]*:| /)")<
qrstuv wxyz
æĸĩä» ¶
" '<
" ]:<
" ]["
# ]+
# .*?
$ )',
' ^
' "<
' ')<
' ),
' ]:<
' (?
' ]['
( ""
( """<
( //
( ([^
( #(.*))?
( :\
) %
) '
) //
) (\
* '<
* ((
+ (
+ ",
+ ')<
, '
, )
, ):<
. [
/ (
/ ")<
/ >`
/ *'<
0 3
0 6
1 10
1 50
1 024
4 32
4 000
5 7
5 9
6 91
7 234
8 22
8 440
: ",
: ')<
: ]+
; '
= <
= __
> $
> ]
> âĸĴ
> ":<
> `.<
? )
? $")<
? #]+
A U
A X
A s
A ST
A NA
A ff
A UTH
A udio
A DED
A CCEPT
A ctor
B N
B R
B e
B t
B ig
B ER
B IT
B EL
B ody
B lur
B ERT
C SS
C SI
C aused
C lick
C entr
C DATA
D ig
D IN
D iv
D IO
D ecimal
D eser
D ecorator
E mpty
E verything
E quivalent
E TreeBuilder
E CIF
F Y
F c
F our
F Data
F RO
F ont
F lag
F USE
H and
H as
H our
I s
I DE
I Metadata
I WR
J ython
J ointsDataset
L at
L ib
L egacy
L ints
L ower
M K
M AT
M IT
M ain
M AS
M UL
M Widget
N r
N ext
N egativeInfinity
N SI
N ear
O O
O f
O ut
O FFSET
O rigin
P U
P s
P ort
P ai
P SE
P key
P ROTO
P ROTOCOL
P TION
P ABLE
P ECIF
R an
R ay
R END
R otation
R TU
S key
S dist
S ave
S ome
S ized
S pace
S RC
S VE
S LA
S plit
S orry
S caler
T k
T OT
T ensor
T RA
T xtOutput
T ried
T ELL
U E
U M
U sers
U UID
V R
V i
V al
V IO
V uln
V ulnName
V erbose
V ector
W ith
W ay
W rite
W INDOWS
W heels
X ml
Y ë
Y å¹
Z EN
[ .
[ ()
[ '<
[ ...
] "
] ).
] !=
] >=
_ #
_ %
` ).<
a ware
a ising
b n
b p
b al
b ers
b ine
b lanchard
b egin
c m
c mp
c it
c python
c ard
c msg
c enter
c aster
c pu
c ElementTree
c lick
c apsulate
d x
d on
d ar
d ent
d ue
d Error
d one
d iv
d im
d min
d type
d ll
d amage
d ilation
d irections
d rivers
e v
e mplate
f s
f ree
f ns
f ail
f lict
f reeze
f ailed
f sen
f ayssal
g m
g lass
g ir
g lue
g reen
h int
h abib
i u
i ke
i us
i jk
j r
j y
j æ
j ac
j ython
j out
j inja
k b
l ator
l inal
l hs
l lane
m ot
m and
m us
m icro
m utex
n b
n m
n ers
n op
n ail
n anoseconds
n ature
n hood
o it
o od
o logy
p q
p ot
p are
p em
p df
p erson
p aginator
p Aff
r an
r config
r revers
r anted
s al
s il
s Error
s lot
s Handler
s rs
s Bar
s aniye
t f
t yp
t rie
u label
v o
w at
w ts
w indows
w indll
x or
x ied
y ut
y es
z il
z mq
} ",
} )"<
} (:\
¢ ãĤ
¨ å
´ næľĪ
¸ è
½ ½
Ã ¡
Ä °
× ĳ
Ø Į
â ľĺ
å ¤
å į
ì Ŀ
Ġ 9
Ġ ;
Ġ 00
Ġ âĸĪ
Ġ esc
Ġ KEY
Ġ 99
Ġ ãģ
Ġ uts
Ġ âĸĪâĸĪâķĹ
Ġ icer
Ġ hellodjango
Ġ question
Ġ ×ĳ
ħ Ħ
Ī ãģ®
ķ ļ
Ĺ ¥
or dered
or acle
in de
in vert
in formation
in cip
in ners
er net
er ify
er cher
>< /
mp t
mp v
mp eg
on y
on ds
on line
se g
re quire
re curs
imp lements
Ġt rue
Ġt xt
Ġt ail
Ġt rip
Ġt ied
Ġt ultd
at temp
at rix
at exit
at Ä±r
st s
st ale
st arknet
en ur
en ate
en coder
en velope
de velo
de tail
Ġa v
Ġa io
Ġa jout
rom an
rom et
le ton
le aking
le bi
ti le
ti ger
ti ble
ti fy
he us
al o
Ġp i
Ġp p
Ġp ut
Ġp ics
Ġp ublish
Ġp romet
Ġc c
Ġc he
Ġc el
Ġc python
Ġc redentials
Ġc srf
Ġc rawl
Ġc lear
Ġc Pickle
Ġc urrency
an e
an ti
an ing
an um
an ts
__ ":<
__ _/
ing Circle
Ġre init
Ġre po
Ġre ally
Ġre lied
Ġre write
Ġre lying
ar ate
ar son
ar sing
ar caster
it tle
Ġf an
Ġf ur
Ġf urn
Ġf int
Ġf mode
Ġf act
Ġf aster
Ġf reeze
Ġf lask
Ġf lood
ss h
ss v
ss ue
ss ible
ss rf
ss ltr
ur t
Ġd at
Ġd ic
Ġd lib
Ġd ash
Ġd ropped
Ġd rivers
-- -
Ġs our
Ġs ay
Ġs af
Ġs ong
Ġs lot
Ġs wagger
Ġs aniye
Ġs iblings
Ġs ongs
Ġs aniti
Ġs lice
is ual
is ible
ut Of
Ġo mit
Ġin secure
Ġin jection
Ġin surance
ion rock
ic y
ic ial
lo ud
la dmin
Ġb z
Ġb and
Ġb und
Ġb read
Ġb row
Ġb rou
Ġb bc
co lo
co very
co erce
Ġ" {
Ġ" )<
Ġ" ==
Ġ" !=
Ġ" @@@
ed Payload
ed Offset
Ġn s
Ġn maps
Ġn ecess
Ġn ìĽĶ
Ġw ts
Ġw kt
Ġw intypes
Ġw ants
un a
un e
un g
un y
un set
un ts
un mute
ex port
ex clude
ex cluded
ent a
fi ers
fi gobj
ĠT A
ĠT ar
ĠT arget
ĠT ry
ĠT ensor
ĠT wit
ĠT ypically
ec ek
ec han
Ġm or
Ġm sv
Ġm ention
Ġm apped
Ġm enu
id Co
id om
ad b
go pt
ce ptr
ce llane
ue ss
ri lebi
th andler
th enur
ase d
Ġco mm
Ġco mand
li as
ers hed
Ġ( __)
up gra
up dated
up dater
ot p
Ġfor ward
ate Database
Ġan cestor
Ġis file
Ġis olation
Ġ' )
Ġ' +
Ġ' --
Ġ' "',
get ter
get Attribute
get TreeBuilder
ap on
ap is
ap ture
ap leton
ĠS ol
ĠS end
ĠS ta
ĠS ample
ĠS AN
ĠS pace
ĠS IG
ĠS ITE
ĠS chemaEditor
ĠS mall
ĠS MTP
ĠS AX
ĠS PECIF
ĠS atÄ±r
Ġas set
Ġas sets
ĠP e
ĠP rep
ĠP RO
ĠP oints
ĠP sycopg
ĠP ickling
ol ding
ip es
ip edia
ĠC k
ĠC lasses
ĠC alled
ĠC Python
ĠC SI
ĠC losed
ĠC ord
ĠC LI
ĠC lear
ĠC urrency
Ġ# #
ĠN ow
ĠN ull
ĠN ONE
ĠN etflix
ack Error
ack ets
ĠD B
ĠD an
ĠD ue
ĠD EP
ĠD isc
ĠD irection
ĠD DL
ĠD JANGO
ĠD ecorator
ĠD ROP
ĠA ES
ĠA fter
ĠA LP
ĠA CCEPT
ĠA BC
Ġth us
con dition
con structor
con crete
con secutive
con figobj
ĠI NT
ĠI ssue
as co
as sets
as querade
ĠL ots
ĠL exer
ĠL anguage
ĠL iu
ĠL arson
AT ORS
ser v
ser ializ
set db
sp inners
pro gram
pro vided
pro viding
pro xies
tr c
tr ary
ch o
ch unk
ch mod
ch okri
Ġv oit
Ġv isible
() """<
et ags
et tiger
od ay
Ġr fc
Ġr aising
Ġl st
Ġl is
Ġl atest
Ġu i
Ġcon st
Ġcon dition
Ġcon ven
Ġcon straint
Ġcon venience
Re p
Re parse
Re move
Re ference
ĠF rom
ĠF rame
ĠF eed
ĠF AV
ĠF ayssal
ĠF loatField
ĠF reezeCommand
ĠF ernet
am ily
Ġlo go
Ġlo gs
Ġ< (
ject s
iz ing
ub s
tp lib
ma ux
Ġfile path
Ġpro perly
Ġpro perties
Ġpro xied
ve au
Ġde bu
Ġde init
Ġde comp
Ġde part
Ġde sk
Ġde dic
Ġde epgram
Ġde dent
ĠM A
ĠM a
ĠM in
ĠM ap
ĠM od
ĠM ix
ĠM ute
ĠM RO
ĠM echan
ĠU N
ĠU SE
ĠU su
Ġget Value
Ġget ting
Ġget pass
Ġget TreeWalker
Ġget First
Ġget ETreeBuilder
Ġget Next
ver sed
ver ified
fig ure
ĠG ab
ĠG EN
ĠG lob
ĠG rad
ĠG MT
ĠG aussian
Ġg d
Ġg ens
Ġg rad
Ġg ives
Ġg mtime
Ġg ranted
Ġg uess
Ġdist inct
Ġh r
Ġh int
Ġh ard
Ġh acks
ul ates
(" :
(" >
(" )<
(" {}
par ameters
ĠB an
ĠB lock
ĠB EL
ĠB AND
ĠB lanchard
exce l
ore f
Ġe g
Ġe i
Ġe le
Ġe od
Ġe ye
Ġun ified
Ġun iversity
Ġun adjust
Ġun verified
Ġ""" )<
Ġ[ -
Ġme g
Ġme di
Ġme tric
Ġme mbers
Ġme mor
Ġme aning
ig lob
ĠO ptions
ĠO GE
ĠO utOf
Ġbe gin
able Body
ache d
py test
py OpenSSL
file path
file types
Ġpar a
Ġpar am
pre v
pre init
pre view
pre ssions
app engine
Ġor d
ĠH ost
ĠH OST
ĠH IDE
ĠH ettiger
Ġwh om
ĠCo mment
ĠCo mmon
In st
In ter
In variant
In jects
ĠE lement
ĠE nd
ĠE asy
ĠE ach
ĠE poch
ĠE OL
ĠE Tag
ĠE CONN
ir Info
if ference
pack er
Ġst e
Ġst ale
Ġst mt
Ġst ability
Ġst oring
Ġst ores
Ġst ubs
ow sk
out box
(' %
(' \\
(' [\
(' #.*?
Con stants
Con flict
com bine
ta ste
SE RI
SE CTION
SE CRET
Ġse ssions
Ġse nder
comp ute
comp arison
comp oser
ĠRe map
ĠRe gex
ĠRe quires
ĠRe quired
ĠRe ading
ĠRe vers
ĠRe gen
Ġ1 4
Ġ1 99
Ġ1 13
Ġ1 024
00 3
00 10
EN CE
ay mon
ay be
Ġon wards
Ġon Download
Ġcomp liant
ĠIn spect
ĠIn ten
ĠIn itialize
ĠIn tersection
time tuple
time gm
IN SER
ass ign
ass ert
Ġal ter
Ġal ters
Ġal ong
Ġprint ing
Ġen tire
ĠV c
ĠV AL
ĠV oice
ĠV ulner
ĠV oltage
ĠV isual
error list
Ġab spath
cs ample
cs Info
iv ant
Ġy es
Ġy ear
Ġy outube
og raph
>â ķļ
Ġ: (")<
Ġte e
Ġte am
ag ile
Ġgo es
ĠPython s
ĠPython Version
ĠPython Codec
ĠPython Serializer
ĠPython Deser
Ġsh quote
Ġsh adow
Ġcol no
Ġcol ored
Ġcol lision
im er
im write
Ġex clude
Ġex pose
Ġex ports
text area
base name
son g
ĠW arn
ĠW arned
ĠW riting
ĠW elcome
input stream
CK LE
ind ableBody
Ex ceptions
Ex traData
Ex cludedModules
IC ATE
dist ribute
Ġpack b
Ġpack er
Ġtime s
Ġch ercher
Ġbu f
Ġbu g
`` ,<
`` ).
core f
ER R
ER IC
pp rint
Lo ad
RE PYTHON
RE CATION
RE AM
RE ADME
RE FUSE
Ġtr ange
Ġar t
ary NotFound
CHE S
data structures
data State
ffer Full
Ġser ve
Ġser ialize
ĠY ang
ĠY ANG
ĠY AML
") ;
") ;<
") [-
IT ER
IT emplate
ST DOUT
ans i
Ġad jac
== =<
di er
di rilebi
irect ly
Ġsup pri
len ecek
ĠUn defined
ĠUn ique
ĠUn recognizedFormat
ĠUn rew
list ener
TH O
Version Control
Ġpre dict
Ġpre tty
ĠR out
ĠR ock
ĠR ender
ĠR ather
ĠR aymon
Ġelse where
ref replace
om inate
Field Default
os ing
Config uration
lat es
Ġ3 33
Ġ3 986
ision Error
ializ ationError
ded ent
Ġpy torch
Ġpy game
Ġpy mongo
Ġclass only
env oie
Ġnum erate
SH A
fix ture
ĠBase Transport
ĠBase Finder
ĠBase Heuristic
ĠBase SpatialFeatures
PI X
PI CKLE
Ġread s
Base Heuristic
!< /
01 6
ðĿ ĳ
hel l
Ġdiv mod
St uff
Ġapp lying
CO LS
Ġcache control
DE O
ĠCon vert
ĠCon trary
iter ator
iter ations
ĠVersion Type
cal led
cal endar
cal csize
Ġk nn
ĠHTTP Handler
ĠHTTP SHandler
~~~~~~~~ ~~~<
Ġdet ected
ĠUser Not
Ġsub ject
Ġsub packages
Ġsub license
Ġsub directory
Ġsub domain
Ġsub modules
Ġsub titles
test ing
iti es
Ġimplement ing
De velop
De lta
De precated
nd ic
Ġfil m
Ġout file
Ġout side
=' ',
=' '):<
AL ENV
ĠDistutils Arg
add ini
ĠDict Mixin
format ter
Ġtry ing
Ġtext area
Un install
Un defined
Un ique
iron python
Ġdis k
max EnumerationTime
Bot tleneck
Par sing
Ġsome times
sh are
sh uff
ĠSet ting
ĠSet Console
LS ocket
Ġj ìĿ
ant um
EP GRAM
ard less
Ġinstall ations
Res ourceCache
Ġopen s
Ġpr incip
fil m
ne ss
ne trc
Not Be
sub list
sub dir
check list
man agers
Ġany way
ĠSt apleton
ĠSt ackError
En tities
En han
LO CAL
LO ADED
Ġfol lowed
rpc Transport
rpc errorlist
AN SI
[: ],
12 52
Ġsp aces
dis position
arg er
arg types
Ġinter p
Ġinter val
Ġinter rup
ĠTo ols
ĠInvalid Page
ĠInvalid Sdist
DO FFSET
output s
File Name
File List
File Operation
File Wrapper
File Operator
File Could
jo int
jo bs
arch itecture
default dict
ĠJ ython
ĠInstall ation
ĠInstall ationResult
cre ti
Ġnew line
Ġnew sections
Ġwrite Results
Ġadd r
SSL Transport
Key BasedCompareMixin
su med
su ffix
su ivant
ĠEx tract
ĠEx traData
)) )*
OS C
gn ed
gn ize
Ġac curacy
Ġac ross
Request Warning
Requirement Set
Ġgener ator
Ġvalid ation
An chor
log ged
ff ff
ll inux
wh itespace
ĠPEP s
Cache Control
ĠGet All
Dist ance
Data Set
Mode Elements
Ġper mit
Ġper mission
Ġsu ite
Ġsu do
Ġsu spect
ĠTe stCase
Se q
Se arch
ĠDe epgram
ĠFile Payload
alk ers
av g
av ed
For Socket
For Classification
Ġfound Elements
ĠAPI s
MENT S
MENT UM
ĠRequest Field
DI ST
ax es
bin s
tuple uh
ĠPro vide
') ]
node Name
Ġ"< !
Ġhere by
help s
COL LA
decode d
ĠFor ce
Ġexp and
Python Version
To String
To Wait
Ġ4 25
ĠWe i
group ing
tim izer
Ġmap s
IP v
Ġrep lying
Ġrep laces
Ġtoken Types
Ġtoken izing
Ġ(' /'
Ġmain ly
Ġdep loy
Ġdep ending
Ġunpack ing
UL D
no op
Ġover view
char acters
char det
char refreplace
mit ter
(* (
Do uble
PRE TRA
PRE VIO
]+ "
]+ |
]+ "<
ĠSS B
ĠSS LSocket
ĠData Augment
... ")<
Ġpoint s
Char s
'] .
000 3
000 4
000 5
000 9
Ġtrans ition
Ġtrans lates
Get Middleware
Get Params
Get Threads
Ġwor ds
Ġwor ld
âķĲâķĲ âķĿâķļ
Ġdatabase s
Codec Info
mark er
Ġoutput s
RA Y
Ġhelp ers
ph one
inter pol
round up
Ġfind s
Ġstream ing
Ġstream lit
Ġstream reader
Ġstream writer
Ġtele pot
Ġauth enticate
part Invariant
ĠRes net
ĠRes ourceCache
Ġtree Type
Ġtree builder
Ġsort ing
fore ign
Ġxml Entities
Ġxml charrefreplace
Ġdiffer ences
Me tric
Te le
Ġmulti pli
token ize
ĠCache Command
Ġcons ist
qual name
qual ities
([^ /?#]*
mt ree
unk nown
ĠDatabase Client
Ġ200 6
User name
pass wd
det ect
det ector
Ġauto cast
Ġauto completion
Ġstate ment
Case Filter
Case Num
war ped
ched ule
ditional GetMiddleware
Text Attribute
Ġkeep ing
Ġkeep db
dep endency
ang er
Ġbin ding
Ġbin ance
ĠHttp Request
ĠEn emy
Ġ{} ,
Ġ{} )<
Ġ{} '.
Result By
TE D
TE LEGRAM
Token Types
mon key
iction s
ĠNode NotFoundError
Ġboolean Attributes
Walker Cache
ik Tok
xml reader
Ġq s
Ġent ers
Ġtab ulate
Ġ"% (
{} {}
Ġdirect ed
Ġmin idom
Finder Config
Man y
Man age
Man ifest
TR Y
cle an
tree Type
tree builder
tree builders
tree adap
tree WalkerCache
zip file
ĠNo Way
the se
ãĤ ¯
ãĤ ¢ãĤ
Ġregister ing
Ġregister ed
local time
local Name
extr action
ĠAl ways
Ġlocal Name
Ġegg s
Ġstart project
rev olt
Ġspecifi ers
Ġmo ved
ĠBu ild
ĠBu fferFull
Ġorder ing
resh aped
Enumer ators
escape Flag
Ġali ve
Ġali ased
Ġcal ls
ĠHTML Tokenizer
Ġspace Pre
ĠRE ADME
ĠComp oser
ĠComp atibility
CA PTION
Object Mixin
parent s
Ġpat ched
ĠConnection DoesNotExist
Back ing
Back ports
JSON Codec
JSON Serializer
JSON Encoder
glob ally
reg ression
Ġtable Insert
Ġ"\ \",
Ġform al
ĠCheck s
Ġchange d
Ġweight s
Parse Results
({ '
201 40
Col lect
MO MENTUM
Missing Error
mac into
Ġ6 10
Ġ6 56
ĠPip Xml
ĠLO OKUP
ĠMigration Loader
Context Mixin
State ment
off icial
Ġskip ped
Geometry Mixin
Mark er
Sub package
Ġge o
ĠPath Metadata
ĠCh okri
ĠCh rist
ĠAdd Field
Ġ100 000
Comment s
Ġdoc tests
Ġpost ed
Bu ildEnvironment
Bin aryIO
PAT I
rc dataElements
warn ings
Ġfinal ization
Ġwin s
Ġwin base
Ġwin api
Ġmark ers
ĠStr ings
Ġlong er
ĠField Error
ĠField Info
Ġzero th
))? ([^?#]*
))? (#(.*))?
has attr
has ChildNodes
sat uration
Ġedit able
Ġcap abi
Ġcap tions
Ġdown side
Ġsave opts
ĠBot tleneck
ĠOS C
ĠOS MWidget
ĠObject DoesNotExist
Ġchardet ect
200 9
200 00
200 0000
Rec ipe
final ized
Ġet ag
Ġfail ure
Ġmod ified
Ġmod ern
Ġ'_ '
ĠPer ceptr
ĠAuth entication
connect or
âĸĳâĸĳ âĸĪâĸĪâĸĪâĸĪâĸĪâķĹ
Ġaccess ing
(?: \
"^ (([^
Edit edPayload
NS Ps
Sec onds
be havior
ced ence
}) ".
}) ?$")<
real time
olation Defect
ĠAUTH ORIZ
Ġdecor ators
ĠMirror s
ĠRep lied
Ġhex Dig
Ġspecific ally
ĠHttpResponse Per
Cre ating
rad ius
initial ise
eros ion
Ġreco very
Ġreco gnize
Ġfr ont
Ġfr agment
Ġfr agile
first Child
ĠSy mbols
ĠCol lection
ĠCol lect
ĠCode Type
Ġconf test
Ġdescrib e
ĠOpen API
ĠElementTree Implementation
Ġadmin s
Ġlet tre
Ġidenti cal
ĠLocation ValueError
ĠIDNA BidiError
SU VO
auto completion
stderr threshold
utc now
exist ing
expre ss
ĠChat Send
ĠMulti partInvariant
ĠView Inspector
Ġ... ])
Ġ... ]:<
Ġknow s
Ġjo bs
26 691
VI RTU
VI DEO
fin ished
Ġtag TokenTypes
thread s
Ġvari ant
Ġstd in
Ġstd lib
Ġstd out
ĠIncremental Bar
ĠBaseDatabase Client
ĠStream Writer
ĠStream Reader
Ġtransform ers
HEADER S
Support s
We b
Win DLL
cip ant
next Sibling
ĠÐ ¶
Ġpur ge
Ġpur pose
Ġperson s
Ġfin alize
Ġsm tplib
ĠST DOUT
ĠST DIN
ĠSQL ite
Ġlookup s
ĠWSGI Handler
ElementTree Implementation
QU ENCE
fr ontend
stride s
Ġsign ing
Ġsign ify
Ġinject s
Ġinject ing
termin al
ĠSec urityWarning
ĠSwagger UIRenderer
Ġbyte string
Ġmajor ity
ĠWheel Distribution
Alter Model
36 94
GRA Y
LI MIT
UR LSchemeUnknown
\\ /?#]*))?"<
tensor board
vc access
âĢ ı
Ġ~~~~~~~~ ~~~~<
Ġpyp arsing
Ġpatch ing
Ġsimp lify
Ġ"/ ":
stru ction
ĠSh ort
ĠSh ortcuts
ĠPrint ing
ability Info
Ġthresh olding
STR UC
ĠHTTPS Connection
ĠTemp orary
endency Warning
ĠDocument Type
COMMENT ED
>`_ .
>`_ .<
ĠSystem Error
ĠSystem Exit
Multi Domain
variable s
Ġ! !!
hex digest
last Four
Ġblock s
Ġblock ing
Ġvoid ptr
Ġconstruct ing
mag enta
uman ize
ĠBad Command
Ind ent
ĠSearch Vector
ĠFormat Error
postgres ql
[:,: ](
ĠConfiguration FileCould
Ġinstanti ated
Ġinstanti ating
ĠSuspicious FileOperation
And State
css wg
lm nop
pi eces
Ġport ion
Ġpix els
ĠTE MPLATE
ĠTE LEGRAM
ĠParse Results
ĠLe af
ĠUT C
ĠGeometry Collection
ĠExt ension
Content Ne
Ġ16 384
Ġyaz i
Ġgood bye
Start Event
Ġassume d
Proxy Error
ĠWeb Crawler
ĠQuery Set
Ġcalcul ated
Ġconflict ing
Ġconflict ual
ĠMySQL Introspection
ĠMySQL GISSchemaEditor
ĠMetadata Conflict
ĠMetadata MissingError
="" )<
EC TIONS
HTML Parser
Holder Mixin
Pre viously
Run time
mk labels
pol icy
rand int
Ġlimit ation
Ġpage s
Ġreg ression
Ġreg ardless
defin ition
good bye
top ics
ĠSupport ed
ĠSimple Lazy
serve Elements
child ren
Ġlr u
("[ %
ĠInsecure RequestWarning
Ġatt ached
Ġadjust ments
ĠStart Bound
1234 56789
IDNA Error
IDNA BidiError
(?= $)',
ĠQu ick
ĠQu oref
ĠQu antum
ï¼ī ")<
Ġredirect s
Ġ~~~~~~~~~~~~~~~~ ~~<
Ġ~~~~~~~~~~~~~~~~ ~~~~~<
Ġ~~~~~~~~~~~~~~~~ ~~~~~~~~~~~<
Callable Operator
Null Provider
SKIP PABLE
sm all
Ġli preading
alph anum
Ġplay er
Ġplay back
ani maux
Ġrece iving
Ġfix es
Ġsat uration
acti vated
Ġtool ing
ĠScanner Config
ĠScanner Report
ĠPost GIS
ĠCallback FileWrapper
ĠAc cept
umb nail
("- ",
ĠOperation alError
('/ ')
ConnectTimeoutError s
ĠWKT Adapter
Ġtrain ing
STAT IC
ĠRec ipes
NUM BER
redirect s
issue comment
Ġtermin al
Ġtermin als
Ġtermin ology
dispatch er
Ġinterpre t
Doc ypes
Template Response
ĠASGI Handler
ĠTraceback Type
Build System
Build Tag
)/ (
Earth Object
FUN CTYPE
Schema Generator
non zero
let tre
Ġcop ies
appro ve
appro aches
Ġask ed
Ġloop s
Ġdele ted
Ġdele table
Ġdesign ed
Ġattemp ting
ĠRename d
aff s
Ġ50 3
Ġretrie ving
ãĥ³ ãĥ
ãĥ¼ ãĥ
ĠAlter Model
ĠâĸĦ âĸĢ
ĠPermission Denied
Ġalgorith m
MSG PACK
500 3694
65 432
Ag ain
HO OK
Line ar
MIN S
WKT Reader
bro tli
cap ture
dif fer
hig h
lon gopt
ä» ¥
inspect ors
develop ment
Ġcl Ã©
Ġcar ry
Ġredu cing
Ġnd arr
Ġmix ed
ĠPri or
"," /
ĠMIME Multipart
âĸĵ âĸĪ
Ġemit ting
Ġstar map
Ġstar kware
mbigu ous
ĠWork s
ALP N
ALP HA
entities Trie
DOWNLOAD ING
Distutils Error
Ġexpire s
):)? (//
Ġenter ing
ĠTrans action
ĠTrans late
ĠAttributes NSI
"^\ $\{[
?,?, ?,?,
?([^#]* ))?(#(.*))?
+) _
+) (.*)")<
End Event
HOST S
Mac ro
Mac Version
Pickle Serializer
Qu ote
TA GS
WR ONLY
bet a
bet ween
full Tree
tar file
wik i
wik ipedia
Ġes lCode
Ġincremental decoder
Ġincremental encoder
cost ume
Ġmk dtemp
Ġmk nhood
ĠDeser ializer
ĠDeser ializationError
concat enate
Ġdest inations
ĠUR LSchemeUnknown
ĠUR ITemplate
Ġgu ide
Ġhow ever
ĠBlur ring
Ġek le
ĠOne Day
Ġintention ally
Ġtrack ed
Ġrout ines
ĠUnknown Timezone
Ġsymlink s
Parti cle
Parti cipant
ĠInvalidCodepoint Context
InvalidCodepoint Context
Ġexecutor Factory
ĠSHO W
ĠSHO ULD
ReadTimeoutError s
Author ization
CONN ECTIONS
Ġtreew alker
Ġtreew alkers
Ġestablis h
Ġestablis hes
Ġreplacement Characters
@@@ "<
-_]+\ }(:\
-_]+\ })?$")<
exclusion s
:/ ?#]+
BIN ARY
BLOCK SIZE
Log ic
NEO Database
Pri mary
RG B
Variable ValueDict
WKB Reader
ku ma
plat forms
åĲ į
Ġsel l
separ ated
star map
step s
Ġcy cle
anal y
Ġfs decode
Ġflex ible
geome tries
Ġob taining
Ġ"' ",
Ġwar mup
Ġwidget s
ĠDep endencyWarning
ĠAvoid s
Ġvale urs
Ġrich er
()<> ]+|
Ġhour s
Ġmechanis ms
Ġsoft ware
Ġlay er
Serialize ToString
ĠDosy anÄ±n
Ġauthor ity
BUIL D
ĠTemplateResponse Mixin
987 65432
surrogate escape
Ġâĸĵ âĸĪâĸĪ
ĠInstalled Distribution
åı¯ ä»¥
[:,:]) ',<
Ġmanipul ating
ĠActive State
)(.*) (?=\
Length Validator
Ġscoping Elements
)| \
Drive Helper
Er ic
Mon key
Mas la
PK GS
RAN GE
SL ICE
SPACE S
Tra in
aul thandler
cas ual
smo oth
Ġtel l
Ġam ong
Ġau gmentation
Ġrecip e
Ġrecher che
Ġrelev ant
Ġbro tli
Ġbas is
Ġ"# ":<
Ġnou veau
ĠTable Info
Ġmime types
Ġ'{} '".
ĠSource Distribution
ĠSTR ONG
ĠDST OFFSET
ĠAmbigu ityError
Ġlarge ly
ĠFill ingCircle
ĠUti lities
ĠGCN Conv
ĠEns ure
ĠEmpty PoolError
('^ [
ĠReDoc Renderer
Ġintro du
agon al
ĠWE IGHTS
STD ERR
Ġnprint f
Ġunderstand ability
Ġ\__, _|
manent Redirect
Ġinterf acing
Change dError
ĠFileSystem Storage
FAILED TELL
ĠZero Div
modify items
Attemp t
Collap ses
Weight ed
retrie ve
ĠWebsite EmbedPayload
Ġmarsh al
ĠSupports Int
ĠHelp ers
Shared Data
"(?://([^ \\/?#]*))?"<
åħ¥ éľĢè¦ģ
ĠDateTime Field
GDALGetD river
ĠStaticFile sHandler
ĠHeader Parsing
abcdefgh ijk
MAGEMAGI K
ĠOpenLayers Widget
'(? <=
)(\ ?([^#]*))?(#(.*))?
/>` .
AU DIO
Bt Nr
Big AutoField
Centr al
FRO ZEN
Hour glass
IMetadata Provider
IWR ITE
Lat in
Lib rary
MAT CHES
MUL TI
NegativeInfinity Type
Near EarthObject
PU REPYTHON
PROTO COLS
Ran k
Ray Error
REND ER
SRC ALPHA
SVE M
SLA SH
Split ter
Vi olationDefect
VulnName s
Yë ħĦ
Yå¹ ´næľĪ
[() ],
[... ,
cit ext
cmsg pack
dar win
fsen code
gir di
jæ Ĺ¥
linal g
mus llinux
pAff ine
rrevers ible
sil ently
wat ershed
zil la
¸è ½½
åį ¸è½½
Ġicer ik
Ġ×ĳ F
recurs ive
Ġtrip le
attemp ts
develo per
Ġpromet heus
Ġcel ls
Ġfur ther
Ġfurn ished
Ġfint a
ssltr ansport
Ġdic o
Ġsour ced
Ġinsecure ly
Ġbund led
Ġbread th
Ġbrow sers
Ġbrou ght
Ġnecess ary
ĠTarget Python
ĠTensor Flow
idCo ords
cellane ous
thenur habib
Ġcomm a
upgra de
ateDatabase AndState
getAttribute Node
ĠSol dier
ĠSta le
ĠSIG INT
ĠSchemaEditor Class
ĠSPECIF IC
ĠClosed PoolError
ĠCord asco
ĠCurrency Converter
ĠDEP RECATION
ĠDisc ord
ĠALP HABET
Ġvoit ure
Ġcondition s
Ġconven tion
Reparse Exception
ĠFeed Parser
ĠFAV ORITE
Ġdesk top
Ġdedic ated
ĠMechan ics
ĠUsu ally
ĠgetFirst Child
ĠgetNext Sibling
ĠGEN ERIC
ĠGrad Scaler
Ġgens hi
Ġgrad ually
ĠBAND TYPE
Ġunadjust ForeignAttributes
Ġmemor ized
ĠOutOf Data
ĠHost ChangedError
ĠECONN REFUSE
owsk i
('\\ \\
('#.*? (?=\
SERI ALIZ
ĠRevers er
ĠRegen arate
ĠInten ded
INSER T
assign ment
Ġentire ly
ĠVulner abilityInfo
ĠPythonDeser ializer
indableBody Error
aryNotFound Defect
Ġadjac ent
dirilebi lir
ĠUnrew indableBodyError
ĠRaymon d
ominate ur
FieldDefault Mixin
Ġclassonly method
Ġnumerate ur
ĠUserNot Participant
Develop Installer
ĠDistutilsArg Error
addini value
ĠSetConsole TextAttribute
ĠjìĿ ¼
Ġprincip le
NotBe Loaded
Enhan ced
ĠInvalidSdist Filename
Ġsuspect ed
ForSocket Error
COLLA PSE
ToWait ForSocketError
Ġ('/' -
PRETRA INED
PREVIO US
interpol ate
([^/?#]* ))?([^?#]*
ResultBy Vuln
treeadap ters
ĠNoWay ToWaitForSocketError
ĠspacePre serveElements
ĠtableInsert ModeElements
macinto sh
ĠPipXml rpcTransport
Ġcapabi lities
ĠPerceptr on
"^(([^ :/?#]+
ĠAUTHORIZ ED
ĠhexDig its
ĠHttpResponsePer manentRedirect
ĠMultipartInvariant ViolationDefect
VIRTU ALENV
MultiDomain BasicAuth
lastFour Chars
ĠConfigurationFileCould NotBeLoaded
lmnop qrstuvwxyz
ContentNe gotiation
ĠMetadataConflict Error
ĠSimpleLazy Object
ĠStartBound aryNotFoundDefect
alphanum s
BuildSystem Details
5003694 93
):)?(// ([^/?#]*))?([^?#]*
ĠAttributesNSI mpl
ĠOneDay Cache
ĠUnknownTimezone Exception
-_]+\}(:\ $\{[
ĠFillingCircle sBar
ĠZeroDiv isionError
ĠHeaderParsing Error
abcdefghijk lmnopqrstuvwxyz
)(\?([^#]*))?(#(.*))? ")<
BtNr Fc
åį¸è½½ ç³»ç»ŁåºĶçĶ¨
ĠECONNREFUSE D
"^(([^:/?#]+ ):)?(//([^/?#]*))?([^?#]*
"^(([^:/?#]+):)?(//([^/?#]*))?([^?#]* )(\?([^#]*))?(#(.*))?")<
! ".
" >
" .<
" ."""<
" ]+
" ``.
# (
$ ",
$ ")
% <
% '<
& "<
' ")<
' '<
' >)<
' ][
' ]*
' [\
' ],"\
( %
( .
( ...
( {}
( >=
( ([^\
) !
) ;
) ",
) ()<
) ])<
) '.
) >=
* (
* (<
* ([
* )*
* $")<
* ([^\
* (?:\
* $")
+ ,
+ <
+ ')
, (
, ]+
- ]+
. "
. (
. \
. ]*
. '''<
/ _
/ ")
/ {}.
0 4
0 7
1 01
1 000
2 32
2 85
4 2
4 85
5 000
5 37
6 00
6 16
6 98
7 0
7 5
7 23
8 1
8 8
9 2
9 01
: "
: '
: ,
: .
: ',
: ")<
: ])<
: ]:<
< |
= $
= \
= |
= ":
= ["
= -_
> "<
> ----
> ')<
> ":
> (.*
> âĸĪâĸĪâķĳâĸĳâĸĳ
> ================
> âĸĪâĸĪâĸĪâĸĪâĸĪâĸĪâĸĪâķĹ
? :
A re
A CK
A ler
A vailable
A UT
A lso
A IL
A MA
A ccess
A fter
A VI
A sync
A SSWORD
A lias
B r
B ad
B and
B ool
B ID
B ert
B DIR
B lack
B oth
B ANN
B leach
C S
C V
C ython
C lock
C AD
C RI
C enter
C PP
C rop
C aster
C WORD
C andidates
C lip
C rawl
C COUNT
C alcul
C PointerBase
C loud
D r
D at
D ec
D ash
D raw
D ns
D uration
D esc
D NS
D irInfo
D ifference
D MINS
E G
E ST
E qual
E ye
E AST
F L
F P
F S
F ix
F ER
F ramework
F loat
F ail
F etch
F LA
F loatField
F amily
G re
G al
G IT
G roup
G NU
G MAIL
H E
H H
H Y
H ER
H EX
H unk
H ttp
H IS
H AND
H IGH
I V
I X
I m
I TI
I MP
I tem
I ALIZ
J O
J P
J IT
J ohn
K M
K O
K NOWN
L L
L N
L U
L ast
L TER
L ATION
L BRA
L ITY
L ike
M D
M d
M in
M ed
M ore
M ix
M em
M akes
M aster
M ARY
M atrix
M aybe
N B
N E
N ON
N ormalize
N orth
N etflix
O d
O n
O ME
O CO
O VER
O ld
O UTH
O CT
O UR
O perandHolder
O WNER
P R
P il
P os
P YPY
P lan
P ROT
P TS
P hoto
P olygon
P GEOM
Q LO
R IC
R Code
R andom
R ename
R ENT
R Lock
R BRA
R envoie
S he
S ize
S pec
S CHE
S ING
S eg
S ignal
S cheduler
S outh
S PL
S ku
S YNC
S QLO
T an
T un
T IN
T om
T rop
T ikTok
U ST
U SD
U ES
U sing
U MENTS
V EN
V ari
V alues
V isit
V irtual
V CCompiler
V erboseLogger
V ORITE
V erify
V csInfo
W en
W OR
W ill
W AR
W inter
W ritten
W rapp
W ord
W ork
X R
X ML
Y S
Y ue
Y aml
Y outube
Z ipFile
Z Site
\ _|
] """<
] ",<
] ],
] ])<
] .*
] ].
] ','
] `).<
_ {
` )
` )<
a e
a mm
a que
a ys
a Field
a xy
a av
a round
a ites
a zip
a ho
a ggregate
b f
b il
b out
b po
b link
b io
b ian
b cc
b est
b lur
b az
b ilateral
c ri
c lob
c amp
c word
c ance
c ale
c ustom
c andidates
c rawl
c xx
c tible
d p
d ial
d nn
d akika
d uplic
d Dns
e z
e el
e per
e ig
e ach
e ze
e verything
f a
f k
f w
f ing
f ed
f lt
f ect
f sh
f sub
f ak
f array
f gh
f ban
f lag
f lus
f lip
g b
g u
g al
g ad
g ap
g te
g ive
g gest
g cd
g Ãł
g reater
g rey
h l
h r
h ot
h our
h ave
h sv
h store
h alf
h arField
h Ã¡
i i
i en
i qu
i gger
i ases
k d
k in
k ar
k it
k un
k ler
k lar
k ran
k owski
k Eye
l ans
l ong
l xml
l oring
l arge
l zma
m x
m er
m al
m ing
m ul
m igration
m issing
m erge
n g
n i
n y
n Ä
n Re
n ir
n egative
n ormalize
n atur
n gettext
n mtime
n ecess
n å®īè£ħèĩªå®ļä¹īåºĶçĶ¨ä¸ºç³»ç»ŁåºĶçĶ¨
o in
o sed
o main
o om
o auth
o space
o Sum
o ssible
p m
p ing
p ur
p th
p ect
p ow
p ix
p ick
p ull
p ie
p ause
p sycopg
p lain
p lural
p ublish
q m
q s
q sl
r r
r able
r ator
r ices
r mtree
s d
s w
s in
s ure
s que
s sed
s af
s ds
s oup
s ampler
s Dis
s Array
s qrt
s lug
s aat
s ilent
s Draw
t d
t t
t v
t ti
t ate
t lib
t yped
t Converter
t cp
t ultd
u F
u k
u ate
u ses
u clidean
v ir
v ity
v St
v plot
v ccompiler
v icer
w t
w rong
w anted
w oSum
x D
x space
y i
y en
y dl
z zy
z fill
z anti
| ==
| <|
} \
} '<
} ):
} >'<
} !".
¡ ãĥ³
¤ º
¦ ãĥ³ãĥ
§ å
§ ãĥ³
¨ Ń
ª ħ
« ãĤ
± a
± ðĿĴ
³ ðĿĴ
¶ áŁ
· ãĥ
º İ
» Ð
» å
¾ ĵ
Â »
Ã ±a
Ä Ł
Ð ½
Ð ļ
Ð Ľ
Ñ ĭ
Ò ¯
Ù Ģ
ä ½
ä ºİ
å ¯
å Ĩ
å Į
æ ĭ
æ Į
ç ¤º
è ®
è ¿
è ¨Ń
è ¾ĵ
é ĥ
Ġ æ
Ġ ,<
Ġ ist
Ġ il
Ġ ORM
Ġ ill
Ġ ).
Ġ ------
Ġ geos
Ġ light
Ġ ðŁ
Ġ ----<
Ġ Â·
Ġ âľĺ
Ġ ãĤ¢ãĤ
Ġ erosion
ĩ å®ļ
Ī å¹
ĭ ãĤ
į ðĿķ
į ãĥ¼ãĥ
ı á´
ĵ į
ķ ðĿķ
ĸ åħ¥éľĢè¦ģ
ĺ æ
Ļ ãĤĭ
Ŀ ðĿķ
or iz
or Client
or ld
in fer
in crement
in ference
in ned
in bound
er il
er ation
er sed
er ial
er print
er red
er ies
mp ro
on ents
on ential
ort Type
se x
se quence
se cond
re ur
re ma
re nt
re lat
re ally
re present
re pository
re lation
re cor
re quired
re aded
re doc
re presenter
re gistry
re mpro
ro ke
ro ve
ro Bot
Ġt d
Ġt ti
Ġt al
Ġt ts
Ġt ill
Ġt sv
Ġt yped
Ġt imer
at s
at ri
at ypes
at map
at JSON
st en
st ors
st mt
st Framework
en ing
en cy
en emy
en crypted
de lay
de part
de serializer
de construct
de crypt
de activate
"" ,
"" )<
Ġa k
Ġa st
Ġa for
Ġa ix
Ġa ux
Ġa Ã§
Ġa mbiguous
le graph
ti l
ti al
ti ck
ti cs
ti cal
Ġ= '
Ġ= >
Ġ= [
he ses
al c
al tern
al ice
al ign
al Info
al ted
al iases
Ġp h
Ġp k
Ġp ag
Ġp ok
Ġp lat
Ġp print
Ġp six
Ġp ick
Ġp join
Ġp idx
Ġp urelib
Ġp gettext
Ġp wd
Ġp uny
Ġp lans
Ġc n
Ġc ython
Ġc args
Ġc lock
Ġc word
Ġc ik
Ġc andid
Ġc ud
Ġc ateg
Ġc ircular
Ġc lean
Ġc fgh
an y
an el
an te
)< /
)< =
__ '
__ /
__ ))<
__ ',<
__ ["
__ "):<
__ }({
__ ().<
ing Error
ing ular
Ġre n
Ġre ject
Ġre load
Ġre labels
Ġre vision
Ġre produ
Ġre versed
ar ib
ar ched
ar ily
ar ante
it ers
it wise
Ġf it
Ġf lt
Ġf ault
Ġf ich
Ġf req
Ġf aces
Ġf ont
Ġf etch
Ġf lake
Ġf ailed
Ġf lip
Ġf aulthandler
Ġf eel
ss Than
ur te
ur ful
Ġd u
Ġd type
Ġd raw
Ġd uration
Ġd river
ge ograph
Ġs i
Ġs n
Ġs it
Ġs mo
Ġs ites
Ġs lug
Ġs orry
Ġs ilent
Ġs hell
Ġs aved
Ġs alted
Ġs ingular
"< {
"< ":
is fies
ut ely
Ġo kuma
Ġo kun
ac m
ac ity
ac cent
Ġin q
Ġin version
Ġin finit
Ġin verse
Ġin crease
Ġin correct
Ġin dirilebilir
def ine
ic on
ic lient
ic DataFrame
lo go
lo ve
la ys
Ġb ure
Ġb po
Ġb lue
Ġb lur
Ġb rows
Ġb rowser
co up
co ord
Ġ" ?
Ġ" |
Ġ" ::
Ġ" >=
Ġ" >":
ed ata
ed ence
ed ns
ed Resolver
ed HelpFormatter
Ġn ext
Ġn ul
Ġn ms
Ġn om
Ġn ice
Ġn row
Ġn idx
># #<
># ################
># ################################
Ġw all
Ġw sg
Ġw orth
un ame
un ch
un ary
un split
un ner
un safe
un block
un ban
un Service
un pin
un iversity
un sque
un til
es i
ent ers
ent ea
ĠT ypes
ĠT oday
ĠT HIS
ĠT rove
ec h
ec utor
Ġm n
Ġm x
Ġm ult
Ġm isc
Ġm irror
Ġm achinery
Ġm utex
id u
id ue
id ow
ad ers
ad ds
ad io
ad ditional
ad cast
go ts
ce al
Ġdef erred
ri end
th rough
th umbnail
ase Ã±a
to k
to ll
to gether
to cols
Ġto par
Ġto po
Ġto uch
Ġto mli
Ġco ls
Ġco unter
Ġco variant
Ġco unts
li min
li ams
li fied
li klar
Ġ( [
Ġ( _
Ġ( ))<
Ġ( ),
Ġ( {}
il ink
il ence
il liams
up loaded
ot al
Ġi love
str ate
str ap
str action
str unner
ate Pro
Ġan imal
Ġis i
Ġis ol
Ġis Enumerator
Ġ' (
Ġ' **
Ġ' )]<
get filesystem
get fqdn
get attribute
ap ing
ap ipe
ap ening
ap iclient
Ġ- =
Ġ- )",
ĠS ize
ĠS ER
ĠS ql
ĠS ign
ĠS chema
ĠS HA
ĠS TS
ĠS ampler
ĠS patial
ĠS lug
ĠS ilent
ĠS VR
ĠS OUTH
ĠS ortType
ĠS toll
lt ra
lt eq
ĠP age
ĠP ile
ĠP AT
ĠP OS
ĠP open
ĠP erson
ĠP ower
ĠP aginator
ĠP ASS
ĠP olygon
ĠP ixel
ĠP ASSWORD
ĠP inned
ol ves
class name
ab et
ab sol
ip read
ip Info
ip address
ĠC ar
ĠC RE
ĠC ast
ĠC andidates
ĠC OM
ĠC IText
ĠC ircular
ĠC lean
ĠC PointerBase
ĠC apture
ĠC FUNCTYPE
ĠC MD
ĠC OCO
Ġ# !
Ġ# <
Ġ# ##
ĠN ur
ĠN OR
ĠN orm
ĠN ormalize
ack ed
and o
Ġ__ _
Ġ__ |
el ine
ht m
ation Invalid
ĠD uration
ĠD river
ĠD rive
ĠD IST
ĠD rake
one y
ĠA I
ĠA ss
ĠA li
ĠA ST
ĠA PP
ĠA RG
ĠA CCOUNT
ĠA DMINS
ĠA Tan
con v
con straint
con stru
con ceal
ĠI an
ĠI SO
ĠI ANA
ĠI MAGEMAGIK
ĠI rreversible
ĠL et
ĠL OT
ĠL egacy
ĠL ines
ĠL ET
ĠL yle
ĠL INE
ĠL ANGUAGE
ĠL iveServerTestCase
ĠL abel
ĠL BRACK
ĠL ung
ĠL ipread
AT AN
AT TR
AT TRIBUT
AT LI
ser ial
set Type
set sock
set Token
set warn
set gpic
sp ersed
pro f
pro cessed
pro fan
pro fanity
tr ick
tr acks
tr aseÃ±a
OR ED
OR AGE
ch ain
ch ien
Ġv c
Ġv e
Ġv env
Ġv uln
Ġv mess
Ġv oltage
Ġpip eline
() (
() "<
() `<
() ``
() ),<
() ``.<
() )))<
() ],<
et ries
et ween
__( '
__( _
Ġr v
Ġr aster
Ġr hs
Ġ` /
Ġ` @
Ġl ines
Ġl hs
Ġl zma
Ġl ittle
Ġl arger
Ġu chardet
Ġu ltra
Ġcon ditional
Ġcon versions
Ġcon secutive
Ġcon sumed
Ġcon traseÃ±a
Re f
Re quire
Re quirements
Re moved
Re Doc
Re gistry
Re LU
Re setToken
ĠF lat
ĠF red
ĠF irst
ĠF eature
ĠF ANG
ĠF Ban
ĠF NF
ĠF ood
ĠF arcaster
am ing
lib gdal
ject State
iz ations
for ge
for eg
for ward
ext ended
ma y
Ġfrom list
Ġfile hash
Ġfile dial
Ġpro g
Ġpro te
Ġpro fan
ve ls
Ġstr ategy
Ġde ta
Ġde termin
Ġde crypt
Ġde activate
ĠM D
ĠM an
ĠM EN
ĠM PI
ĠM eg
ĠM issing
ĠM icro
ĠM APP
ĠM enu
ĠM asquerade
per fect
ys is
ĠU I
ĠU TI
ĠU NI
ĠU kran
Ġget Variable
ver age
ver ify
ver Str
te code
te strunner
der able
der With
qu ad
qu otes
qu oted
ĠG ame
ĠG if
ĠG ive
ĠG ord
ĠG LOBAL
ĠG reater
ĠG PTS
Ġg un
Ġg TT
Ġg rp
Ġg reen
Ġg pg
Ġg aussian
Ġg rays
Ġdist ro
Ġh i
Ġh ad
Ġh ide
Ġh idden
Ġh alf
Ġh abib
Ġh istor
Ġh urt
Ġh acked
um ing
um ar
um ot
ul at
(" $
(" %
(" =>
par sers
ĠB lob
ĠB ound
ĠB oth
ĠB lake
ĠB eck
ĠB CPP
ĠB itwise
ĠNone Metadata
Ġe or
Ġe ase
Ġe mb
Ġe msg
Ġe lementTree
Ġe poch
Ġe limin
Ġun set
Ġun load
Ġun rol
Ġun escape
Ġun named
Ġun condition
Ġun official
Ġun necess
Ġun wanted
url join
url unsplit
Ġ""" ðŁ
Ġ2 5
Ġ[ ]
Ġ[ {
Ġ[ ]:<
Ġme asure
ly Payload
ĠO N
ĠO c
ĠO ur
ĠO perations
ĠO rigin
ĠO GRE
ĠO WNER
Ġ* "
Ġ* ,
ict Red
Ġbe etween
able Candidate
:// ")
:// "):<
py c
py cache
py yaml
py rogram
py gments
Ġnot es
file store
Ġwith draw
pre dict
pre vent
pre served
pre ssed
app able
ĠH is
ĠH ack
ĠH ere
ĠH andler
ĠH EX
ĠH istor
Ġwh y
Ġwh ite
ĠCo uld
In tegrityError
In surance
In consistent
ME DI
ME THO
ME RIC
ĠE ast
ĠE ither
ĠE dit
ĠE mbedPayload
ĠE arth
ĠE mitter
ĠE kler
ir ation
ule s
ime s
Ġst rip
Ġst uff
Ġst derr
Ġst ories
sc ore
sc ik
ow els
out bound
(' ')<
(' [^
(' =>
(' ''<
(' :',
Con crete
com ando
Ġse q
Ġse em
Ġse gmentation
comp map
po pen
po inter
po tify
ĠRe g
ĠRe quire
ĠRe present
ĠRe verse
ĠRe cogn
ĠRe presenter
Ġ1 1
Ġ1 000
Ġ1 55
Ġ1 234
00 7
00 25
EN G
EN AB
ay Ä±
fer rable
cont enu
load ers
ite map
Ġcomp uted
Ġcomp ose
Ġcomp uter
Ġcomp uting
ĠIn ternal
ĠIn stance
ĠIn clude
ĠIn ternalError
ĠIn consistent
ĠIn tConverter
ix CCompiler
fo od
IN TS
IN VALID
IN ITI
Ġal go
Ġal ici
Ġprint s
ms ys
ms gs
ms vc
ms vccompiler
Ġen core
Ġen counter
âĸĪ âĸĴ
path y
ĠV ary
ĠV ide
ĠV eril
us ually
Ġab straction
iv ely
Ġy et
Ġy dl
Ġy ellow
lit ch
Ġint s
Ġ: ]
Ġ: ",
Ġ: ])<
ok er
ok bo
nt Man
Ġsh allow
Ġsh ift
ere lease
Ġcol umn
key board
db l
db field
Ġex e
Ġex act
Ġex ha
Ġex pressions
Ġcode c
Ġcode base
mb ination
Ġso up
right Click
CH IV
TI F
TI Dataset
TI CAL
try Point
ĠW ar
ĠW ith
ĠW ould
ĠW ide
ĠW RA
ĠW ord
ĠW heels
ĠW avefunction
ĠW idow
ĠW illiams
Ġgoogle apiclient
Ġpass w
Ġproto type
Ġ{ !
Ġ{ "<":
col lect
col lap
ind irectly
json l
json lines
und a
und erscore
Ex act
Ex tent
Ex tract
Ex traction
read me
parse opts
do zip
IC harField
dist ro
dist ance
Ġtime d
Ġtime it
Ġlist dir
Ġch ang
Ġch annels
Ġbu mp
res sed
res net
res istant
form field
Ġdate fmt
mo vie
mo vies
mo zilla
Co okbo
Co mbination
02 26
ER O
ts u
ts v
OT E
Lo ading
RE SS
Ġtr ace
Ġar ising
info s
Ġ== ================
ary Search
ĠY ES
thod Map
IT TIDataset
lic ated
ST ORE
ST ORAGE
ans Report
valid Package
sy m
Ġ`` '
ine ar
unc ate
== '
di agonal
âĸĪâĸĪ âĸĪ
âĸĪâĸĪ âĸĪâķĶ
Ġsup press
em ention
ĠAn ything
ive Union
Ġro utes
Ġrai ses
ĠUn safe
ĠUn mute
ĠUn pin
ĠUn fortunately
ĠUn ixCCompiler
Ġx ss
Ġx maps
Ġpre viously
Ġpre cedence
Ġpre tti
ĠDist ributed
ĠDist Info
ĠR ange
ĠR ich
ĠR ight
ĠR ose
ĠR aster
ĠR BRACK
ĠR etries
ĠCommand Ar
ĠCommand Context
back tracks
om as
Ġformat ted
Ġmode ladmin
Field Reference
Ġwhen ever
lat er
lat tr
Ġ3 1
ĠDjango Te
ĠDjango JSONEncoder
Ġpy compile
Ġpy epat
Ġpy coco
Ġpy gments
Ġpy otp
Ġclass name
Ġclass ifiers
=" %
=" ([^
=" %(
min GP
min kowski
ĠImport s
ou ght
env build
las se
types hed
split lines
lu strate
fix up
ci k
ĠBase Connection
ĠBase HTTPError
ĠBase Geometry
ĠBase Environment
ĠBase Storage
ĠBase Constructor
ĠBase Representer
ĠBase Entry
ĠBase Engine
ĠBase JSONSerializer
ĠBase SchemaGenerator
ĠBase PickleSerializer
Ġread able
Base Codec
Base Candidate
Base Reporter
Base SpatialFeatures
ound Cloud
ity a
Ġuser id
Ġup stream
Ġres idue
num B
Ġ| \
Ġ| ___/
Ġapp author
Ġcheck ed
Ġcheck point
Ġcheck perfect
Ġnode list
af t
Ġimp ly
led Pil
install er
install ation
ra v
Ġ\ |
Ġ\ _/
Ġ\ .|
Ġtorch audio
ĠDO CUMENT
AR RAY
Dict Metadata
work ers
DE X
DE EPGRAM
FI LTER
ĠCon stants
ĠCon structor
ĠCon straint
ĠCon ditionalGetMiddleware
UN IMP
Ġz mq
Ġz oom
Set s
Set Pro
Set Target
Set Console
Ġkey Val
build SharedData
ĠVersion edResolver
cal age
cal Bar
Ġk d
Ġk ick
ĠHTTP RangeRequestUnsupported
by ref
ĠUser name
ĠUser bot
ĠUser Install
Ġsub tle
Ġsub widget
Ġsub tract
Ġne ver
Ġrun List
Ġrun Enumeration
Ġrun RevIP
test case
als o
De bian
nd im
vide op
=' %(
=' .')<
Ġpo pen
alled Candidate
AL LOW
ast e
ĠDistutils Module
ĠDistutils Template
ĠDistutils Byte
add auth
add next
add ons
add Weighted
add profanity
ĠNot es
spec ify
Ġla unch
), ))<
python lib
Ġim t
process Error
Ġtest Serializer
ari a
max imum
ign ored
ign ores
Par ts
Par ameter
tin JSONField
Ġsome how
NU ALL
NU MERIC
gin Filter
sh ort
sh allable
ĠSet Mode
ĠSet Target
LS itemap
Ġj np
Ġj oints
Ġass ign
ĠReturn Dict
Ġresult ing
Ġinstall er
Client Connection
Res pect
Ġopen ing
Ġopen api
Ġle gal
Ġpr ange
#### ###<
Gener ationError
][ -
blob s
lan ation
ne ar
ne ver
op tparse
ome tries
project Depth
Not None
Not Al
Not Modified
Not Ready
iss ant
sub class
sub mit
sub domain
sub finder
sub domains
sub tract
sub sInScope
check out
Ġany one
ĠSt ark
ĠSt rip
ĠSt udio
prefix ed
ĠĠĠĠĠĠĠĠĠĠĠĠĠĠĠĠ ĠĠĠĠĠĠ
En capsulate
En sure
ak Key
ak inator
ide al
LO CA
UT C
Value Mixin
Value Validator
Ġsql ite
ĠOr derable
AN K
Ke eper
]) [
]) ):<
]) ))<
]) **
trans lator
ns fw
Ġback ward
Ġback slash
12 3
Ġsp in
Ġsp ots
WE ST
dis connect
dis covery
Ġinter active
Ġinter actions
ĠInvalid Cache
ĠInvalid Session
ĠInvalid Migration
ĠInvalid Scheme
Pro file
Pro gress
Pro tocol
Pro tocols
:` (
EX P
File Handler
jo hn
Ġchar s
Ġsyn ony
ĠJ r
ĠJ ointsDataset
ĠJ ohn
ĠJ oin
lay list
40 698
cre ated
Ġwrite Enum
Ġwrite List
Ġwrite Scan
Ġwrite Crawl
Ġadd rs
!= |==
line string
Ġrest art
Ġmax EnumerationTime
Code Generator
HTTP SHandler
HTTP RangeRequestUnsupported
Ġbot tle
Key Error
Ġglob ally
Info setFilter
ĠEx act
ĠEx ample
ĠEx pression
ĠEx clus
ĠEx traction
ĠEx ecutor
Ġbuild s
)) )
)) //
)) ))<
ID ataset
ID omain
Ġac cur
Ġcreate Parser
struct ure
Request History
Requirement Information
Ġvalid s
Ġvalid ator
An cestor
IO Mot
YE LLOW
with out
Ġid na
log pm
word ResetToken
ff mpeg
pat Parser
wh ite
Ġ[" _
Ġserv ing
we akref
Ġap k
Ġap is
system Loader
Ġcorrespon ds
RI DE
RI MARY
Ġop s
ĠGet Payload
ĠGet Add
ĠGet Full
ĠGet Tokens
AS SE
AS YNC
Ġ201 8
Ġper ms
Ġper cent
Ġper iod
Ġsu ffer
Ġsu mmary
ach ing
Se lect
link er
ĠDe termine
ĠDe vSt
ĠFile Cache
ĠFile Path
Ġwhe els
verse e
Comp ose
Comp oser
Comp ileError
not es
Ġobj s
ĠAPI Exception
ĠRequest Exception
DI GE
GE OME
Ġbo yut
ĠPro file
ĠPro cess
ĠPro jectState
') ]<
CU B
CU DA
Database Introspection
Node Bound
Tr ans
node list
nect Timeout
oid s
Ġ"< =":
Ġver i
Ġver Str
ension s
Ser vicer
hash able
Ġgroup ing
Ġgroup by
Ġexp lain
Ġexp loring
Ġexp onential
Ġexp lanation
Python Filter
Python Serializer
To ml
View Error
Ġ4 5
ĠWe st
ĠWe apon
ĠWe akKey
AB IF
tim er
Ġtypes hed
Ġrep eat
Ġresol ved
Ġman ifest
33 33
vent ory
Ġhe atmaps
Ġhe atmap
response s
Ġupload er
no ise
play er
play list
play Codec
Ġover lap
ript or
Ġprefix es
rit es
Ġ'/ '
ĠDistribution Version
ĠDistribution NotFound
(( (
(( .*
hes is
PRE FER
PRE PGEOM
Ġign ored
ĠSS VE
ĠData Frame
Ġpoint ing
Char SetPro
'] =
'] ).
FA VORITE
Ġconvert ing
Ġconvert ed
000 6
000 7
Model Serializer
): :<
Get Format
Get Headers
Get ResultByVuln
write able
erti calBar
Ġtarget ing
filen o
âķĲâķĲ âķĿ
ĠPy Trie
ĠPy Qt
Ġrandom ize
Ġattr getter
Any DBFeature
Ġresults List
dd l
source forge
Found Candidates
inter est
inter section
inter polation
inter spersed
Ġfind ers
ĠDo uble
Ġview sets
ĠMapping Node
ĠMapping Proxy
âĸĴ âĸĳ
Ġwhere as
Ġstream z
######## #######<
ULT S
API s
API View
Filter Stack
ten acity
ĠQ RCode
Ġpas ses
post release
au cr
site maps
Ġenum s
Ġextract s
Ġextract Metadata
"] .
ose n
target Sum
Ġsk etch
ĠCache Handler
ĠCache dDns
ĠName s
ĠX SS
ĠX LN
row d
Ġpd f
Ġpos itive
Ġ200 2
Ġ200 5
Invalid Version
Invalid TimeError
Status Code
Status Message
Ġfilter ing
Ġfilter false
Id Invalid
Id entifier
TER S
orig in
Ġauto clob
urls plit
idx keep
Ġparti ally
ĠSequence Node
pr ices
pr erelease
war mup
war pAffine
Ġmat rices
27 01
String Converter
Text Type
ãĥ ª
ãĥ ¡ãĥ³
ĠZ ipInfo
ĠZ ERO
Ġend ian
Ġkeep s
Ġkeep characters
enum s
enum erate
ĠApp s
ĠApp lication
ĠApp Registry
ĠEn able
ĠEn gine
ĠEn tryPoint
TE S
Token Config
gd riveTools
mon ospace
mod name
Ġsize of
ĠAr chive
Ġdecode d
dump ster
table s
âĢ¢ `{
Ġq bit
Ġq ba
Ġent re
inst allable
Ġtab lo
domain Enumerator
âĸĪâĸĪâĸĪâĸĪ âĸĪ
âĸĪâĸĪâĸĪâĸĪ âĸĪâĸĪâķĹ
âĸĪâĸĪâĸĪâĸĪ âĸĪâĸĪâķĶ
COM PATI
Serializer Inspector
Operation HolderMixin
cryp tion
ĠText Field
ĠText Codec
ĠText EmbedPayload
ĠText area
Ġmin imum
digest s
Man agers
Ġâĸĳ <
Ġâĸĳ âĸĴ
Ġâĸĳ âĸĳâĸĳ
ĠCON TENT
ĠBy tecode
Ġbuil tin
length s
SI VE
ãĤ ³
ãĤ ¹
ãĤ ·ãĥ
allowed ModelAdmin
Ġreq s
ĠTr s
limit ed
ĠString Converter
Ġlocal time
Ġstart l
Up datingDefaultsHelpFormatter
err code
rev ip
rev ision
Ġmo ment
Ġmo ves
Ġmo vies
Ġmo yen
ĠFI ELD
ĠBu il
Ġequal ity
ĠOP TIONS
ĠRequirement Information
ĠTemplate Error
ĠTemplate Command
ĠTemplate NotFound
ont al
Ġali gned
Ġcal csize
ĠSer ial
Ġline ar
ĠUp dater
ĠBin arySearch
Ġexec ution
Ġexec uting
Ġposs ibility
Session Base
patch er
sing ular
sur farray
ï¼ Į
ĠRE SET
ĠRE QUI
resol vers
lex er
ĠComp ute
ĠComp ose
ĠComp atJSON
Ġstride s
Ġsepar ators
11 11
Th readed
cu dnn
ãģ ĻãĤĭ
Ġ", ":
Ġ", "")<
ĠIN DEX
ĠMe mbers
ĠMe thodMap
ĠConnection Handler
ĠConnection Proxy
ĠConnection Router
#! .*
JSON Error
JSON Renderer
ble ach
used Anchor
Ġâĸ Į
Ġdownload er
Ġform set
ĠSu do
ĠCheck box
ĠCheck FieldDefaultMixin
Ġprodu ces
201 4
201 9
Col ors
Col umn
MO V
Operator s
batch Size
Ġparent heses
ĠPip DeprecationWarning
ĠPip Reporter
ĠIO Processor
Ġdec la
ĠMigration Rec
ĠMigration Op
Ġeasy dict
Ġtransport s
Ġoptim al
Ġoptim ized
ĠRequests Dependency
Ġskip Unless
Geometry Field
Output Config
Sub query
Sub domains
Sub Array
Sub sInScope
Sub processError
cl one
fn match
Ġbreak point
ĠPath Converter
ĠCh arField
ĠAdd Index
ĠAdd Constraint
ĠRemove Field
ĠRemove Index
âķĿ <
âķĿ âĸĪâĸĪâķĳâĸĳâĸĳâĸĪâĸĪâķĳ
Bin sDis
ET ag
USER NAME
ban ned
hand le
hand led
come s
ĠStr ategy
ĠStr ictRed
ĠImage EmbedPayload
ĠLink Collect
ĠField Operation
ĠField DoesNotExist
ĠOutput PythonFilter
prec edence
ready Inst
CT rie
IS O
Sy mbol
state ment
Ġcap first
Ġcap ability
Ġcap ture
Ġdown loaded
exe mpt
ĠSH P
ĠCandidate Version
ĠMessage Payload
ĠMessage Rep
200 5
PA SS
Rec pie
[[ ],
ĠK M
ĠK ITTIDataset
ĠK BinsDis
Ġet ait
Ġqu ite
Ġqu otation
Ġqu otes
Ġqu eries
see k
Ġinfo s
Ġinfo setFilter
Ġmod name
Ġmod unda
ĠPer ry
ĠPer iod
ĠGDAL Base
prep ared
scrib ed
Exist sError
âĸĳâĸĳ âķļâķĲâķĲâķĲâķĲâķĿ
Al readyInst
Auth entication
Edit ableCandidate
Or acle
Or Equal
Or derWith
be fore
gener ate
gener ation
gener ators
}) ;
Ġfinder config
Ġinit al
ĠTh omas
ĠNum ericOutputFieldMixin
served ScalarString
Ġdecor ated
ĠMirror List
ĠRep lace
BOM S
ĠHttpResponse NotAl
(\ ([^\
44 100
44 44
Cre ated
CON TENT
Py roBot
platlib dir
ume Dist
ĠModule Config
Index View
Index Together
Ġsen ds
Lookup Error
licit Requirement
Ġidenti ty
Ġidenti fies
Ġidenti fiers
>= |<|
SU B
SU PPORT
]] ]<
var s
Ġtre ated
dest ination
ĠSub version
ĠSub classes
ĠSub domainEnumerator
ĠPar ameters
ĠChat Bot
train s
ĠMulti ple
ĠMulti Widget
ĠMulti Line
ĠMulti Point
ĠMulti Polygon
Ġstat s
color log
Ġ... ]
ĠContent Payload
ĠContent Types
Ġaccept ing
PYTHON PATH
InstallRequirement Provider
26 9
Download Helper
MP G
Migration Error
Migration History
TOKEN S
aw kEye
download s
fin issant
neg ated
Ġerr check
Ġtri m
Ġtri gger
Ġinv olves
ĠPre ference
ĠPre tty
ĠMy SQLO
Input Mixin
Ġsend StatusMessage
ĠInline Query
ĠSession Storage
ĠBaseDatabase Wrapper
ĠBaseDatabase Features
ĠBaseDatabase Creation
ĠStream Type
ĠStream Mark
ĠStream TextType
Ġsplit Up
web upload
Ġtransform ations
ĠArray Agg
)} %'<
BASE NAME
No mbre
report ers
Ġfin ally
ĠTO ML
ĠST OP
ĠST REAM
ĠST DOFFSET
ĠMo ve
disable d
ĠJon es
Archive Info
Ġdefinition s
CRE EN
CRE ATE
LA GS
QU OTE
WORD S
fr ac
åº ı
select ed
select box
Ġdir s
Ġinitial ized
Ġide al
aps ulates
ĠSp ins
ĠSwagger GenerationError
ĠSwagger JSONRenderer
Ġloc ations
("/ ")<
("/ ")[-
pred ictions
ĠHash Error
ĠHash Command
ĠHash Missing
ĠWheel Metadata
Import Include
show warning
çĶ¨ äºİ
DU PL
Open CL
Scanner Config
US AGE
flo or
rs From
ud ent
âĢ Ļ
Ġpyp a
iso format
Ġ". "
Ġ". ":<
ĠSh ould
ĠSh ift
ĠSh adowban
âĸĲ âĸĮâĸĲâĸĪ
users ite
STR ING
STR ONG
âķĲâķĲâķĲâķĲ âķĲâķĲâķĿâķļ
executable s
(_ ,
(_ ("
If DBFeature
Link s
Link Candidate
Link Ancestor
TO MLDecodeError
Ã© e
ÅŁ Ä±
ä¸ ª
ä¸ Ģ
ä¸ į
ret ch
rest ype
Ġtz file
del gpic
Ġsample s
Ġ'< {
ĠCS P
Ġconstruct ed
mag ic
ĠUUID Field
ĠUUID Converter
ĠBad Serializer
ĠBad Zip
ĠBad ZipFile
ĠBad MigrationError
',' /
ĠHidden Input
ĠSearch Scope
Ġpred icate
Ġpred icates
Process Error
ĠTest ez
ĠDelete Model
ĠFormat Control
Ġinstanti ation
Redirect s
Ġrecomm ender
Ġlanguage s
)? $')<
24 6
Agg Mixin
Max imum
Max EnumerationTime
Path Info
YAML Renderer
Ġ7 5
Ġpix el
anne e
Ġreverse Results
Ġdot ted
Ġbar f
ĠTE ST
ĠTE STS
ĠToken Type
ĠParse Error
ĠPOST GIS
ĠCrawler Report
ĠCrawler ReportInText
ĠDis allowedModelAdmin
ĠDirect ories
ĠDirect Url
ĠLe ssThan
âĸĮ <
Content Type
Ġgood Number
ĠWindows CCompiler
Ġconfigur ations
Proxy Mixin
skip Unless
ĠMySQL db
ĠMetadata Inconsistent
MODULE S
)\ )\
Dis playCodec
Dis patcher
EC TED
MS YS
Mis cellaneous
Media ForbiddenError
Run Python
SO L
cast s
duct Bert
ek le
ek ArchiveView
rand perm
tor rent
Ġ// =
Ġurls plit
Ġlimit s
render ers
Ġtk Font
Ġpn g
Ġrev config
Ġinser t
Ġbit wise
Ġmixin s
good Number
Ġcost ly
Ġcost On
ĠSafe String
ĠSafe Constructor
ĠSafe Representer
ĠDownload Helper
ĠAd ditional
Ġthrough out
Ġoff set
Ġoff sets
Ġconfi gobj
Ġconfi rm
ĠHel lo
ĠHel per
ĠHel ler
ĠEmail Field
Ġcomparison s
Ġatt ach
ĠRed is
ĠContext Manager
../ ")<
Def ine
Def ines
Unicode DecodeError
ĠOracle Introspection
ĠOracle GISSchemaEditor
ĠOracle Operations
Array Field
ãģ® ãĥ
Buil t
Package Finder
Sc ansReport
Sh ort
Zone Info
sup title
uc ial
}. ",<
Ð° ÑĤ
Ġed ge
Ġed ict
Ġli l
ĠâĸĪâĸĪâķĳ <
ĠâĸĪâĸĪâķĳ âĸĪâĸĪâķĳ
onth ArchiveView
alph a
alph afold
alph abet
Ġfix up
Ġdid n
Ġsat isfies
Ġ": ":
exp and
ĠSE QUENCE
ĠShow s
ĠPost GISSchemaEditor
ĠPost gresOperatorLookup
ĠCallback Query
ĠDAT ASET
ĠDAT ABASE
change d
change s
Ġhuman ize
("- "
ĠBack ground
('/ ',
('/ ')<
ĠNotSupported Extraction
]+\ )))*
Template Command
âĸĪâĸĪâĸĪâĸĪâĸĪâĸĪ âĸĪâĸĴ
âĸĢâĸĢ âĸĢâĸĢ
Custom ize
Crawler Config
GP G
GP W
PAR AM
POST GIS
YY YY
[^ @
[^ \
fact or
some thing
Ð¾ ÑĤ
áŀ ĵ
áŀ ¶áŁ
inp lace
ren dered
deb ian
let ters
Ġrelat ing
Ġsin on
Ġmy file
Ġcome s
ĠNEO Database
()' ),
Reg Error
Reg EnumValue
Reg EnumKey
Reg OpenKeyEx
Ġdele tes
Ġdesign ation
ĠBert Tokenizer
ĠBorland CCompiler
âĸĦ âĸĮ
ĠHEAD ERS
CHANN ELS
ITP V
ĠRandom Sequence
ĠRename Field
LEMENT ED
need ing
ĠToml Encoder
ĠToml Ordered
ĠToml Tz
ADD RESS
COLOR AMA
Ġretrie val
Ġretrie ved
ãĥ¼ ãĤ
ĠTextIO Base
ĠAlter Field
MODE L
Ġinvok es
91 8
>| !=|==
From String
From CacheMiddleware
HO ME
HO UR
Host s
Host Type
PL ATLI
Single Byte
Table Info
UP LOAD
bro ken
bro adcast
cr ack
dif f
dif ference
vale urs
Ġpai rs
Ġcar bon
medi an
medi atypes
Ġol dest
Ġban ned
Ġcomb ine
Ġ'* .
ĠScalar Node
ĠScalar Boolean
ĠPri me
ĠPri vate
Ġvisit or
Ġvisit ing
Ġrand o
ĠMIME Text
âĸĵ âĸĴ
Integer Field
Setup Requirements
ĠStatic LiveServerTestCase
ĠExit ing
ĠProgramm ingError
Ġverify ing
ĉĉĉĉ ĉĉĉĉ
Update CacheMiddleware
âķĿâķļ âĸĪâĸĪâĸĪâĸĪâĸĪâķĶ
Dependency Error
++ <
AV AIL
Flow Dat
Qu oted
Swagger Error
WM V
dig it
fetch ing
fetch many
nod b
snip s
tar bal
visit or
visit ed
áŁ Ĥ
áŁ Ĵ
åĪ Ĩ
æľ ī
Ġes sen
inv A
Ġplan e
Ġcr ucial
Ġfed s
Ġ"& #
Ġwild car
Ġ(... )<
ĠSc ript
ĠPM s
ĠCore API
ĠAs setType
Ġdest ination
ĠMS VCCompiler
Ġgu arante
ĠBasic Tokenizer
ĠBasic Block
Ġek lenecek
ĠHe imes
ĠReport er
ĠInterface Error
ush man
RES ULTS
REQUI RES
Ġarch ives
Ġarch itecture
ĠYear G
ĠYear L
Ġrout ers
ĠUnsupported Wheel
ĠUnknown FileError
PIP E
WEB M
WEB HOOK
ĠTelegram DownloadStatus
ĠDoes n
COMP LETE
Ġparenthes is
################################ ###############<
å®īè£ħ çļĦ
DateTime Field
âĸĮâĸĲâĸĪ âĸĮâĸĲâĸĪ
Script s
ĠArea Field
è¡¨ ç¤º
commit ted
)^ \
*\ ((.*
AC COUNT
BL ANK
Log in
Pri me
TU RE
kind s
plat base
uu uu
wit ch
åĲ Īå¹
Ġsel enium
Ġel f
Ġcy an
anal ysis
Ġden otation
Ġden ominateur
geo json
geome tric
Ġob viously
Ġ"+ ":
Ġ"[ ]")<
ĠSingle ObjectMixin
ĠSingle OperandHolder
abi lir
ĠCre ates
ĠCre ating
ĠCurrent ly
ĠCurrent Site
ĠCursor Wrapper
ĠNe eded
ĠNe ither
ĠAsync IOMot
Ġthink ing
construct ors
ĠLOCK FILE
Ġvow els
Ġvale ur
()<> ]+\)))*
ĠBoolean Field
Ġmechanis m
scene flow
ĠRef Space
Exp iration
Ġpacked IP
Ġchild Nodes
Ġrock VERSION
Ġrock PATH
ĠRo bin
Ġappend Child
LOCATION S
ĠExp licitRequirement
Ġaccount ing
Ġheuristic s
Ġdiff ic
GetAll VulnNames
ĠDosy ayÄ±
CIF AR
BUIL TIN
2727 2727
ĠâĸĢ âĸĢ
('.') [
ĠMoodle Client
Ġmanipul ation
âĸĪâĸĪâķĳâĸĳâĸĳâĸĪâĸĪâķĳ <
ĠGoogle DriveHelper
)(.*) ",<
ĠSpatiaLite Client
("< "
GRE EN
Gaussian Blur
Mo vie
My SQL
Mar ginFilter
Mar shallable
NF D
Op Arg
Tz Info
Title W
Title s
Zip Middleware
\__ __/
dy mask
dy ctr
dat base
fd rake
nai ve
tmp dir
Ã¨ re
Ã¼ r
å½ ķ
è¯· æĭ
è¯· è¾ĵ
ĠÑĢ Ð°Ð±
Ġáŀ ģ
Ġáŀ Ĩ
decla re
decla red
__} :
Ġfonts ize
Ġds n
ĠdÃ© coup
ĠdÃ© finissant
Ġ"@ ",<
unit test
uplic ate
Ġannot ated
Ġ'(' <
ĠSon ar
ĠSon una
ĠPop ulate
ĠPlay er
ĠPIP E
ĠNetwork ConnectionError
ĠLazy Object
Ġ`-- .
Ġcontrol led
ReverseIP Config
ReverseIP Base
ĠFix edOffset
("../../ ")<
("../../ ../")<
Ġembed s
ĠEnc apsulate
ĠEnc apsulates
Ġstud ent
Ġstud ents
Convert ValueMixin
SEPAR ATOR
SEPAR ATORS
INST A
INST ALL
Ġcho osing
Ġcho osen
Ġserializ ing
Ġ``" /
ĠSepar ateDatabaseAndState
boot strap
BaseDatabase Client
Ġkon u
Ġkon trol
Chat Bot
Ġbutton s
{}. {}{}
MarkedYAML Error
ĠChannel Type
ĠEnumerator Config
ĠEnumerator Report
IGN ORED
ĠPerm Wrapper
ĠPerm LookupDict
Ġjob lib
Ġevalu ated
bcpp compiler
ĠAdmin s
ĠLinear GeometryMixin
ĠLineString Field
Ð°Ð± Ð¾ÑĢ
ĠModulesOptions Error
Ð¾ÑĢ Ð½
ĠScene FlowDat
DirectUrl ValidationError
Prepare s
ĠYoutubeDL DownloadStatus
ĠStatement Splitter
ĠLayer Mapping
'^ #!.*
("" .
>âĸĴ âĸĪâĸĪâĸĪâĸĪâĸĪâĸĪâĸĪâĸĴ
BR ID
Hand led
Has hes
Is NotNone
MK V
MAS K
Origin al
Pai r
Rotation Matrix
TOT AL
cmp key
jr oney
pare n
sal t
Ä° sten
ĠâĸĪ âĸª
Ġesc aped
Ġav engers
Ġaio http
Ġajout e
alo aders
Ġpi eces
Ġche apening
Ġfan cy
Ġfact or
Ġdat aloaders
Ġsaf ely
Ġsaniti zer
Ġomit table
colo urful
Ġ"== ":
Ġ"!= ":
ĠTwit ter
Ġmsv ccompiler
Ġ'+ '));<
ĠPRO VIDED
ĠCalled ProcessError
ĠINT O
serializ ation
Ġdebu gging
ĠMA NUALL
ĠMa illon
ĠUN KNOWN
ĠGlob al
Ġgd riveTools
("{} /{}.
Ġmeg a
Ġmedi apipe
Ġbegin ning
Ġord re
ĠEasy Dict
Ġste alth
assert IsNotNone
ĠVAL UES
Ġyear s
Load s
ITER ATOR
Ġsuppri me
ĠUnique Validator
ĠRock Mode
Ġ333 3
SHA RED
PIX TYPE
ndic ation
Unique Together
shuff le
LOCAL TIME
Ġinterrup ted
ĠInstallation SubprocessError
creti zer
ĠGetAll Enumerators
DIST UTILS
ĠForce Sub
Double Dash
Metric Family
Tele PyroBot
Ġconsist ency
Manage ment
ãĤ¯ ãĥª
ĠChrist ian
Recipe Database
âĸĳâĸĳâĸĪâĸĪâĸĪâĸĪâĸĪâķĹ âĸĳâĸĳâĸĪâĸĪâĸĪâĸĪâĸĪâķĹ
ĠOpenAPI Renderer
ĠChatSend MediaForbiddenError
ĠSQLite DatabaseFeatures
âĢı /
ĠShort hand
STRUC TURE
ĠTemporary Directory
Ġ!!! ')<
Indent edHelpFormatter
ĠTEMPLATE S
ĠGeometryCollection Field
Runtime Warning
ĠPostGIS Introspection
('/') [
high light
+)_ (\
Macro Call
Ġekle me
analy tics
()<>]+| (\([^\
98765432 1
Ġintrodu ced
'(?<= \
MULTI LINE
RENDER ERS
Yå¹´næľĪ jæĹ¥
SERIALIZ ERS
ĠUserNotParticipant Error
"]+ )"')<
(... )`
({} ,
*(< =|
*)* )(.*)",<
*(?:\ .[
,]+ )\
.]* ([
>(.* )</
Are aField
Aler ts
AUT O
Access ors
Br ackets
BID I
BANN ED
CS RF
FL V
FP S
Fail ure
Fetch FromCacheMiddleware
Gre entea
Gal axy
HY BRID
HIGH EST
IALIZ ATION
JO INTS
KO I
Mix In
OVER RIDE
Old Renderer
PROT ECTED
SING LE
SPL IT
Sku zzy
Visit or
WOR K
WAR N
Wrapp ers
Word Unicode
ZSite map
].* )?$')<
]',' ',
aav n
aho o
bil inear
cri tical
cance l
duplic ates
fing erprint
fak edns
flus h
gte q
kar pathy
kit ti
ming w
nÄ ĥ
nRe po
natur al
pur ge
pix els
rator Base
saf edata
sDraw er
}): ([
¦ãĥ³ãĥ Īãģ®
«ãĤ ¦ãĥ³ãĥĪãģ®
ÄŁ il
ÐĽ Ð°Ð±Ð¾ÑĢ
æĮ ĩå®ļ
è¨Ń å®ļ
Ġist ek
Ġil lustrate
Ġ------ -<
Ġâľĺ <
ĠãĤ¢ãĤ «ãĤ¦ãĥ³ãĥĪãģ®
ĭãĤ ī
įãĥ¼ãĥ ł
ĸåħ¥éľĢè¦ģ å®īè£ħçļĦ
relat ive
represent ation
recor der
rempro fanity
Ġtal ib
atri m
stFramework Config
Ġafor emention
ĠaÃ§ Ä±n
altern ate
Ġpok ing
Ġplat forms
Ġpuny code
Ġcik ti
Ġcandid aites
Ġcud nn
Ġcateg ory
Ġcfgh andler
__[" _
Ġreject ing
Ġreprodu cing
arib lity
iters iblings
Ġfich ier
geograph y
Ġokun abilir
Ġinfinit e
Ġbure aucr
Ġbrows able
Ġ">= ":
Ġnul lable
>################# ###<
>################################# ###############################################<
Ġwall clock
Ġwsg iref
unsque eze
Ġtopar la
Ġilove pose
atePro fit
Ġisol ated
Ġ'** /'
getfilesystem encoding
ĠSER IALIZATION
ĠSign er
ĠSTS Connection
ĠSlug Converter
ĠSilent Reporter
ĠPAT H
ĠPOS IX
ĠPerson alInfo
absol utely
ĠCRE ATE
ĠCircular DependencyError
ĠNOR TH
ĠNorm ally
ĠDIST UTILS
ĠARG UMENTS
constru ctible
ĠIrreversible Error
ĠLung Dataset
ĠLipread ing
ATTR S
ATTRIBUT ES
setsock opt
trick s
Ġvuln ariblity
Ġultra ChatBot
Removed InDjango
ĠFlat Page
ĠFNF Error
ĠFarcaster Client
foreg round
Ġfiledial og
Ġprote in
Ġdeta iled
Ġdetermin ed
ĠMEN TION
ĠMPI IDataset
ĠMeg a
ĠMicro phone
ĠMAPP ING
ĠMasquerade Payload
ĠUTI LITY
ĠUNI X
ĠUkran ian
ĠGord on
ĠGreater Than
ĠGPTS cheduler
ĠgTT S
Ġgrays cale
Ġhistor ical
ĠBound Field
ĠBeck er
ĠBCPP Compiler
ĠNoneMetadata Error
Ġelimin ates
Ġuncondition ally
Ġunnecess arily
Ġ"""ðŁ İ
ĠOGRE n
Ġwithdraw n
prevent DoubleDash
ĠHistor ically
METHO D
scik it
ĠRecogn izer
Ġ155 5
Ġ1234 5
0025 1
ENAB LED
ĠInclude s
ĠInconsistent MigrationHistory
INITI AL
ĠVide os
ĠVeril en
Ġexha ust
collap se
Ġchang ing
Cookbo ok
0226 00
Ġ================== ===<
Ġpretti er
ĠDistributed Sampler
ĠDistInfo Distribution
ĠRich ard
ĠRight MarginFilter
ĠCommandAr gs
ĠCommandContext MixIn
ĠDjangoTe mplates
Ġpycoco tools
="([^ "]+)"')<
minGP T
ĠBaseConnection Handler
ĠBaseGeometry Widget
ĠBaseEntry Point
ledPil Image
UNIMP LEMENTED
SetConsole TitleW
ĠUserInstall ationInvalid
videop lay
ĠDistutilsModule Error
ĠDistutilsTemplate Error
ĠDistutilsByte CompileError
Ġlaunch ing
Respect To
LOCA LE
ĠOrderable AggMixin
ĠInvalidSession Key
ĠInvalidMigration Plan
ĠInvalidScheme Combination
ĠJohn son
ĠwriteEnum Report
ĠwriteList ScansReport
ĠwriteScan Report
ĠwriteCrawl Report
ĠExclus iveUnion
IDomain Enumerator
wordResetToken Generator
ĠGetPayload s
ĠGetAdd rsFrom
Ġpercent age
ĠDevSt udio
DIGE STS
GEOME TRY
ĠWeakKey Dictionary
ABIF LAGS
PREFER RED
ĠSSVE rr
CharSetPro bers
erticalBar sDrawer
ĠMappingProxy Type
ĠCachedDns Name
ĠXLN et
Ġautoclob ber
ãĥ¡ãĥ³ ãĤ·ãĥ
ĠAppRegistry NotReady
Ġqbit torrent
COMPATI BLE
Ġmoyen ne
ĠREQUI RES
ĠCompatJSON DecodeError
Threaded RevIP
ĠMethodMap per
usedAnchor Warning
ĠMigrationRec order
ĠMigrationOp timizer
ĠRequestsDependency Warning
ĠStrictRed is
ĠLinkCollect or
ĠMessageRep lyPayload
Recpie Collection
ĠKBinsDis cretizer
ĠPeriod icDataFrame
AlreadyInst alledCandidate
OrderWith RespectTo
ĠHttpResponseNotAl lowed
>=|<| >|!=|==
SUPPORT ED
ĠSubdomainEnumerator ReportInText
ĠMultiLine String
ĠPretty HelpFormatter
ĠMySQLO perations
DUPL ICATE
ĠBadZip file
ĠcostOn line
Ġconfirm ation
Ð°ÑĤ Ð¾ÑĢÐ½
ĠBackground Scheduler
ĠNotSupportedExtraction Archive
áŀ¶áŁ Ĩ
ĠRandomSequence Sampler
PLATLI BDIR
SingleByte CharSetProbers
SetupRequirements Error
AVAIL ABLE
Quoted ScalarString
tarbal ls
Ġwildcar ds
*\((.* )\)\
åĲĪå¹ ¶
ĠAsyncIOMot orClient
()<>]+\)))* \
è¯·æĭ ĸåħ¥éľĢè¦ģå®īè£ħçļĦ
ĠÑĢÐ°Ð± Ð¾ÑĤ
ĠdÃ©coup age
{}.{}{} '.
ĠSceneFlowDat set
Ä°sten en
ĠMANUALL Y
*(<=| >=|<|>|!=|==
ÐĽÐ°Ð±Ð¾ÑĢ Ð°ÑĤÐ¾ÑĢÐ½
Ġaforemention ed
Ġbureaucr acy
preventDoubleDash Comments
ĠGetAddrsFrom Hosts
ãĥ¡ãĥ³ãĤ·ãĥ §ãĥ³
Ġqbittorrent api
*(<=|>=|<|>|!=|== )\
