{"<s>":0,"<pad>":1,"</s>":2,"<unk>":3,"<mask>":4,"!":5,"\"":6,"#":7,"$":8,"%":9,"&":10,"'":11,"(":12,")":13,"*":14,"+":15,",":16,"-":17,".":18,"/":19,"0":20,"1":21,"2":22,"3":23,"4":24,"5":25,"6":26,"7":27,"8":28,"9":29,":":30,";":31,"<":32,"=":33,">":34,"?":35,"@":36,"A":37,"B":38,"C":39,"D":40,"E":41,"F":42,"G":43,"H":44,"I":45,"J":46,"K":47,"L":48,"M":49,"N":50,"O":51,"P":52,"Q":53,"R":54,"S":55,"T":56,"U":57,"V":58,"W":59,"X":60,"Y":61,"Z":62,"[":63,"\\":64,"]":65,"^":66,"_":67,"`":68,"a":69,"b":70,"c":71,"d":72,"e":73,"f":74,"g":75,"h":76,"i":77,"j":78,"k":79,"l":80,"m":81,"n":82,"o":83,"p":84,"q":85,"r":86,"s":87,"t":88,"u":89,"v":90,"w":91,"x":92,"y":93,"z":94,"{":95,"|":96,"}":97,"~":98,"¡":99,"¢":100,"£":101,"¤":102,"¥":103,"¦":104,"§":105,"¨":106,"©":107,"ª":108,"«":109,"¬":110,"®":111,"¯":112,"°":113,"±":114,"²":115,"³":116,"´":117,"µ":118,"¶":119,"·":120,"¸":121,"¹":122,"º":123,"»":124,"¼":125,"½":126,"¾":127,"¿":128,"À":129,"Á":130,"Â":131,"Ã":132,"Ä":133,"Å":134,"Æ":135,"Ç":136,"È":137,"É":138,"Ê":139,"Ë":140,"Ì":141,"Í":142,"Î":143,"Ï":144,"Ð":145,"Ñ":146,"Ò":147,"Ó":148,"Ô":149,"Õ":150,"Ö":151,"×":152,"Ø":153,"Ù":154,"Ú":155,"Û":156,"Ü":157,"Ý":158,"Þ":159,"ß":160,"à":161,"á":162,"â":163,"ã":164,"ä":165,"å":166,"æ":167,"ç":168,"è":169,"é":170,"ê":171,"ë":172,"ì":173,"í":174,"î":175,"ï":176,"ð":177,"ñ":178,"ò":179,"ó":180,"ô":181,"õ":182,"ö":183,"÷":184,"ø":185,"ù":186,"ú":187,"û":188,"ü":189,"ý":190,"þ":191,"ÿ":192,"Ā":193,"ā":194,"Ă":195,"ă":196,"Ą":197,"ą":198,"Ć":199,"ć":200,"Ĉ":201,"ĉ":202,"Ċ":203,"ċ":204,"Č":205,"č":206,"Ď":207,"ď":208,"Đ":209,"đ":210,"Ē":211,"ē":212,"Ĕ":213,"ĕ":214,"Ė":215,"ė":216,"Ę":217,"ę":218,"Ě":219,"ě":220,"Ĝ":221,"ĝ":222,"Ğ":223,"ğ":224,"Ġ":225,"ġ":226,"Ģ":227,"ģ":228,"Ĥ":229,"ĥ":230,"Ħ":231,"ħ":232,"Ĩ":233,"ĩ":234,"Ī":235,"ī":236,"Ĭ":237,"ĭ":238,"Į":239,"į":240,"İ":241,"ı":242,"Ĳ":243,"ĳ":244,"Ĵ":245,"ĵ":246,"Ķ":247,"ķ":248,"ĸ":249,"Ĺ":250,"ĺ":251,"Ļ":252,"ļ":253,"Ľ":254,"ľ":255,"Ŀ":256,"ŀ":257,"Ł":258,"ł":259,"Ń":260,"ĠĠ":261,"or":262,"ĠĠĠĠ":263,"ĠĠĠ":264,"in":265,"er":266,"><":267,"mp":268,"on":269,"ort":270,"se":271,"re":272,"imp":273,"import":274,"ro":275,"Ġt":276,"at":277,"st":278,"en":279,"de":280,"ĠĠĠĠĠĠĠ":281,"\"\"":282,"Ġa":283,"rom":284,"from":285,"le":286,"Ġimport":287,"ti":288,"Ġ=":289,":<":290,"he":291,"al":292,"Ġp":293,"Ġc":294,"an":295,")<":296,"me":297,"__":298,"ing":299,"Ġre":300,"ar":301,"it":302,"Ġf":303,"ss":304,"ur":305,"Ġd":306,"ge":307,"--":308,"Ġs":309,"):<":310,"sel":311,"self":312,"\"<":313,"is":314,"ut":315,"Ġo":316,"Ġthe":317,"tion":318,"ac":319,"Ġin":320,"def":321,"ion":322,"ic":323,"lo":324,"ls":325,"la":326,".<":327,"Ġb":328,"co":329,"Ġ\"":330,"ed":331,"Ġn":332,",<":333,">#":334,"\"\"\"<":335,"ist":336,"Ġw":337,"un":338,"es":339,"ame":340,"ex":341,"ent":342,"fi":343,"ĠT":344,"ec":345,"Ġm":346,"id":347,"ad":348,"ter":349,"yp":350,"go":351,"ce":352,"Ġdef":353,"urn":354,"ue":355,"turn":356,"ri":357,"th":358,"uti":359,"ror":360,"ase":361,"to":362,"Ġto":363,"----":364,"Ġco":365,"li":366,"Ġreturn":367,"ers":368,"Ġ(":369,"Ġself":370,"lass":371,"il":372,"up":373,"ot":374,"Ġi":375,"utils":376,"str":377,"Ġfor":378,"ate":379,"age":380,"jan":381,"jango":382,"Ġan":383,"Ġis":384,"rror":385,"Ġ'":386,"get":387,"ap":388,"Ġ-":389,"ĠS":390,"ĠĠĠĠĠĠĠĠĠĠĠ":391,"Ġas":392,"Error":393,"._":394,"lt":395,"ĠP":396,"ol":397,"class":398,"ab":399,"ip":400,"ĠC":401,"Ġ#":402,"ĠN":403,"ack":404,"and":405,"Ġ__":406,"ption":407,"ment":408,"el":409,"ht":410,"ode":411,"ation":412,"ĠD":413,"ile":414,"one":415,"ĠA":416,"int":417,"Ġth":418,"Ġof":419,"con":420,"ĠI":421,"as":422,"Ġdjango":423,"ĠL":424,"AT":425,"ser":426,"name":427,"ect":428,"set":429,"sp":430,"pro":431,"tr":432,"Ġand":433,"Ġ.":434,"gg":435,"OR":436,"\"\"\"":437,"ch":438,"Ġv":439,"end":440,"ersion":441,"Ġ_":442,"all":443,"ction":444,"Ġpip":445,"ith":446,"Ġ\"\"\"<":447,"ype":448,"()":449,"et":450,"od":451,"__(":452,"Ġif":453,"Ġr":454,"bu":455,"Ġ`":456,"Ġl":457,"Ġu":458,"Ġcon":459,"ure":460,"]<":461,"mm":462,"Re":463,"ĠF":464,"am":465,"~~":466,"--------":467,"Ġlo":468,"lib":469,"ke":470,"Ġ<":471,"ject":472,"tern":473,"iz":474,"que":475,"for":476,"ub":477,"ext":478,"tp":479,"ma":480,"Ġfrom":481,"Ġfile":482,"ath":483,"Ġpro":484,"ata":485,"ve":486,"Ġstr":487,"Ġde":488,"\",":489,"pt":490,"ĠM":491,"per":492,"ys":493,"ĠU":494,"Ġget":495,"mmand":496,"ire":497,"quest":498,"ver":499,"fig":500,"te":501,"()<":502,"der":503,"qu":504,"yth":505,"ĠG":506,"http":507,"put":508,"Ġg":509,"Ġdist":510,"Ġh":511,"ai":512,"ck":513,"um":514,"init":515,"ul":516,"roid":517,"ltroid":518,"(\"":519,"par":520,"ĠB":521,"ding":522,"âĸ":523,"sed":524,"ython":525,"exce":526,"ĠNone":527,"ore":528,"ternal":529,"',":530,"gs":531,"ORM":532,"Ġe":533,"Ġun":534,"FORM":535,"Ġ->":536,"url":537,">\"\"\"<":538,"Ġ\"\"\"":539,"Ġ2":540,"//":541,"icen":542,"Ġ[":543,"Ġos":544,"FORMAT":545,"Ġme":546,"\",<":547,"ig":548,"internal":549,"ly":550,"rint":551,"bject":552,"ĠO":553,"Ġ*":554,"ict":555,"Ġbe":556,"able":557,"://":558,"ache":559,"Ġit":560,"Ġset":561,"ct":562,"his":563,"ssage":564,"py":565,"ult":566,"Ġnot":567,"file":568,"Ġpar":569,"Ġwith":570,"pre":571,"app":572,"Ultroid":573,"rib":574,"Ġor":575,"ĠH":576,"val":577,"Ġwh":578,"ĠCo":579,"ener":580,"Ġby":581,"ols":582,"ptions":583,"In":584,"ME":585,"ĠE":586,"ther":587,"our":588,"ir":589,"mat":590,"eld":591,"https":592,"if":593,"ule":594,"proto":595,"ime":596,"ĠĠĠĠĠĠĠĠ":597,"ings":598,"gging":599,"\")<":600,"odule":601,"icense":602,"pack":603,"Ġst":604,"Ġdistutils":605,"sc":606,"ow":607,"ON":608,"out":609,"code":610,"tools":611,"ool":612,"('":613,"Con":614,".__":615,"version":616,"Ġtype":617,"com":618,"ta":619,"Ġsys":620,"SE":621,"Ġse":622,"low":623,"comp":624,"ize":625,"lection":626,"po":627,"'<":628,"endor":629,"Ġname":630,"ĠRe":631,"lement":632,"Ġthis":633,"Ġthat":634,"Ġ1":635,"00":636,".\"\"\"<":637,"ĠThis":638,"EN":639,"ay":640,"fer":641,"Ġon":642,"stall":643,"ator":644,"ated":645,"cont":646,"))<":647,"yping":648,"load":649,"lab":650,"ite":651,"Ġcomp":652,"ĠIn":653,"ix":654,"fo":655,"time":656,"Ġlogging":657,"arn":658,"IN":659,"args":660,"ute":661,"ass":662,"vendor":663,"quire":664,"are":665,"Ġal":666,"Ġprint":667,"ange":668,"unction":669,"uture":670,"ms":671,"`<":672,"Ġen":673,"âĸĪ":674,"path":675,"ew":676,"buf":677,"ĠV":678,"us":679,"error":680,"~~~~":681,"rue":682,"Ġab":683,"gger":684,"cs":685,"iv":686,"Ġy":687,"ield":688,"lit":689,"og":690,">â":691,"Ġint":692,"sol":693,"Ġ:":694,"Ġte":695,"port":696,"alse":697,"----------------":698,"ag":699,"Ġgo":700,"ĠPython":701,"ok":702,"nt":703,"Ġval":704,"atab":705,"Ġsh":706,"atabase":707,"Ġ+":708,"ere":709,"ĠThe":710,"ght":711,"che":712,"Ġ0":713,"Ġcol":714,"key":715,"')<":716,"db":717,"im":718,"Ġex":719,"*-":720,"Ġtyping":721,"Ġ-*-":722,"future":723,"Ġma":724,"stan":725,"ogle":726,"ATE":727,"ory":728,"text":729,"Ġcode":730,"mb":731,"base":732,"Ġso":733,"ace":734,"right":735,"CH":736,"TI":737,"try":738,"son":739,"Ġobject":740,"except":741,"ĠW":742,"Ġurl":743,"ptional":744,"ild":745,"Ġgoogle":746,"input":747,"ault":748,"Ġpass":749,"Ġproto":750,"Ġare":751,"mode":752,"Ģ¢":753,"Ġ{":754,"col":755,"ĠLicense":756,"CK":757,"utf":758,"Ġmodule":759,"vi":760,"ind":761,"json":762,"mpl":763,"und":764,"protobuf":765,"Ġother":766,"Ex":767,"Ġrequest":768,"eam":769,"eamUltroid":770,"read":771,"parse":772,"None":773,"do":774,"act":775,"ree":776,"ypes":777,"IC":778,"dist":779,"pec":780,"Ġpack":781,"DATE":782,"Ġhttps":783,"Ġtime":784,"Ġlist":785,"Ġch":786,"Ġbu":787,"res":788,"form":789,"Ġdate":790,"uple":791,"``":792,"core":793,"mo":794,"Co":795,"02":796,"gith":797,"config":798,"github":799,"scri":800,"Ġcollection":801,"ER":802,"Ġhas":803,">__":804,"ml":805,"Ġ`{":806,"pp":807,"ts":808,"OT":809,"Lo":810,"RE":811,"ection":812,"ifi":813,"Ġtr":814,"else":815,"ĠGener":816,"lable":817,"Ġ@":818,"Ġdo":819,"Ġuse":820,"pyright":821,"ial":822,"onse":823,">âĢ¢":824,"Ġcollections":825,"Ġar":826,"quirement":827,"wor":828,"info":829,"Ġ==":830,">#<":831,"head":832,"ary":833,"lient":834,"command":835,"CHE":836,"data":837,"ffer":838,"Ġser":839,"coding":840,"Ġrange":841,"Ġmessage":842,"ING":843,"pen":844,"ĠY":845,"thod":846,"iler":847,"())<":848,"\")":849,"IT":850,"lic":851,"rep":852,"ST":853,"ource":854,"date":855,"rap":856,"ans":857,"##":858,"YP":859,"ENSE":860,"ICENSE":861,"main":862,"valid":863,"TIME":864,"TT":865,"sy":866,"Ġat":867,"Ġnp":868,"Ġ``":869,"solute":870,"Ġpackage":871,"uth":872,"uptools":873,"ine":874,"Ġad":875,"message":876,"ĠList":877,"exceptions":878,"unc":879,"ĠSe":880,"ĠImp":881,"==":882,"Ġbase":883,"di":884,"Ġ(<":885,"ĠOptional":886,"Ġabsolute":887,"lob":888,"request":889,"irect":890,"âĸĪâĸĪ":891,"ĠĠĠĠĠĠĠĠĠĠĠĠĠĠĠ":892,"Ġsup":893,"errors":894,"ww":895,"ssion":896,"cess":897,"Ġunder":898,"TTP":899,"em":900,"user":901,"Ġbool":902,"âķ":903,"Ġwe":904,"ĠAn":905,"\":":906,"Ġcoding":907,"uld":908,"Ġprotocol":909,"len":910,"ĠTrue":911,"contrib":912,"atch":913,"util":914,"ces":915,"ses":916,"heck":917,"Ġcan":918,"Type":919,"ive":920,"Ġro":921,"Ġutf":922,"Ġrai":923,"ĠUn":924,"list":925,"ĠFalse":926,"TH":927,"Version":928,"ribu":929,"ribution":930,"Ġx":931,"Ġpre":932,"ĠDist":933,"bo":934,"kw":935,"ĠR":936,"pecifi":937,"(<":938,"Ġsy":939,"tings":940,"Ġelse":941,"ception":942,">)<":943,"ould":944,"ĠCommand":945,"tain":946,"object":947,"back":948,"Ġ%":949,"ref":950,"Ġpath":951,"script":952,"om":953,"ens":954,"Ġformat":955,"Ġmode":956,"Field":957,"os":958,"Ġwhen":959,"ĠCopyright":960,"Config":961,"TeamUltroid":962,"lat":963,"Ġ3":964,"ision":965,"ters":966,"ĠDjango":967,"arning":968,"ializ":969,"function":970,"ded":971,"Ġpy":972,"Ġclass":973,"mail":974,"=\"":975,"ib":976,"min":977,"ust":978,"ĠImport":979,"nection":980,"ou":981,"map":982,"env":983,"icode":984,"las":985,"Ġnum":986,"SH":987,"ler":988,"types":989,"kwargs":990,"size":991,"split":992,"bj":993,"lu":994,"fix":995,"ations":996,"CHECK":997,"ci":998,"ql":999,"ink":1000,"Ġ..":1001,"Ġus":1002,"ĠBase":1003,"'s":1004,"DA":1005,"PI":1006,"}<":1007,"orch":1008,"lease":1009,"Ġread":1010,"SS":1011,"Ġjson":1012,"Base":1013,"dir":1014,"trib":1015,"ump":1016,"models":1017,"type":1018,"ill":1019,"Ġraise":1020,"ĠImportError":1021,"ound":1022,"Ġfunction":1023,"Ġdefault":1024,"sponse":1025,"Ġcompiler":1026,"Ġvalue":1027,"django":1028,"().":1029,"mplate":1030,"pecifier":1031,"atus":1032,"ity":1033,"Ġuser":1034,"Ġsetuptools":1035,"own":1036,">`<":1037,"Ġup":1038,"Ġres":1039,"Ġdata":1040,"stance":1041,"!<":1042,"database":1043,"num":1044,"ty":1045,"ument":1046,"Ġversion":1047,"Ġshould":1048,"01":1049,"ðĿ":1050,"ates":1051,"hel":1052,"Ġused":1053,"Logger":1054,"],":1055,"kg":1056,"print":1057,"Ġ|":1058,"Ġdiv":1059,"Ġall":1060,"():<":1061,">\"\"\"":1062,"St":1063,"uct":1064,"ĠNOT":1065,"ORT":1066,"Ġapp":1067,"Ġcheck":1068,"Ġnode":1069,">>":1070,"af":1071,"Exception":1072,"ails":1073,"Ġ-*-<":1074,"Ġimp":1075,"led":1076,"rite":1077,"install":1078,"adata":1079,"Ġstring":1080,"Ġdivision":1081,"ra":1082,"Ġ\\":1083,"reate":1084,"Ġtorch":1085,"__)<":1086,"ĠDO":1087,"Ġ**":1088,"AR":1089,"vai":1090,"package":1091,"Ġsee":1092,"lasses":1093,"vailable":1094,"Ġ)<":1095,"Ġdatetime":1096,").":1097,"Dict":1098,"Ġurllib":1099,"CO":1100,"cache":1101,"ds":1102,"options":1103,"ues":1104,"lete":1105,"Ġcache":1106,"Ġconfig":1107,"work":1108,"headers":1109,"ĠSee":1110,"DE":1111,"FI":1112,"Ġno":1113,"ures":1114,"LE":1115,"of":1116,"dex":1117,"ĠCon":1118,"Ġroot":1119,"scriptor":1120,"eg":1121,"Ġiter":1122,"..":1123,"ined":1124,"iter":1125,"Ġbuffer":1126,"SD":1127,"UN":1128,"amp":1129,"ep":1130,"Ġz":1131,"Set":1132,"])<":1133,"Ġkey":1134,"build":1135,"ĠVersion":1136,"ream":1137,"roup":1138,"alue":1139,"urre":1140,"igr":1141,"cal":1142,"rame":1143,"mbol":1144,"DIT":1145,"MON":1146,"auth":1147,"Ġk":1148,"ĠLICENSE":1149,"Ġpart":1150,"ĠEDIT":1151,"DAY":1152,"string":1153,"ĠHTTP":1154,"ources":1155,"~~~~~~~~":1156,"ĠGenerated":1157,"MONTH":1158,"The":1159,"by":1160,"ally":1161,"ave":1162,"eat":1163,"ery":1164,"ĠTuple":1165,"Ġdet":1166,"ĠUser":1167,"append":1168,"ĠAny":1169,"'t":1170,"instance":1171,"Ġsub":1172,"Ġne":1173,"perator":1174,"Ġunicode":1175,"True":1176,"Warning":1177,"ĠIter":1178,"Ġlog":1179,"dict":1180,"ich":1181,"Ġrun":1182,"test":1183,"Ġ[<":1184,"gr":1185,"iti":1186,"attr":1187,"als":1188,"Ġsource":1189,"Ġ\"__":1190,"iew":1191,"Ġwill":1192,"unt":1193,"abc":1194,"mov":1195,"ual":1196,"ware":1197,"DATETIME":1198,"Ġimplement":1199,"De":1200,"ice":1201,"SHORT":1202,"urrent":1203,"',<":1204,"Imp":1205,"nd":1206,"Ġfil":1207,"Ġout":1208,"getLogger":1209,"apping":1210,"vide":1211,"='":1212,"False":1213,"finit":1214,"xy":1215,"stem":1216,"Ġpo":1217,"art":1218,"Ġsettings":1219,"alled":1220,"ark":1221,"like":1222,"compat":1223,"compile":1224,"(__":1225,"202":1226,"AL":1227,"ast":1228,"Ġcore":1229,"idate":1230,"Ġmethod":1231,"point":1232,"iven":1233,"--------------------------------":1234,"YPE":1235,"finity":1236,">_":1237,"Time":1238,"cation":1239,"ĠBSD":1240,"Ġ[]<":1241,"value":1242,"Ġhash":1243,"ĠDistutils":1244,"alize":1245,"Ġclasses":1246,"field":1247,"add":1248,"aging":1249,"irectory":1250,"leases":1251,"ber":1252,"Ġinput":1253,"logger":1254,"ĠNot":1255,"ĠDict":1256,"spec":1257,"format":1258,"Ġdetails":1259,"ublic":1260,"docs":1261,"Ġtry":1262,"ializer":1263,"Ġla":1264,"Ġtext":1265,"Ġwarn":1266,"stract":1267,"),":1268,"Un":1269,"ken":1270,"python":1271,"heel":1272,"Ġfunc":1273,"Ġim":1274,"process":1275,"iron":1276,"Ġtest":1277,"Command":1278,"rp":1279,"ari":1280,"Ġdis":1281,"max":1282,"ign":1283,"Ġ*<":1284,"umpy":1285,"Bot":1286,"Par":1287,"This":1288,"tin":1289,"Ġisinstance":1290,"ight":1291,"prese":1292,"resources":1293,"tes":1294,"xt":1295,"Ġcv":1296,"Ġcor":1297,"ash":1298,"Ġcontext":1299,"Ġsome":1300,"Ġarg":1301,"latform":1302,"NU":1303,"NING":1304,"gin":1305,"ray":1306,"sh":1307,"req":1308,"ĠSet":1309,"keys":1310,"image":1311,"64":1312,"LS":1313,"module":1314,"ner":1315,"Ġj":1316,"ence":1317,"__\",<":1318,"Ġnumpy":1319,"html":1320,"Ġ202":1321,"icensed":1322,"Ġparse":1323,"use":1324,"Ġass":1325,"ant":1326,"arget":1327,"Ġsc":1328,"pos":1329,"YPY":1330,"orm":1331,"Ġresponse":1332,"ĠReturn":1333,"Implement":1334,"ole":1335,"api":1336,"Ġcontain":1337,"ĠMYPY":1338,"Ġonly":1339,"Ġyou":1340,"www":1341,"Ġresult":1342,"EP":1343,"FF":1344,"ION":1345,"NA":1346,"six":1347,"tadata":1348,"ress":1349,"encoding":1350,"ard":1351,"Ġinstall":1352,"idd":1353,"ulti":1354,"Ġrequests":1355,"Ġserver":1356,"Client":1357,"Le":1358,"Res":1359,"Ġ/":1360,"Ġexcept":1361,"rol":1362,"Ġopen":1363,"acy":1364,"packaging":1365,"packages":1366,"ample":1367,"gist":1368,"ock":1369,"obj":1370,"sg":1371,"Ġle":1372,"ick":1373,"Ġgiven":1374,"Ġtemp":1375,"ramework":1376,"Ġwarnings":1377,"present":1378,"ia":1379,"red":1380,"Ġpr":1381,"ansp":1382,"fil":1383,"Ġwhich":1384,"ixin":1385,"####":1386,"eatures":1387,"\"]<":1388,"Gener":1389,"][":1390,"blob":1391,"lan":1392,"ne":1393,"op":1394,"utable":1395,"Ġcommand":1396,"andidate":1397,"param":1398,"âĸĳ":1399,"lowed":1400,"Ġencoding":1401,"ĠUnion":1402,"ansport":1403,">.<":1404,"NO":1405,"ome":1406,"erals":1407,"project":1408,"perty":1409,"literals":1410,"Ġsupport":1411,"Not":1412,"RL":1413,"iss":1414,"sub":1415,"Ġsame":1416,"Ġio":1417,"check":1418,"ĠGeneral":1419,"reply":1420,"egg":1421,"ost":1422,"tent":1423,"org":1424,"ends":1425,"Ġstrings":1426,"ereleases":1427,"Ġsuper":1428,"ain":1429,"man":1430,"wa":1431,"Ġter":1432,"lock":1433,"Ġany":1434,"ĠSt":1435,"ĠUltroid":1436,"dered":1437,"prefix":1438,"ĠĠĠĠĠĠĠĠĠĠĠĠĠĠĠĠ":1439,"':":1440,"),<":1441,"En":1442,"ak":1443,"ide":1444,"label":1445,"raw":1446,"2022":1447,"LO":1448,"Name":1449,"UT":1450,"Value":1451,"other":1452,"dev":1453,"method":1454,"Ġsql":1455,"upport":1456,"property":1457,"LICENSE":1458,"Ġ><":1459,"Ġfol":1460,"ssl":1461,"ĠPublic":1462,"query":1463,"ĠOr":1464,"Ġfunctools":1465,"rpc":1466,"/>.<":1467,"AN":1468,"Ke":1469,"])":1470,"Ġ5":1471,"ĠPLe":1472,"ĠAffer":1473,"trans":1474,"ĠGNU":1475,"stants":1476,"rapper":1477,"ĠUserBot":1478,"Ġcorre":1479,"Ġ2021":1480,"ĠPLease":1481,"ĠAffero":1482,"([":1483,"RUN":1484,"[:":1485,"gis":1486,"ns":1487,"inder":1488,"enti":1489,"allable":1490,"Ġback":1491,"ĠTeamUltroid":1492,"Ġneed":1493,"RUNNING":1494,"12":1495,"framework":1496,"pache":1497,"ľĺ":1498,"Ġsp":1499,"andler":1500,"Ġlicense":1501,"mplates":1502,"requests":1503,"WE":1504,"client":1505,"dis":1506,"ors":1507,"arg":1508,"Ġinter":1509,"defined":1510,"ĠTo":1511,"Ġcomplete":1512,"afe":1513,"Ch":1514,"ise":1515,"ative":1516,"itory":1517,"ride":1518,"buil":1519,"Ġlen":1520,"ĠInvalid":1521,"quirements":1522,"Ġmodel":1523,"oft":1524,"pository":1525,".\"<":1526,"DO":1527,"Pro":1528,"Ġcurrent":1529,"output":1530,">âľĺ":1531,"djangoproject":1532,":`":1533,"AD":1534,"EX":1535,"File":1536,"jo":1537,"mi":1538,"Ġerror":1539,"Ġrepository":1540,"arch":1541,"default":1542,"ĠApache":1543,"cheme":1544,"helper":1545,"gister":1546,"]:<":1547,"ĠĠĠĠĠ":1548,"__,<":1549,"ader":1550,"Ġchar":1551,"Ġsyn":1552,"CHECKING":1553,"txt":1554,"zy":1555,"ĠJ":1556,"Ġpkg":1557,"Ġrepresent":1558,"uted":1559,"lay":1560,"ĠAvailable":1561,"asy":1562,"tax":1563,"ĠInstall":1564,"ĠCommands":1565,"40":1566,"cre":1567,"tle":1568,"Ġfield":1569,"Ġnew":1570,"Ġwrite":1571,"spon":1572,"Ġfiles":1573,"Ġ['":1574,"model":1575,"Ġadd":1576,"lugin":1577,"SSL":1578,"!=":1579,"32":1580,"line":1581,"ponse":1582,"encode":1583,"Ġrest":1584,"Ġmax":1585,"gram":1586,"10":1587,"Code":1588,"HTTP":1589,"Mixin":1590,"cli":1591,"rary":1592,"ices":1593,"Ġbot":1594,"Ġmsg":1595,"Ġparser":1596,"ributed":1597,"bose":1598,"Ġterms":1599,"Key":1600,"clu":1601,"func":1602,"su":1603,"Ġ>>":1604,"uto":1605,"Ġoperator":1606,"logging":1607,"Ġmatch":1608,"lif":1609,"Ġglob":1610,"ull":1611,"urllib":1612,"Info":1613,"ĠEx":1614,"Ġbuild":1615,"repr":1616,"âķĲ":1617,"Ġusing":1618,"iddle":1619,"Ġfollow":1620,"))":1621,"ID":1622,"OS":1623,"gn":1624,"mment":1625,"inser":1626,"onic":1627,"status":1628,"Ġac":1629,"Ġcreate":1630,"Ġdual":1631,"Ġmust":1632,"struct":1633,"andom":1634,"Ġlicensed":1635,"Request":1636,"Requirement":1637,"Ġgener":1638,"Ġ*_":1639,"sche":1640,"Ġvalid":1641,"iddleware":1642,">@":1643,"An":1644,"IO":1645,"OF":1646,"YE":1647,"with":1648,"Ġid":1649,"Ġone":1650,"log":1651,"Ġthread":1652,"temp":1653,"Infinity":1654,"move":1655,"word":1656,"header":1657,"Ġsyntax":1658,"/#":1659,">]<":1660,"RST":1661,"Tree":1662,"ff":1663,"ie":1664,"ll":1665,"pat":1666,"wh":1667,"Ġplugin":1668,"isc":1669,"ĠTYPE":1670,"ĠPEP":1671,"space":1672,"Ġdescriptor":1673,"templates":1674,"Ġemail":1675,"Ġ[\"":1676,"Ġserv":1677,"Ġitertools":1678,"Ġimage":1679,"cur":1680,"face":1681,"license":1682,"pkg":1683,"sys":1684,"we":1685,"Ġap":1686,"gest":1687,"Ġinst":1688,"constants":1689,"vert":1690,"Ġhave":1691,"match":1692,"Ġ+=":1693,"system":1694,"Ġnumber":1695,"tribut":1696,"ownload":1697,"ĠIterator":1698,"Ġcorrespon":1699,"builtin":1700,"Ġ>>>":1701,"']<":1702,"Cache":1703,"RI":1704,"['":1705,"da":1706,"ert":1707,"Ġcall":1708,"Ġop":1709,"ĠGet":1710,"Ġ{}<":1711,"tribute":1712,"AS":1713,"Dist":1714,"NT":1715,"open":1716,"vel":1717,"tring":1718,"()))<":1719,"Ġconnection":1720,"parser":1721,"Ġ201":1722,"Ġmake":1723,"Ġobjects":1724,"moved":1725,"Generated":1726,"ĠOrdered":1727,"Data":1728,"Mode":1729,"cument":1730,"sv":1731,"Ġ._":1732,"Ġerrors":1733,"Ġlike":1734,"inal":1735,"ename":1736,"Ġper":1737,"Ġref":1738,"uration":1739,"Ġsu":1740,"ach":1741,"ĠTe":1742,"aml":1743,"Ġdistributed":1744,"Ġyour":1745,"ĠNotImplement":1746,"Ġcorresponding":1747,"builtins":1748,"ĠNotImplemented":1749,"56":1750,"ML":1751,"PC":1752,"Se":1753,"lation":1754,"link":1755,"md":1756,"misc":1757,"nc":1758,"run":1759,"typing":1760,"descriptor":1761,"Ġpool":1762,"Ġ-<":1763,"ĠDe":1764,"ask":1765,"settings":1766,"ĠFile":1767,"Ġgrpc":1768,"Ġitem":1769,"ific":1770,"okup":1771,"ible":1772,"ariable":1773,"NAME":1774,"EK":1775,"RPC":1776,"SION":1777,"alk":1778,"Ġsix":1779,"Ġwhe":1780,"peration":1781,"scription":1782,"symbol":1783,"Ġfunctions":1784,"WEEK":1785,"Ġservices":1786,"av":1787,"ry":1788,"ryp":1789,"imports":1790,"title":1791,"Ġpython":1792,"array":1793,"Ġind":1794,"Ġinto":1795,"ilter":1796,"conf":1797,"verse":1798,"ĠgRPC":1799,"protoc":1800,"Ġprotobuf":1801,"Comp":1802,"Ġ@@":1803,"âĸĪâĸĪâķ":1804,"Ġsymbol":1805,"reflection":1806,"insertion":1807,"Ġreflection":1808,"For":1809,"OCK":1810,"[\"":1811,"not":1812,"support":1813,"Ġhttp":1814,"Ġssl":1815,"Ġfound":1816,"Ġobj":1817,"ĠType":1818,"ĠSpecifier":1819,"ĠAPI":1820,"cket":1821,"MENT":1822,"ĠRequest":1823,"context":1824,"Ġextr":1825,"igration":1826,"ironment":1827,"Ġwhether":1828,"DI":1829,"GE":1830,"ax":1831,"bin":1832,"cor":1833,"tuple":1834,"ution":1835,"ĠĠĠĠĠĠ":1836,"Ġtw":1837,"gex":1838,"Ġbo":1839,"ĠPro":1840,"aised":1841,"ayload":1842,"items":1843,"Ġcodecs":1844,"Ġsocket":1845,"backends":1846,"')":1847,"CU":1848,"Database":1849,"Node":1850,"Tr":1851,"node":1852,"nect":1853,"oid":1854,"Ġ>":1855,"Ġ\"<":1856,"Ġheaders":1857,"atase":1858,"Ġindex":1859,"abstract":1860,"Ġver":1861,"Ġcontent":1862,"ĠGE":1863,"Ġhere":1864,"compare":1865,"\"),<":1866,"lication":1867,"ension":1868,"help":1869,"COL":1870,"igrations":1871,"Ġprereleases":1872,"join":1873,").<":1874,"Ser":1875,"hash":1876,"decode":1877,"ance":1878,"icate":1879,"Ġ(\"":1880,"ility":1881,"spect":1882,"ĠFor":1883,"ĠURL":1884,"Ġgroup":1885,"Ġexp":1886,"view":1887,"cii":1888,"Ġzip":1889,"Ġimplementation":1890,"ĠReturns":1891,"Python":1892,"To":1893,"View":1894,"io":1895,"Ġ4":1896,"count":1897,"unter":1898,"extern":1899,"ape":1900,"Ġorig":1901,"Ġwhile":1902,"lower":1903,"Ġallowed":1904,"ĠWe":1905,"dition":1906,"+=":1907,"AB":1908,"bool":1909,"group":1910,"tim":1911,"Ġscheme":1912,"Ġmap":1913,"ized":1914,"Ġstruct":1915,"Ġens":1916,"Ġdoes":1917,"ssions":1918,"Ġmodels":1919,"Timeout":1920,"olean":1921,"ickle":1922,"Ġfollowing":1923,"GI":1924,"IP":1925,"ies":1926,"Ġ:<":1927,"Ġtypes":1928,"ties":1929,"Ġcase":1930,"Ġrep":1931,"Ġresol":1932,"acters":1933,"lazy":1934,"Ġman":1935,"Ġtoken":1936,"Ġ('":1937,"ĠCallable":1938,"ĠNO":1939,"perations":1940,"exception":1941,"files":1942,"lements":1943,"okie":1944,"Ġmain":1945,"Ġchat":1946,"username":1947,"ĠNotImplementedError":1948,"OCKS":1949,"16":1950,"33":1951,"Enum":1952,"Raised":1953,"SON":1954,"]*":1955,"ale":1956,"els":1957,"lace":1958,"nn":1959,"vent":1960,"Ġhe":1961,"Ġ--":1962,"response":1963,"Ġ=<":1964,"Ġ()":1965,"enden":1966,"etree":1967,"Ġdep":1968,"template":1969,"Ġunpack":1970,"Ġ{<":1971,"====":1972,"Ġupload":1973,"Ġcontextlib":1974,"ValueError":1975,"onicalize":1976,"alker":1977,"''":1978,"QA":1979,"ROR":1980,"UL":1981,"ake":1982,"gress":1983,"no":1984,"play":1985,"sql":1986,"safe":1987,"Ġ]<":1988,"Ġ!=":1989,"Ġover":1990,"ript":1991,"ĠLo":1992,"char":1993,"Ġprovide":1994,"quence":1995,"apps":1996,"arent":1997,"chema":1998,"result":1999,"raph":2000,"Ġpackages":2001,"Ġprefix":2002,"ĠIterable":2003,"YEAR":2004,"ĠOrderedDict":2005,")):<":2006,"List":2007,"ause":2008,"dot":2009,"ead":2010,"nel":2011,"rit":2012,"ting":2013,"wheel":2014,"ating":2015,"atic":2016,"Ġwas":2017,"rie":2018,"Ġ'/":2019,"ĠIf":2020,"precation":2021,"Ġencode":2022,"distutils":2023,"ĠDistribution":2024,"moves":2025,"lanes":2026,"ometry":2027,"ĠNOQA":2028,"((":2029,"17":2030,"ROT":2031,"day":2032,"gth":2033,"mit":2034,"yaml":2035,"ong":2036,"hes":2037,"Ġdif":2038,"coder":2039,"ationError":2040,"ager":2041,"Ġcoreapi":2042,"(*":2043,"Do":2044,"Mapping":2045,"PRE":2046,"]+":2047,"pyp":2048,"Ġctypes":2049,"uri":2050,"Ġspec":2051,"lags":2052,"lied":2053,"Ġign":2054,"ĠSS":2055,"ĠSOCKS":2056,"ĠData":2057,"extension":2058,"Ġhand":2059,"Ġelif":2060,"Ġmetadata":2061,"irst":2062,"distribution":2063,"dia":2064,"ializers":2065,"...":2066,"author":2067,"bytes":2068,"itive":2069,"Ġpoint":2070,"translation":2071,"Char":2072,"EXT":2073,"Ġtwo":2074,"abstractmethod":2075,"']":2076,"FA":2077,"how":2078,"rf":2079,"riter":2080,"uid":2081,"zone":2082,"Ġplatform":2083,"ingle":2084,"Ġdirectory":2085,"Ġspecifier":2086,"Ġmath":2087,"ĠPY":2088,"Ġconvert":2089,"izer":2090,"Ġgettext":2091,"Ġwithin":2092,"000":2093,"control":2094,"quires":2095,"Ġtrans":2096,"Model":2097,"ROTO":2098,"):":2099,"Get":2100,"Met":2101,"directory":2102,"sock":2103,"write":2104,"Ä±":2105,"erti":2106,"Ġtarget":2107,"Ġoptions":2108,"action":2109,"lot":2110,"loat":2111,"Ġwor":2112,"filen":2113,"idget":2114,"names":2115,"ĠCounter":2116,"egacy":2117,"Ġhashlib":2118,"filter":2119,"issing":2120,"âķĲâķĲ":2121,"Distribution":2122,"ataset":2123,"Ġensure":2124,"Ġignore":2125,"\".":2126,"CE":2127,"PY":2128,"can":2129,"email":2130,"find":2131,"planes":2132,"metadata":2133,"Ġdatabase":2134,"ĠPy":2135,"ĠDE":2136,"Ġrandom":2137,"bug":2138,"Ġproject":2139,"Ġits":2140,"msg":2141,"\").":2142,"Ġattr":2143,"functional":2144,"FIRST":2145,"Ġfilename":2146,"Ġassert":2147,"Codec":2148,"scheme":2149,"Any":2150,"Ġthreading":2151,"::<":2152,"Ar":2153,"VER":2154,"ail":2155,"bot":2156,"mark":2157,"ines":2158,"utput":2159,"icro":2160,"Ġbut":2161,"copyright":2162,"ĠPack":2163,"old":2164,"asic":2165,"Ġlink":2166,"library":2167,"ĠMutable":2168,"Ġgetattr":2169,"oken":2170,"ensor":2171,"egative":2172,"Ġoutput":2173,"Ġresults":2174,"Ġsqlparse":2175,"nsitive":2176,"ROTOCOL":2177,"filename":2178,"EL":2179,"RA":2180,"cls":2181,"dd":2182,"ems":2183,"hat":2184,"source":2185,"ted":2186,"Ġexceptions":2187,"Ġhelp":2188,"sec":2189,"regex":2190,"rosp":2191,"Ġdict":2192,"lso":2193,"ĠTime":2194,"Ġcomment":2195,"ason":2196,"().__":2197,"Ġmedia":2198,"codecs":2199,"Ġshutil":2200,"Ġcanonicalize":2201,"Ġcached":2202,"rospection":2203,"':<":2204,"Found":2205,"du":2206,"dtuple":2207,"eq":2208,"kens":2209,"ph":2210,"trol":2211,"void":2212,"Ġ\"\"":2213,"inter":2214,"index":2215,"round":2216,"Ġfind":2217,"aces":2218,"Ġnn":2219,"Ġmore":2220,"ries":2221,"ote":2222,"ĠDo":2223,"ĠIt":2224,"Ġview":2225,"ĠMapping":2226,"âĸĴ":2227,"Ġitems":2228,"Ġwhere":2229,"Ġvalues":2230,"actory":2231,"Ġtimeout":2232,"ibility":2233,"Parser":2234,"Ġargparse":2235,"Response":2236,"clude":2237,"tributes":2238,"(?":2239,"CI":2240,"TYPE":2241,"ft":2242,"new":2243,"Ġexception":2244,"register":2245,"ĠPROTOCOL":2246,"setuptools":2247,"Ġ_<":2248,"Ġdescription":2249,"application":2250,"Ġstream":2251,"Ġyield":2252,"Ġtele":2253,"ustom":2254,"ormal":2255,"########":2256,"'''<":2257,"ULT":2258,"egacyVersion":2259,"'):<":2260,"API":2261,"Filter":2262,"Handler":2263,"Specifier":2264,"lue":2265,"nder":2266,"soft":2267,"ten":2268,"tab":2269,"zen":2270,"ĠQ":2271,"sensitive":2272,"root":2273,"Ġaction":2274,"Ġauth":2275,"Ġimportlib":2276,"Ġpas":2277,"Ġthese":2278,"lose":2279,"mmon":2280,"Ġproxy":2281,"part":2282,"ĠĠĠĠĠĠĠĠĠĠ":2283,"post":2284,"lementTree":2285,"ĠValue":2286,"Ġtemplate":2287,"img":2288,"ĠRes":2289,"supported":2290,"Transport":2291,"Ġverbose":2292,"\"):<":2293,",\"":2294,"BU":2295,"au":2296,"cy":2297,"ful":2298,"ling":2299,"nown":2300,"site":2301,"wise":2302,"Ġquery":2303,"rozen":2304,"Ġtree":2305,"alid":2306,"Ġrefer":2307,"Ġrequirements":2308,"arse":2309,"Ġfuture":2310,"Ġfirst":2311,"Ġsort":2312,"edit":2313,"ORS":2314,"fore":2315,"sedVersion":2316,"Install":2317,"ators":2318,"content":2319,"Ġenum":2320,"formation":2321,"Ġxml":2322,"Ġscript":2323,"Ġtempfile":2324,"NotFound":2325,"Ġbackend":2326,"ĠInstallRequirement":2327,"Ġextract":2328,"Ġdiffer":2329,"ĠSSL":2330,"FAULT":2331,"\"]":2332,"Me":2333,"Te":2334,"ition":2335,"net":2336,"ose":2337,"oint":2338,"target":2339,"wrap":2340,"stream":2341,"lect":2342,"Ġsk":2343,"cop":2344,"ecause":2345,"Ġmulti":2346,"token":2347,"------":2348,"Ġcopy":2349,"ĠCache":2350,"ĠName":2351,"Ġcons":2352,"forms":2353,"qual":2354,"Ġsetup":2355,"Ġwithout":2356,"ify":2357,"Connection":2358,"tags":2359,"Ġcompat":2360,"quired":2361,"mbda":2362,"Ġargs":2363,"Ġusers":2364,"ðĿķ":2365,"Ġmethods":2366,"Ġargument":2367,"([^":2368,"crement":2369,"TimeoutError":2370,"egativeInfinity":2371,"\":<":2372,";<":2373,"TML":2374,"gt":2375,"mt":2376,"np":2377,"uame":2378,"vironment":2379,"wn":2380,"ĠX":2381,"Ġ--------------------------------":2382,"Ġkeys":2383,"row":2384,"eng":2385,"Ġavailable":2386,"Ġpd":2387,"Ġpos":2388,"Ġremoved":2389,"unk":2390,"Ġ'.":2391,"ĠDatabase":2392,"proxy":2393,"mmary":2394,"Ġload":2395,"keep":2396,"Ġ200":2397,"Invalid":2398,"mbed":2399,"indow":2400,"Status":2401,"Ġfilter":2402,"manage":2403,"oftware":2404,"Ġpassed":2405,"uamel":2406,".*":2407,"Id":2408,"Payload":2409,"TER":2410,"User":2411,"bstract":2412,"features":2413,"pass":2414,"qa":2415,"tac":2416,"ttp":2417,"orage":2418,"orig":2419,"requirements":2420,"det":2421,"Ġauto":2422,"Ġret":2423,"urls":2424,"Ġthem":2425,"Ġinvalid":2426,"esc":2427,"idx":2428,"cept":2429,"rip":2430,"upload":2431,"chat":2432,"Ġruamel":2433,"Ġparti":2434,"Ġstate":2435,"ĠInfinity":2436,"ERROR":2437,"ĠSequence":2438,"Ġappro":2439,"DIR":2440,"Ġzipfile":2441,"23":2442,"ASE":2443,"Case":2444,"Pool":2445,"cv":2446,"cul":2447,"host":2448,"pr":2449,"war":2450,"geos":2451,"Ġtheir":2452,"Ġmat":2453,"yped":2454,"ĠNegativeInfinity":2455,"chive":2456,"Report":2457,"--------------":2458,"queue":2459,"Control":2460,"pop":2461,"ched":2462,"vided":2463,"environ":2464,"ðĿļ":2465,"Ġnoqa":2466,"itial":2467,"----------------------------------------------":2468,"Ġtests":2469,"wait":2470,"Ġinstalled":2471,"ditional":2472,"Characters":2473,"icrosoft":2474,"secure":2475,"cremental":2476,"Ġ------------------------------------------------------------------------------":2477,"taclass":2478,"Ġ------------------------------------------------------------------------------<":2479,"033":2480,"27":2481,"BO":2482,"String":2483,"Text":2484,"`.<":2485,"block":2486,"eded":2487,"flags":2488,"tz":2489,"ãĥ":2490,"ĠZ":2491,"Ġend":2492,"Ġkeep":2493,"enum":2494,"dep":2495,"ang":2496,"Ġrequirement":2497,"arr":2498,"Ġdon":2499,"Ġbin":2500,"exec":2501,"ĠApp":2502,"ĠLegacyVersion":2503,"Ġvariable":2504,"Return":2505,"velo":2506,"Ġdistribution":2507,"ĠHttp":2508,"ĠEn":2509,"tag":2510,"Ġexist":2511,"Ġ{}":2512,"``.<":2513,"Ġattribute":2514,"Ġlast":2515,"Ġcontains":2516,"Result":2517,"ideo":2518,"[:,":2519,"âĸĪâĸĪâķĳ":2520,"ritten":2521,"Ġdifferent":2522,"TE":2523,"Token":2524,"eometry":2525,"gd":2526,"mon":2527,"mod":2528,"oci":2529,"Ġhtml":2530,"Ġheader":2531,"Ġalso":2532,"Ġpickle":2533,"ites":2534,"urs":2535,"Ġsize":2536,"iction":2537,"ĠTLS":2538,"apter":2539,"ĠSoftware":2540,"ĠNode":2541,"ĠAr":2542,"ascii":2543,"setup":2544,"Ġvendor":2545,"Ġdecode":2546,"uln":2547,"ĠĠĠĠĠĠĠĠĠĠĠĠĠĠĠĠĠĠĠ":2548,"Ġurlparse":2549,"CHEME":2550,"Ġkind":2551,"Ġassoci":2552,"iao":2553,"pattern":2554,"Ġboolean":2555,"CII":2556,"BUG":2557,"Ġassociated":2558,"QL":2559,"Walker":2560,"dump":2561,"ik":2562,"table":2563,"wrapper":2564,"xml":2565,"âĢ¢":2566,"Ġq":2567,"Ġent":2568,"inst":2569,"Ġtab":2570,"start":2571,"Ġfn":2572,"Ġ\"%":2573,"Ġwheel":2574,"Ġwant":2575,"Ġmyp":2576,"ider":2577,"lities":2578,"ected":2579,"Ġ<=":2580,"ything":2581,"Ġnamedtuple":2582,"imal":2583,"domain":2584,"Ġdocument":2585,"âĸĪâĸĪâĸĪâĸĪ":2586,"Ġweb":2587,"Ġupdate":2588,"COM":2589,"Ġsubprocess":2590,"fields":2591,"Ġinterface":2592,"async":2593,"Compiler":2594,"ĠGEOS":2595,"Serializer":2596,"Ġdependen":2597,"ertif":2598,"NotFoundError":2599,"Ġmypy":2600,"'.":2601,"256":2602,"IL":2603,"Module":2604,"Option":2605,"Operation":2606,"Var":2607,"cryp":2608,"mask":2609,"ous":2610,"oice":2611,"qd":2612,"{}":2613,"ĉĉ":2614,"Ġlibrary":2615,"ero":2616,"mpty":2617,"return":2618,"imple":2619,"Ġcalled":2620,"Ġdirect":2621,"Ġoption":2622,"Ġinspect":2623,"Ġinformation":2624,"ĠText":2625,"Ġmin":2626,"admin":2627,"connection":2628,"(),<":2629,"ured":2630,"Ġloss":2631,"Ġprovided":2632,"csv":2633,"commands":2634,"digest":2635,"Ġraised":2636,"box":2637,"cies":2638,"maxsize":2639,"ĠValueError":2640,"\"))<":2641,"At":2642,"Finder":2643,"Man":2644,"OK":2645,"TR":2646,"TLS":2647,"cle":2648,"create":2649,"cmd":2650,"graph":2651,"ias":2652,"ld":2653,"tree":2654,"zip":2655,"Ġâĸĳ":2656,"session":2657,"reen":2658,"Ġcsv":2659,"Ġreason":2660,"Ġcover":2661,"update":2662,"ĠCON":2663,"ĠNo":2664,"ĠAS":2665,"Ġthere":2666,"serializers":2667,"spaces":2668,"allback":2669,"perly":2670,"ĠBy":2671,"SER":2672,"compiler":2673,"Ġallow":2674,"oks":2675,"imum":2676,"Ġbuil":2677,"length":2678,"board":2679,"ĠpyUltroid":2680,"Ġimg":2681,"socks":2682,"VERSION":2683,"velop":2684,"gdal":2685,">~~~~~~~~":2686,"EAD":2687,"FO":2688,"HA":2689,"SI":2690,"SCHEME":2691,"UC":2692,"Wrapper":2693,"[-":2694,"current":2695,"fault":2696,"gment":2697,"ho":2698,"mage":2699,"migrations":2700,"pri":2701,"pip":2702,"the":2703,"ãĤ":2704,"ĠError":2705,"ored":2706,"allowed":2707,"Ġreq":2708,"Ġregister":2709,"Ġdi":2710,"Ġsingle":2711,"local":2712,"Ġbecause":2713,"Ġwrap":2714,"extr":2715,"ĠTr":2716,"Ġmay":2717,"Ġdefined":2718,"limit":2719,"ĠString":2720,"lta":2721,"ĠAl":2722,"ctions":2723,"ither":2724,"Ġlocal":2725,"Ġglue":2726,"Ġegg":2727,"values":2728,"Ġstart":2729,"pose":2730,"ENSION":2731,"``,":2732,"sya":2733,"ĠConfig":2734,"Ġlambda":2735,"issues":2736,"rawler":2737,"Ġrepresenting":2738,"HTTPError":2739,"Ġprovides":2740,"Metadata":2741,"ĠPyPI":2742,"ĠMutableMapping":2743,"indows":2744,"management":2745,"prereleases":2746,"25":2747,">-":2748,">`":2749,"Features":2750,"Factory":2751,"NI":2752,"RO":2753,"Up":2754,"].":2755,"bdist":2756,"flow":2757,"gh":2758,"king":2759,"err":2760,"rev":2761,"Ġtuple":2762,"std":2763,"tive":2764,"Ġcre":2765,"Ġcls":2766,"arts":2767,"Ġspecifi":2768,"uter":2769,"Ġmo":2770,"andard":2771,"Ġthan":2772,"(),":2773,"ĠFI":2774,"ams":2775,"Ġprogress":2776,"ĠBu":2777,"Ġequal":2778,"ĠOP":2779,"Ġorder":2780,"Ġsysconfig":2781,"ĠRequirement":2782,"resh":2783,"Ġdomain":2784,"replace":2785,"dio":2786,"Ġusage":2787,"Stream":2788,"ĠTemplate":2789,"Enumer":2790,"Ġoverride":2791,"escape":2792,"-.":2793,"98":2794,"Ad":2795,"Elements":2796,"Hel":2797,"KE":2798,"MA":2799,"OST":2800,"WN":2801,"ger":2802,"land":2803,"sign":2804,"ved":2805,"ont":2806,"onday":2807,"roperly":2808,"stamp":2809,"debug":2810,"Ġali":2811,"Ġcal":2812,"Ġcandidate":2813,"annel":2814,"metaclass":2815,"Ġreport":2816,"Ġmigrations":2817,"idth":2818,"Ġcount":2819,"ĠSer":2820,"contain":2821,"ĠLicensed":2822,"chor":2823,"Ġline":2824,"ĠUp":2825,"ĠBin":2826,"Ġbefore":2827,"ĠHTML":2828,"codeError":2829,"labels":2830,"Ġabs":2831,"Ġexec":2832,"ified":2833,"Ġbased":2834,"scripts":2835,"Configured":2836,"latlib":2837,"Ġresource":2838,"FIX":2839,"ndarray":2840,"Ġposs":2841,"Ġtextwrap":2842,"filters":2843,"subprocess":2844,"Ġspace":2845,"argument":2846,"ĠJSON":2847,"Ġfields":2848,"Ġglobal":2849,"curs":2850,"Ġ2012":2851,"Session":2852,"Ġdigest":2853,"roperlyConfigured":2854,")\"<":2855,").__":2856,"ES":2857,"aded":2858,"bit":2859,"gres":2860,"hen":2861,"middleware":2862,"now":2863,"patch":2864,"sk":2865,"sing":2866,"sur":2867,"ux":2868,"ï¼":2869,"Ġutils":2870,"ĠRE":2871,"Ġkwargs":2872,"resol":2873,"requires":2874,"ater":2875,"lex":2876,"allow":2877,"Ġcustom":2878,"Ġremove":2879,"Ġrender":2880,"Ġfloat":2881,"Ġoperations":2882,"lause":2883,"term":2884,"strict":2885,"Ġasy":2886,"ĠLib":2887,"serializer":2888,"tric":2889,"Ġvideo":2890,"tparse":2891,"ĠMonday":2892,"Ġelement":2893,"ĠComp":2894,"Ġstride":2895,"Ġsess":2896,"Ġsepar":2897,"ĠImproperlyConfigured":2898,"maps":2899,"DAL":2900,"eature":2901,"wagger":2902,"RIB":2903,"ĠTimeout":2904,"Ġfnmatch":2905,"KEY":2906,"11":2907,"100":2908,"99":2909,"CA":2910,"Clause":2911,"Object":2912,"Th":2913,"TRIB":2914,"URL":2915,"Writer":2916,"cu":2917,"case":2918,"ccess":2919,"fg":2920,"mory":2921,"multi":2922,"parent":2923,"range":2924,"uage":2925,"ãģ":2926,"Ġuti":2927,"Ġtensor":2928,"level":2929,"Ġpat":2930,"Ġcast":2931,"Ġred":2932,"Ġfeatures":2933,"Ġinstan":2934,"Ġ\",":2935,"Ġwarning":2936,"enter":2937,"Ġdefin":2938,"topt":2939,"Ġ'\\":2940,"conds":2941,"ĠIN":2942,"ender":2943,"ĠMe":2944,"Ġeither":2945,"Int":2946,"item":2947,"usr":2948,"Ġsha":2949,"ches":2950,"Ġmodules":2951,"readable":2952,"Loader":2953,"Ġpathlib":2954,"ðĿĴ":2955,"ĠConnection":2956,"specific":2957,"optim":2958,"Ġsupports":2959,"manager":2960,"akes":2961,"SSLv":2962,"summary":2963,"ĠException":2964,"structures":2965,"Ġsuch":2966,"views":2967,"wards":2968,"Ġspecified":2969,"TRIBUT":2970,"#!":2971,"**":2972,">'''<":2973,"Back":2974,"JSON":2975,"Middleware":2976,"`{":2977,"ags":2978,"ble":2979,"candidate":2980,"glob":2981,"known":2982,"lack":2983,"opt":2984,"operator":2985,"used":2986,"ye":2987,"Ġâĸ":2988,"only":2989,"reg":2990,"Ġtable":2991,"Ġtqd":2992,"strip":2993,"Ġag":2994,"Ġclient":2995,"Ġclose":2996,"__,":2997,"Ġdownload":2998,"Ġinstance":2999,"Ġbet":3000,"Ġ\"\\":3001,"Ġway":3002,"unpack":3003,"rix":3004,"Ġform":3005,"Ġforce":3006,"ĠSu":3007,"ĠCheck":3008,"ĠID":3009,"uble":3010,"Ġprocess":3011,"Ġprodu":3012,"very":3013,"Ġbytes":3014,"Ġstatus":3015,"Ġsession":3016,"Ġ10":3017,"ferred":3018,"Ġabout":3019,"TION":3020,"Ġchange":3021,"Ġarr":3022,"datetime":3023,"messages":3024,"Ġweight":3025,"ĠUnpack":3026,"dirs":3027,"Ġapps":3028,"Ġfilters":3029,"video":3030,"ALL":3031,"Parse":3032,"Ġlevel":3033,"ANG":3034,"Ġ512":3035,"Ġ517":3036,"Ġinstead":3037,"Ġoptparse":3038,"Ġresolution":3039,"results":3040,"EXTENSION":3041,"CESS":3042,"Ġcompatibility":3043,"Ġdependencies":3044,"HASH":3045,"UCCESS":3046,"Ġwraps":3047,"Ġtqdm":3048,"({":3049,"(.*":3050,"201":3051,"50":3052,">}<":3053,"Col":3054,"MO":3055,"Missing":3056,"Num":3057,"Optional":3058,"Operator":3059,"UTH":3060,"batch":3061,"fter":3062,"ian":3063,"jor":3064,"lines":3065,"mac":3066,"nci":3067,"optional":3068,"rst":3069,"slow":3070,"~<":3071,"Ġ)":3072,"Ġ6":3073,"Ġur":3074,"reak":3075,"hed":3076,"Ġplt":3077,"Ġpand":3078,"Ġparent":3079,"Ġrelease":3080,"Ġthey":3081,"Ġinclude":3082,"ameters":3083,"Ġcookie":3084,"Ġreturns":3085,"Ġiss":3086,"ĠPip":3087,"ĠCreate":3088,"ĠAbstract":3089,"ĠIO":3090,"ĠLO":3091,"Ġ.-.":3092,"ody":3093,"Ġ`-":3094,"Ġcontin":3095,"Ġcontribut":3096,"ĠFound":3097,"Ġdec":3098,"ĠMigration":3099,"ĠUse":3100,"teger":3101,"(\"\\":3102,"Ġeasy":3103,"preter":3104,"scan":3105,"Context":3106,"Contain":3107,"ĠRemoved":3108,"Ġcolor":3109,"indice":3110,"Ġhasattr":3111,"Ġtransport":3112,"Ġsystem":3113,"State":3114,"Ġconfiguration":3115,"off":3116,"itialize":3117,"ALI":3118,"ĠDistutilsOption":3119,"Implements":3120,"idden":3121,"ways":3122,"LOAD":3123,"ĠInstallationError":3124,"Ġoptim":3125,"svn":3126,"Format":3127,"ĠRequests":3128,"CUMENT":3129,"ious":3130,"Ġsorted":3131,"Ġskip":3132,"Ġdocumentation":3133,"ĠCONTRIBUT":3134,"Ġpossible":3135,"ncio":3136,"Ġpandas":3137,"ĠFoundation":3138,"ĠDistutilsOptionError":3139,"ĠCONTRIBUTORS":3140,"/<":3141,"=',":3142,"DB":3143,"ED":3144,"FE":3145,"GG":3146,"Geometry":3147,"He":3148,"Mark":3149,"Output":3150,"Sub":3151,"Tuple":3152,"Valid":3153,"WS":3154,"``<":3155,"cc":3156,"cl":3157,"dit":3158,"eed":3159,"fn":3160,"finder":3161,"gacy":3162,"ique":3163,"ning":3164,"pace":3165,"platform":3166,"plot":3167,"rapp":3168,"uery":3169,"widget":3170,"Ġge":3171,"Ġright":3172,"intern":3173,"static":3174,"starts":3175,"deprecation":3176,"Ġavoid":3177,"less":3178,"legram":3179,"left":3180,"Ġopt":3181,"Ġbreak":3182,"copy":3183,"Ġwel":3184,"exit":3185,"Ġascii":3186,"ĠPath":3187,"ĠCh":3188,"ĠAdd":3189,"transport":3190,"etwork":3191,"Ġlogger":3192,"parsedVersion":3193,"Ġunit":3194,"Ġstandard":3195,"Ġnames":3196,"ĠRemove":3197,"Ġ100":3198,"loader":3199,"agma":3200,"Ġshow":3201,"ĠWritten":3202,"Comment":3203,"Ġdoc":3204,"âķĿ":3205,"THON":3206,"Ġpaths":3207,"Ġiterable":3208,"Ġlogic":3209,"Ġpost":3210,"Ġpragma":3211,"ainst":3212,"ween":3213,"Ġcallback":3214,"Ġgroups":3215,"Ġdoesn":3216,"ĠPackage":3217,"ormalized":3218,"ĠResponse":3219,"Ġarguments":3220,"engers":3221,"ĠLibrary":3222,"cuda":3223,"Ġcontinue":3224,"internet":3225,"startswith":3226,"55":3227,"?<":3228,"Bu":3229,"Bin":3230,"CL":3231,"Django":3232,"ET":3233,"HEAD":3234,"PP":3235,"PAT":3236,"RC":3237,"USER":3238,"`,":3239,"ban":3240,"cent":3241,"dB":3242,"est":3243,"hand":3244,"irror":3245,"lis":3246,"lers":3247,"pn":3248,"ple":3249,"rc":3250,"sum":3251,"sample":3252,"ton":3253,"warn":3254,"rogram":3255,"Ġtake":3256,"delta":3257,"Ġcmd":3258,"Ġfull":3259,"Ġfinal":3260,"Ġsol":3261,"lag":3262,"Ġbdist":3263,"come":3264,"Ġwin":3265,"Ġmark":3266,"thing":3267,"Ġtokens":3268,"Ġcommon":3269,"Ġ(``":3270,"Ġip":3271,"ĠStr":3272,"abs":3273,"ĠAt":3274,"ĠImage":3275,"ĠLink":3276,"etch":3277,"Ġlong":3278,"ĠField":3279,"ization":3280,"ĠOutput":3281,"Ġbeing":3282,"Ġparts":3283,"prec":3284,"ĠEnum":3285,"Ġnamespaces":3286,"timezone":3287,"vendored":3288,"ared":3289,"Ġalph":3290,"imread":3291,"ready":3292,"Ġserializer":3293,"Ġmessages":3294,"Ġadditional":3295,"environment":3296,"FILE":3297,"Ġzero":3298,"Ġneeded":3299,"ignal":3300,"Ġjust":3301,"ormalize":3302,"encodings":3303,"display":3304,"DOCUMENT":3305,"))?":3306,"where":3307,"weight":3308,"Ġ2013":3309,"========":3310,"canner":3311,"oints":3312,"Ġkinds":3313,"ertificate":3314,"SCHEMES":3315,"EXTENSIONS":3316,"\"{":3317,"#<":3318,"#]*":3319,")))<":3320,".,":3321,"=[":3322,"CT":3323,"IG":3324,"IS":3325,"Options":3326,"Sy":3327,"Uti":3328,"URI":3329,"],<":3330,"]==":3331,"available":3332,"df":3333,"has":3334,"lr":3335,"late":3336,"lated":3337,"sat":3338,"tal":3339,"umm":3340,"Ġ&":3341,"Ġ}<":3342,"Ġedit":3343,"inux":3344,"reverse":3345,"Ġtar":3346,"state":3347,"alth":3348,"Ġpow":3349,"Ġcap":3350,"__.__":3351,"Ġfrozen":3352,"Ġdown":3353,"Ġsave":3354,"losed":3355,"lopen":3356,"Ġbatch":3357,"Ġ\"-":3358,"edia":3359,"exe":3360,"fied":3361,"Ġmac":3362,"ueue":3363,"tokens":3364,"Ġans":3365,"Ġ'__":3366,"ĠSH":3367,"ĠPool":3368,"ĠCandidate":3369,"Ġthen":3370,"progress":3371,"Read":3372,"verter":3373,"Ġdistance":3374,"ĠBot":3375,"Ġeach":3376,"ĠOS":3377,"ĠObject":3378,"('.":3379,"loads":3380,"timeout":3381,"arned":3382,"Ġabc":3383,"ITE":3384,"Ġ%(":3385,"functions":3386,"Ġusername":3387,"Ġchecks":3388,"Ġnodes":3389,"ĠHTTPError":3390,"vides":3391,"Ġcontaining":3392,"NODE":3393,"Ġchardet":3394,"404":3395,"Ġmsgpack":3396,"CUR":3397,"Ġcontents":3398,"controller":3399,"Ġ\"\"<":3400,"ĠCacheControl":3401,"ĠInfinityType":3402,"Ġbuilt":3403,"termine":3404,"ĠMessage":3405,"ummy":3406,"Ġfrozenset":3407,"200":3408,"85":3409,"Email":3410,"PA":3411,"Rec":3412,"[[":3413,"awn":3414,"final":3415,"ha":3416,"save":3417,"side":3418,"uff":3419,"Ã§":3420,"ĠK":3421,"Ġet":3422,"Ġqu":3423,"inner":3424,"see":3425,"search":3426,"description":3427,"leep":3428,"meth":3429,"Ġrequired":3430,"Ġfail":3431,"Ġinternal":3432,"Ġinfo":3433,"entry":3434,"Ġmod":3435,"thon":3436,"erson":3437,"Ġ'_":3438,"ĠPer":3439,"ĠCCompiler":3440,"ĠNew":3441,"ĠAuth":3442,"connect":3443,"ORD":3444,"Ġvia":3445,"Ġultroid":3446,"ĠFilter":3447,"Ġlook":3448,"ĠGDAL":3449,"Ġparams":3450,"prep":3451,"ĠHas":3452,"scrib":3453,"lity":3454,"Ġmaking":3455,"aceback":3456,"Exist":3457,"Ġhashes":3458,">âĢ¢`{":3459,"words":3460,"Ġpyrogram":3461,"DEFAULT":3462,"DecodeError":3463,"Ġdisable":3464,"Ġcommands":3465,"âĸĳâĸĳ":3466,"Encoder":3467,"Environment":3468,"missions":3469,"Ġaccess":3470,"structor":3471,"links":3472,"ĠFileNotFoundError":3473,"avengers":3474,"Ġindice":3475,"ĠTypeError":3476,"Ġstructure":3477,"extensions":3478,"ĠDEFAULT":3479,"(?:":3480,"Ġtelethon":3481,"Ġpartial":3482,"ictionary":3483,"OKEN":3484,"ĠBytes":3485,"landmark":3486,"ĠspaceCharacters":3487,"CACHE":3488,"#!/":3489,"\"^":3490,":%":3491,"Al":3492,"App":3493,"Auth":3494,"Check":3495,"Edit":3496,"NS":3497,"OP":3498,"Or":3499,"Render":3500,"Sec":3501,"You":3502,"be":3503,"bar":3504,"ced":3505,"gi":3506,"gener":3507,"lur":3508,"option":3509,"pg":3510,"ually":3511,"ven":3512,"})":3513,"ĠKey":3514,"real":3515,"stCase":3516,"ene":3517,"Ġafter":3518,"alues":3519,"__.":3520,"__<":3521,"its":3522,"Ġfinder":3523,"Ġdb":3524,"Ġdig":3525,"utor":3526,"Ġinit":3527,"icious":3528,"lookup":3529,"Ġnon":3530,"Ġwrapper":3531,"ĠTh":3532,"Ġmissing":3533,"ĠSUCCESS":3534,"olation":3535,"ĠClient":3536,"ĠNum":3537,"iled":3538,"ĠAUTH":3539,"ATION":3540,"served":3541,"Ġconnect":3542,"Ġdecor":3543,"ĠMIT":3544,"ĠMicrosoft":3545,"ĠMirror":3546,"irection":3547,"derr":3548,"âĸĢ":3549,"Ġelements":3550,"Ġbeen":3551,"Ġstack":3552,"Ġstatic":3553,"ĠRep":3554,"ENT":3555,"INDO":3556,"INTER":3557,"Ġvalidate":3558,"Ġotherwise":3559,"dataflow":3560,"âķļ":3561,"Ġrouter":3562,"ĠCommandError":3563,"Ġnumb":3564,"Ġdefaultdict":3565,"ðĿĻ":3566,"DEBUG":3567,"Ġsubclass":3568,"Deprecation":3569,"2020":3570,"ĠInvalidSpecifier":3571,"cluded":3572,"Ġapi":3573,"Ġconnections":3574,"NAMES":3575,"Ġ>=":3576,"ABC":3577,"Ġresolve":3578,"Ġmany":3579,"Ġhex":3580,"PREFIX":3581,"Ġspecific":3582,"ĠNamed":3583,"unks":3584,"password":3585,"Ġretries":3586,"cular":3587,"BOM":3588,"ĠAppConfig":3589,"ĠHttpResponse":3590,"crypto":3591,"Ġallows":3592,"Ġasyncio":3593,"Ġtensorpack":3594,"Introspection":3595,"ĠPackageFinder":3596,"landmarks":3597,"INDOWS":3598,"DeprecationWarning":3599,"(\\":3600,"44":3601,"60":3602,"78":3603,"::":3604,"All":3605,"AGE":3606,"Cre":3607,"CON":3608,"DL":3609,"Py":3610,"Red":3611,"SQL":3612,"Widget":3613,"Warned":3614,"classes":3615,"down":3616,"ied":3617,"oup":3618,"platlib":3619,"rad":3620,"sers":3621,"sax":3622,"tlist":3623,"torch":3624,"ume":3625,"zA":3626,"ze":3627,"ord":3628,"initial":3629,"eros":3630,"storage":3631,"enc":3632,"Ġaround":3633,"alias":3634,"Ġpri":3635,"Ġreco":3636,"Ġfr":3637,"Ġsafe":3638,"isfied":3639,"eschema":3640,"example":3641,"first":3642,"Ġmigration":3643,"tocol":3644,"Ġisn":3645,"ĠSy":3646,"ĠSNI":3647,"ĠCase":3648,"ĠCol":3649,"ĠCode":3650,"ĠAll":3651,"introspection":3652,"Ġthings":3653,"spicious":3654,"Ġconf":3655,"Reader":3656,"ĠFrozen":3657,"ama":3658,"Ġproble":3659,"Ġdescrib":3660,"ĠModule":3661,"ĠMax":3662,"verbose":3663,"verything":3664,"uler":3665,"Ġevent":3666,"ĠOpen":3667,"Ġsetting":3668,"Ġparameters":3669,"Index":3670,"ĠElementTree":3671,"codes":3672,"Ġsen":3673,"Ġnamespace":3674,"ixpath":3675,"csrf":3676,"Ġchain":3677,"Lookup":3678,"ialize":3679,"Ġarchive":3680,"Ġserializers":3681,"\"),":3682,"licit":3683,"ansform":3684,"Ġattributes":3685,"Ġadmin":3686,"Ġ...<":3687,"Ġversions":3688,"ARNING":3689,"Ġimplemented":3690,"address":3691,"Ġdisplay":3692,"Ġcoreschema":3693,"shape":3694,"FFFF":3695,"Ġlet":3696,"Ġneeds":3697,":`~":3698,"Ġrepresentation":3699,"Ġidenti":3700,"ASCII":3701,"ĠTypeVar":3702,"nodeType":3703,"Ġmanage":3704,"ĠLocation":3705,"Ġhandle":3706,"rfc":3707,"Ġattrs":3708,"Arg":3709,"ELD":3710,"################":3711,"Ġauthors":3712,"Ġqueryset":3713,"Method":3714,"Ġmultiple":3715,"Ġposixpath":3716,"ursor":3717,"Ġvendored":3718,"Ġwebencodings":3719,"boxes":3720,"Manager":3721,"ĠSerializer":3722,"resolve":3723,"ĠINST":3724,"Backend":3725,"Ġbetween":3726,"ĠIDNA":3727,"ormalizedName":3728,"RCCommand":3729,"satisfied":3730,"ĠmacOS":3731,"ĠBytesIO":3732,"Renderer":3733,"ĠFrozenSet":3734,")==":3735,");<":3736,".%":3737,"21":3738,"38":3739,">=":3740,"Called":3741,"Candidate":3742,"GR":3743,"Mutable":3744,"SU":3745,"TS":3746,"Xiao":3747,"]]":3748,"az":3749,"aint":3750,"auto":3751,"bt":3752,"ftime":3753,"mote":3754,"microsoft":3755,"sdist":3756,"var":3757,"vision":3758,"vider":3759,"}\")<":3760,"ories":3761,"ernel":3762,"rop":3763,"Ġtre":3764,"store":3765,"stderr":3766,"dest":3767,"Ġawait":3768,"ley":3769,"Ġpg":3770,"metric":3771,"aris":3772,"Ġfails":3773,"Ġflag":3774,"Ġsdist":3775,"utc":3776,"uts":3777,"Ġour":3778,"icates":3779,"cookie":3780,"Ġ\"_":3781,"istic":3782,"esNot":3783,"exist":3784,"expre":3785,"ĠTrie":3786,"Ġmight":3787,"ily":3788,"straint":3789,"Ġ''<":3790,"ĠSub":3791,"ĠPar":3792,"olver":3793,"ĠChat":3794,"const":3795,"train":3796,"Ġdetermine":3797,"ĠMulti":3798,"telegram":3799,"Ġhost":3800,"Ġempty":3801,"Ġitself":3802,"Ġwhole":3803,"Insensitive":3804,"Ġstat":3805,"Ġalready":3806,"Ġenable":3807,"âĸĪâķ":3808,"ĠView":3809,"ĠValid":3810,"ĠValues":3811,"Ġexample":3812,"mbers":3813,"Ġ{\"":3814,"color":3815,"vior":3816,"Exec":3817,"Example":3818,"Ġtimezone":3819,"``)<":3820,"ifiers":3821,"sycop":3822,"Ġ...":3823,"Ġapplied":3824,"Ġ\\<":3825,"ĠContent":3826,"Ġzlib":3827,"calar":3828,"Ġknow":3829,"Decoder":3830,"rpm":3831,"Ġjo":3832,"ĠĠĠĠĠĠĠĠĠĠĠĠĠĠĠĠĠĠĠĠĠĠĠĠ":3833,"UTF":3834,"mission":3835,"archive":3836,"Ġaccept":3837,"tributeError":3838,"DataF":3839,"GET":3840,"cord":3841,"nectTimeoutError":3842,"(**":3843,"DoesNot":3844,"pypa":3845,"Meta":3846,"Ġwork":3847,"PYTHON":3848,"Ġviews":3849,"InstallRequirement":3850,"Ġscripts":3851,"cope":3852,"ĠXiao":3853,"Ġappropri":3854,"hostname":3855,"Results":3856,"itespace":3857,"ulnName":3858,">~~~~~~~~~~~~":3859,"ĠFIRST":3860,"Ġwell":3861,"png":3862,"havior":3863,"ĠCaseInsensitive":3864,"arison":3865,"sycopg":3866,"DoesNotExist":3867,"Ġappropriate":3868,"ĠCaseInsensitiveDict":3869,"'),<":3870,"26":3871,"401":3872,"517":3873,"74":3874,">*":3875,"By":3876,"BSD":3877,"DING":3878,"Download":3879,"Func":3880,"KT":3881,"MP":3882,"Migration":3883,"Pack":3884,"Pred":3885,"Range":3886,"TOKEN":3887,"VE":3888,"VI":3889,"]{":3890,"`.":3891,"aw":3892,"ait":3893,"call":3894,"download":3895,"eu":3896,"fin":3897,"handler":3898,"my":3899,"nl":3900,"neg":3901,"operations":3902,"pb":3903,"rt":3904,"sort":3905,"udio":3906,"width":3907,"âĦ":3908,"Ġmp":3909,"ĠâĸĴ":3910,"Ġerr":3911,"orary":3912,"eric":3913,"releases":3914,"rou":3915,"Ġtri":3916,"Ġtag":3917,"atmaps":3918,"ended":3919,"tices":3920,"ality":3921,"Ġpdb":3922,"Ġct":3923,"Ġretry":3924,"urity":3925,"Ġdataset":3926,"Ġdummy":3927,"Ġoc":3928,"Ġoptional":3929,"Ġoperation":3930,"Ġinv":3931,"defs":3932,"loaded":3933,"Ġbise":3934,"Ġnormalize":3935,"that":3936,"thread":3937,"ilar":3938,"ĠPre":3939,"prog":3940,"Ġvari":3941,"Ġlang":3942,"Ġstrict":3943,"ĠMy":3944,"vertices":3945,"lying":3946,"://...":3947,"aches":3948,"Input":3949,"Ġstd":3950,"Converter":3951,"Ġsend":3952,"poses":3953,"ENCO":3954,"ĠInst":3955,"ĠInline":3956,"ĠIncremental":3957,"Ġalways":3958,"Ġ:,":3959,"imilar":3960,"Ġexc":3961,"stant":3962,"mbols":3963,"ĠWINDOWS":3964,"ildEnvironment":3965,"indent":3966,"Ġadded":3967,"ĠSession":3968,"cessed":3969,"ĠUnicode":3970,"Ġpytest":3971,"Ġpytz":3972,"ĠBaseDatabase":3973,"Ġfunctionality":3974,"afold":3975,"FIELD":3976,"byte":3977,"untyped":3978,"aster":3979,"Unsupported":3980,"UnparsedVersion":3981,"Ġdisallow":3982,"Ġcontextmanager":3983,"Ġcontained":3984,"FFFE":3985,"params":3986,"ĠStream":3987,"AND":3988,"Ġsplit":3989,"mirror":3990,"Ġidx":3991,"curacy":3992,"sysconfig":3993,"web":3994,"âĸĪâĸĪâķĹ":3995,"ĠProtocol":3996,"Ġhandling":3997,"Ġtransform":3998,"Message":3999,"TestCase":4000,"PoolError":4001,"ĠNegativeInfinityType":4002,"ĠArray":4003,"installed":4004,"graphy":4005,"ĠASCII":4006,"ĠStringIO":4007,"WNLOAD":4008,"Ġdigests":4009,"opts":4010,"Ġreleased":4011,"Ġdecimal":4012,"Ġcolorama":4013,"offset":4014,"GGER":4015,"HEADER":4016,"AppConfig":4017,"Predicate":4018,"Ġbisect":4019,"://...``)<":4020,"ENCODING":4021,"ĠProtocolError":4022,"'])<":4023,")}":4024,")\")<":4025,"/%":4026,"28":4027,"34":4028,"Ac":4029,"BASE":4030,"Call":4031,"DAT":4032,"No":4033,"Platform":4034,"RROR":4035,"Str":4036,"Support":4037,"SGI":4038,"Used":4039,"UID":4040,"We":4041,"Win":4042,"]-":4043,"_|":4044,"`:":4045,"aj":4046,"ade":4047,"body":4048,"cip":4049,"ccompiler":4050,"draw":4051,"ea":4052,"eval":4053,"gra":4054,"ims":4055,"just":4056,"lint":4057,"next":4058,"pk":4059,"pu":4060,"page":4061,"pool":4062,"tual":4063,"vid":4064,"vate":4065,"wer":4066,"wsg":4067,"wrapp":4068,"å®":4069,"ĠÐ":4070,"Ġext":4071,"Ġetree":4072,"ortc":4073,"section":4074,"report":4075,"rend":4076,"ention":4077,"ences":4078,"decor":4079,"learn":4080,"Ġimported":4081,"Ġpur":4082,"Ġperson":4083,"Ġcertificate":4084,"memory":4085,"Ġrelated":4086,"Ġfin":4087,"Ġfmt":4088,"Ġdictionary":4089,"Ġsm":4090,"isit":4091,"acle":4092,"ically":4093,"common":4094,"Ġnb":4095,"Ġnetwork":4096,"unicode":4097,"ĠTO":4098,"ĠTag":4099,"ĠTree":4100,"Ġmid":4101,"Ġmask":4102,"adi":4103,"ading":4104,"toml":4105,"ĠST":4106,"ĠSQL":4107,"ĠPlatform":4108,"ments":4109,"ĠIP":4110,"asgi":4111,"ects":4112,"tra":4113,"Ġvar":4114,"Ġ_(\"":4115,"Ġuuid":4116,"Ġlookup":4117,"libException":4118,"ĠMo":4119,"ĠMark":4120,"ulate":4121,"filelist":4122,"ĠERROR":4123,"irtual":4124,"002":4125,"ĠWSGI":4126,"vie":4127,"doc":4128,"Ġdosya":4129,"Ġadap":4130,"Ġcannot":4131,"Ġformats":4132,"Ġpylint":4133,"ĠBaseCommand":4134,"umentParser":4135,"ðĿĵ":4136,"Default":4137,"ublicId":4138,"Unpack":4139,"processors":4140,"Ġdiscord":4141,"modules":4142,"Ġscreen":4143,"ocket":4144,"Ġsupported":4145,"checks":4146,"ĠStatus":4147,"Ġcorrect":4148,"disable":4149,"Child":4150,"ĠInvalidVersion":4151,"Ġcharacters":4152,"ĠJon":4153,"RequestException":4154,"Ġgenerate":4155,"YES":4156,"TreeWalker":4157,"patched":4158,"Ġperform":4159,"ĠDefault":4160,"Ġindicate":4161,"Nodes":4162,"Ġ440":4163,"sqlparse":4164,"distributions":4165,"ĠDEBUG":4166,"Archive":4167,"ĠPacker":4168,"mbedPayload":4169,"ypedDict":4170,"BOSE":4171,"ĠGEOSGeometry":4172,"gmentation":4173,"stdout":4174,"Ġabsl":4175,"Ġdefinition":4176,"ParseError":4177,"ALIAS":4178,"Ġunittest":4179,"Ġsolution":4180,"Utilities":4181,"ĠPoolError":4182,"Ġsending":4183,"urityWarning":4184,"imshow":4185,"wsgi":4186,"rendre":4187,"ĠTreeWalker":4188,"\"])<":4189,"%(":4190,"'re":4191,"'ll":4192,")*":4193,")+":4194,".\")<":4195,"?#]*":4196,"AML":4197,"Basic":4198,"CRE":4199,"Det":4200,"ElementTree":4201,"GS":4202,"LA":4203,"LP":4204,"PUT":4205,"QU":4206,"SOR":4207,"WORD":4208,"]]<":4209,"ear":4210,"fr":4211,"fan":4212,"gine":4213,"her":4214,"kpath":4215,"lict":4216,"mute":4217,"pickle":4218,"rb":4219,"random":4220,"vcs":4221,"á´":4222,"åº":4223,"çĶ":4224,"insensitive":4225,"erate":4226,"erator":4227,"sessions":4228,"select":4229,"Ġtakes":4230,"ster":4231,"stride":4232,"letion":4233,"heatmaps":4234,"Ġcfg":4235,"itz":4236,"itle":4237,"Ġflags":4238,"Ġdir":4239,"Ġsign":4240,"Ġsimple":4241,"utton":4242,"Ġown":4243,"Ġold":4244,"Ġinject":4245,"Ġinitial":4246,"loy":4247,"looks":4248,"cover":4249,">###":4250,"Ġwould":4251,"ents":4252,"ecimal":4253,"idi":4254,"idual":4255,"termin":4256,"river":4257,"total":4258,"Ġtoml":4259,"light":4260,"Ġide":4261,"aps":4262,"ĠSp":4263,"ĠSec":4264,"ĠSwagger":4265,"ipy":4266,"andid":4267,"ĠDNS":4268,"namespace":4269,"setdefault":4270,"ending":4271,"endar":4272,"__(*":4273,"__()<":4274,"urelib":4275,"Required":4276,"amage":4277,"Ġloc":4278,"ube":4279,"Ġdeque":4280,"Ġdelete":4281,"Ġdebug":4282,"Ġdevelop":4283,"ĠMode":4284,"ĠMet":4285,"tem":4286,"aise":4287,"(\"/":4288,"Ġbehavior":4289,"Ġparsed":4290,"pred":4291,"pression":4292,"preferred":4293,"ĠHash":4294,"Ġwhat":4295,"Ġbyte":4296,"Incremental":4297,"ĠĠĠĠĠĠĠĠĠĠĠĠĠ":4298,"scale":4299,"outube":4300,"tail":4301,"SET":4302,"loading":4303,"itemplate":4304,"Ġalg":4305,"Ġable":4306,"ividual":4307,"okies":4308,"Ġmajor":4309,"ĠWrite":4310,"ĠWheel":4311,"document":4312,"dosya":4313,"Ġtimedelta":4314,"Ġlistener":4315,"Ġsupp":4316,"TypeVar":4317,"objects":4318,"lash":4319,"SSION":4320,"Based":4321,"cached":4322,"LED":4323,"Ġrunning":4324,"Ġimplements":4325,"Import":4326,"Unknown":4327,"sha":4328,"show":4329,"Ġscipy":4330,"Ġleft":4331,"fill":4332,"neth":4333,"Ġinterpreter":4334,":`.":4335,"licenses":4336,"Ġsuccess":4337,"Ġhttplib":4338,"Ġextra":4339,"Ġboth":4340,"ĠProxy":4341,"groups":4342,"Ġschemes":4343,"chemaEdit":4344,"pypi":4345,"socket":4346,"Ġword":4347,"contents":4348,"Ġcompatible":4349,"Ġparticular":4350,"securetransport":4351,"Ġvariables":4352,"Ġdistributions":4353,"patterns":4354,"ĠPyPIRCCommand":4355,"Adapter":4356,"Ġalias":4357,"surface":4358,"Ġinstances":4359,"Ġissue":4360,"Header":4361,"precated":4362,"Ġalphafold":4363,"ĠNewType":4364,"Alter":4365,"Ġdecorator":4366,"ĠMirrorStatus":4367,"Ġnumbers":4368,"ĠINSTALL":4369,"ĠIDNAError":4370,"decorators":4371,"çĶ¨":4372,"chemaEditor":4373,"..<":4374,"36":4375,"<=":4376,"Auto":4377,"Add":4378,"Abstract":4379,"Class":4380,"CTYPE":4381,"DU":4382,"Dataset":4383,"EO":4384,"EmbedPayload":4385,"GRA":4386,"LI":4387,"Open":4388,"OUT":4389,"Queue":4390,"Sum":4391,"Scanner":4392,"Soup":4393,"UR":4394,"US":4395,"\\\"":4396,"\\\\":4397,"ampl":4398,"basic":4399,"cer":4400,"flo":4401,"float":4402,"fmt":4403,"git":4404,"oth":4405,"rs":4406,"tl":4407,"tensor":4408,"tected":4409,"ud":4410,"vc":4411,"wg":4412,"yle":4413,"}{":4414,"âĢ":4415,"Ġ~~~~~~~~":4416,"Ġextension":4417,"erbose":4418,"remove":4419,"roy":4420,"atur":4421,"attrib":4422,"stack":4423,"enable":4424,"legacy":4425,"heels":4426,"alive":4427,"Ġpad":4428,"Ġpyp":4429,"Ġpatch":4430,"Ġclosed":4431,"Ġcursor":4432,"meta":4433,"Ġrequires":4434,"Ġdone":4435,"gether":4436,"Ġsimp":4437,"Ġsum":4438,"Ġsite":4439,"iso":4440,"accuracy":4441,"Ġblack":4442,"cogn":4443,"cookies":4444,"Ġ\".":4445,"Ġ\"/":4446,"exc":4447,"utiful":4448,"Ġtoo":4449,"stru":4450,"ĠSh":4451,"ĠSignal":4452,"ĠPrint":4453,"ability":4454,"ipFile":4455,"ationConfig":4456,"ints":4457,"Ġthresh":4458,"spinner":4459,"true":4460,"chunks":4461,"allen":4462,"()[":4463,"Represent":4464,"~~~<":4465,"ublis":4466,"ather":4467,"athan":4468,"Ġstrftime":4469,"Ġdecoding":4470,"ĠgetLogger":4471,"qui":4472,"ĠBar":4473,"ĠBea":4474,"âĸĲ":4475,"Ġest":4476,"Ġ256":4477,"ĠHow":4478,"InDjango":4479,"prototypes":4480,"codec":4481,"Conv":4482,"complete":4483,"poch":4484,"ference":4485,"ĠInput":4486,"users":4487,"agent":4488,"Ext":4489,"double":4490,"Ġpackaging":4491,"Ġchoice":4492,"Ġchannel":4493,"Copyright":4494,"Lock":4495,"Ġuses":4496,"STR":4497,"uptoolsDeprecationWarning":4498,"Ġadapter":4499,"BaseVersion":4500,"Ġappdirs":4501,"Ġ\\\"":4502,"cachecontrol":4503,"LETE":4504,"iteral":4505,"iteritems":4506,"ĠHTTPS":4507,"ĠDistutilsError":4508,"Ġsomething":4509,"Ġcontainer":4510,"Ġinstallation":4511,"lang":4512,"queryset":4513,"transform":4514,"entication":4515,"Ġlength":4516,"Provides":4517,"Ġcharset":4518,"cret":4519,"Ġmaxsize":4520,"Codepoint":4521,"functools":4522,"spaceCharacters":4523,"opensource":4524,"ĠOrderedSet":4525,"ĠTemp":4526,"verseIP":4527,"ĠRequestError":4528,"ĠGEO":4529,"Ġoriginal":4530,"Ġreplace":4531,"Ġreplied":4532,"endency":4533,"eaders":4534,"âķĲâķĲâķĲâķĲ":4535,"Ġfilenames":4536,"ĠMutableSet":4537,"ĠDocument":4538,"audio":4539,"Ġconsole":4540,"Ġ2009":4541,"Ġapproaches":4542,"234":4543,"Reporter":4544,"cheduler":4545,"executable":4546,"COMMENT":4547,"Ġdirectories":4548,"Attributes":4549,">~~~~~~~~~~~~~~~~":4550,">`_":4551,"ĠBuildEnvironment":4552,"Help":4553,"multipart":4554,"Ġpattern":4555,"ĠConnectionError":4556,"Ġagainst":4557,"Number":4558,"Ġurlopen":4559,"Ġcontributors":4560,"Contains":4561,"Validator":4562,"staticfiles":4563,"PATH":4564,"handlers":4565,"ĠAttributeError":4566,"Ġtarfile":4567,"ĠSHORT":4568,"CURSOR":4569,"ĠAUTHORS":4570,"ABCMeta":4571,"ĠNamedTuple":4572,"ĠSystem":4573,"ĠLocationParseError":4574,"exists":4575,"expressions":4576,"Ġvarious":4577,"ĠJonathan":4578,"Ġsupplied":4579,"ampler":4580,"utifulSoup":4581,"ĠBeautifulSoup":4582,"'{":4583,"'.<":4584,"'))<":4585,"').":4586,"(_":4587,")\"":4588,",)<":4589,".`<":4590,"20":4591,"22":4592,"={":4593,"@@":4594,"Create":4595,"CATION":4596,"Date":4597,"Dep":4598,"Directory":4599,"Fore":4600,"If":4601,"JANG":4602,"Link":4603,"Multi":4604,"Query":4605,"Show":4606,"TO":4607,"TEXT":4608,"VAR":4609,"cla":4610,"ever":4611,"event":4612,"iTo":4613,"na":4614,"nor":4615,"nip":4616,"none":4617,"native":4618,"normal":4619,"purelib":4620,"rl":4621,"ring":4622,"rid":4623,"siTo":4624,"uation":4625,"vers":4626,"variable":4627,"virtual":4628,"})<":4629,"}\"<":4630,"Ã©":4631,"ÅŁ":4632,"ä¸":4633,"åı":4634,"Ġ!":4635,"Ġ$":4636,"Ġ),<":4637,"Ġhelper":4638,"order":4639,"mpath":4640,"setopt":4641,"ret":4642,"rest":4643,"recon":4644,"reason":4645,"Ġtz":4646,"atationConfig":4647,"del":4648,"Ġact":4649,"Ġimports":4650,"titem":4651,"hex":4652,"health":4653,"Ġprep":4654,"Ġpayload":4655,"Ġcid":4656,"Ġcatch":4657,"Ġcriter":4658,"anchor":4659,"med":4660,"members":4661,"__)":4662,"__':<":4663,"Ġregist":4664,"Ġdf":4665,"Ġdump":4666,"Ġsample":4667,"loc":4668,"los":4669,"last":4670,"Ġblock":4671,"Ġbasic":4672,"Ġbias":4673,"istent":4674,"Ġwidth":4675,"unused":4676,"ently":4677,"rive":4678,"Ġ',":4679,"Ġ'<":4680,"gettext":4681,"apin":4682,"ĠSim":4683,"ĠSapin":4684,"older":4685,"ĠCS":4686,"ĠDATE":4687,"ĠLiteral":4688,"ATCH":4689,"server":4690,"sets":4691,"spawn":4692,"Ġvoid":4693,"()``,":4694,"Ġconstruct":4695,"Retry":4696,"Ġlocation":4697,"mag":4698,"ĠfileName":4699,"permissions":4700,"ĠUUID":4701,"Ġhandler":4702,"uman":4703,"ulner":4704,"ĠBad":4705,"','":4706,"Ġeval":4707,"Ġevery":4708,"Ġeverything":4709,"Ġunique":4710,"ĠOn":4711,"ĠHart":4712,"ĠHidden":4713,"Ind":4714,"ĠĠĠĠĠĠĠĠĠ":4715,"Ġstored":4716,"outh":4717,"ĠRead":4718,"ENV":4719,"ĠIndex":4720,"Ġyaml":4721,"ports":4722,"Ġgots":4723,"ĠThese":4724,"ĠWhen":4725,"undle":4726,"Ġrequested":4727,"most":4728,"Cookie":4729,"ERS":4730,"sync":4731,"ĠSearch":4732,"ĠAnsiTo":4733,"Ġpred":4734,"boolean":4735,"minimum":4736,"ĠBaseCache":4737,"ityError":4738,"Ġconfigparser":4739,"ĠVersionPredicate":4740,"Ġkernel":4741,"ĠNotRequired":4742,"ĠDictCache":4743,"CommandError":4744,"Ġdispose":4745,"Ġsomeone":4746,"reqs":4747,"ĠSetuptoolsDeprecationWarning":4748,"Ġscan":4749,"Ġresultat":4750,"subenum":4751,"':'":4752,"LOB":4753,"ANS":4754,"Process":4755,"Provider":4756,"Ġcurrently":4757,"Ġrepresents":4758,"Ġ['/":4759,"Ġaddress":4760,"SSLError":4761,"HTTPConnection":4762,"Ġthreads":4763,"what":4764,"which":4765,"ĠTest":4766,"runslow":4767,"ĠDelete":4768,"rypto":4769,"binary":4770,"ĠFormat":4771,"Ġexpected":4772,"charmap":4773,"ertifi":4774,"ĠTimestamp":4775,"postgres":4776,",\"\\":4777,"Ġreference":4778,"network":4779,"ConnectionError":4780,"Ġmatrix":4781,"Ġmatplot":4782,"[:,:":4783,"ulnInfo":4784,"domains":4785,"Modules":4786,"Ġdirectly":4787,"TRANS":4788,"hoto":4789,"extra":4790,"ĠConfiguration":4791,"Enumerator":4792,"Ġseparate":4793,"Ġinstanti":4794,"ĠSuspicious":4795,"ĠUnpackException":4796,"ĠAbstractDistribution":4797,"Ġ`-'":4798,"ĠRemovedCommandError":4799,"ĠHashes":4800,"SecurityWarning":4801,"generic":4802,"Ġconnecting":4803,"ĠReply":4804,"Redirect":4805,"Ġrecomm":4806,"Methods":4807,"MutableMapping":4808,"ĠValidationError":4809,"rough":4810,"Ġlanguage":4811,"Accept":4812,"gramm":4813,"åºĶ":4814,"andidates":4815,"quival":4816,"JANGO":4817,"normpath":4818,"virtualenv":4819,"ĠSimon":4820,"ĠDATETIME":4821,"ĠHartley":4822,"ĠAnsiToWin":4823,"Ġmatplotlib":4824,")?":4825,")[":4826,")]":4827,")')<":4828,"24":4829,">(":4830,"Agg":4831,"And":4832,"Bar":4833,"CC":4834,"Core":4835,"EAR":4836,"Fil":4837,"Iter":4838,"KB":4839,"Let":4840,"MT":4841,"Max":4842,"NG":4843,"Path":4844,"Trie":4845,"TypedDict":4846,"YAML":4847,"]):<":4848,"]])":4849,"aut":4850,"bc":4851,"css":4852,"elt":4853,"elif":4854,"fers":4855,"gate":4856,"hs":4857,"hou":4858,"jection":4859,"jpg":4860,"lm":4861,"lin":4862,"lus":4863,"mro":4864,"mme":4865,"pi":4866,"src":4867,"tw":4868,"ture":4869,"uce":4870,"vice":4871,"warning":4872,"ward":4873,"Ġ7":4874,"Ġ):<":4875,"Ġlib":4876,"Ġexce":4877,"Ġqueue":4878,"inay":4879,"release":4880,"recogn":4881,"roject":4882,"atio":4883,"style":4884,"height":4885,"Ġport":4886,"Ġpure":4887,"Ġpix":4888,"Ġpsycopg":4889,"Ġcrypto":4890,"anne":4891,"Ġreverse":4892,"Ġregex":4893,"Ġrecent":4894,"Ġremembers":4895,"arth":4896,"uring":4897,"uristic":4898,"Ġdot":4899,"Ġdamage":4900,"getitem":4901,"Ġslow":4902,"Ġsimilar":4903,"ics":4904,"Ġbs":4905,"Ġbar":4906,"Ġ\"--":4907,"ĠTE":4908,"ĠToken":4909,"Ġmass":4910,"Ġmapping":4911,"terface":4912,"ceptions":4913,"Ġ(-":4914,"strings":4915,"Ġanything":4916,"ĠSaj":4917,"ĠParse":4918,"ĠPIL":4919,"ĠPOST":4920,"olds":4921,"ĠCrawler":4922,"ĠDis":4923,"ĠDirect":4924,"ĠDecimal":4925,"ĠLe":4926,"named":4927,"ector":4928,"etc":4929,"Ġlater":4930,"Ġconstants":4931,"~~<":4932,"Ġfilesystem":4933,"Ġdel":4934,"ĠMiddleware":4935,"ĠUT":4936,"quote":4937,"ĠGeometry":4938,"âĸĮ":4939,"Ġ24":4940,"Ġmeta":4941,"Ġmemory":4942,"ictVersion":4943,"Ġnote":4944,"Ġparsing":4945,"vals":4946,"Ġwhose":4947,"ĠExt":4948,"ĠEmbed":4949,"screen":4950,"ower":4951,"Content":4952,"Ġsent":4953,"Ġsearch":4954,"Ġseconds":4955,"Ġ16":4956,"INFO":4957,"paths":4958,"ĠVariable":4959,"ĠVinay":4960,"Ġyaz":4961,"Ġtemplates":4962,"Ġgood":4963,"Ġexpression":4964,"based":4965,"bases":4966,"Ġsomme":4967,"ĠWill":4968,"ĠWindows":4969,"Ġ{'":4970,"CKET":4971,"reement":4972,"mount":4973,"RED":4974,"Ġtraceback":4975,"ĠYou":4976,"Ġadding":4977,"Ġadds":4978,"userid":4979,"Ġround":4980,"liste":4981,"backport":4982,"FieldInfo":4983,"BaseCommand":4984,"Start":4985,"Storage":4986,"Ġapplication":4987,"Ġconfigur":4988,"UNK":4989,"calc":4990,"Ġknown":4991,"dictor":4992,"points":4993,"ĠNote":4994,"specifiers":4995,"ParsedVersion":4996,"Ġassume":4997,"Ġresponses":4998,"ickling":4999,"reduce":5000,"Enter":5001,"akref":5002,"LOW":5003,"ANN":5004,"[:-":5005,"Ġspeed":5006,"argv":5007,"Proxy":5008,"lify":5009,"Ġgeneration":5010,"while":5011,"Ġimages":5012,"5678":5013,"See":5014,"rypoints":5015,"atasets":5016,"ĠGET":5017,"Ġexplicit":5018,"ĠWeb":5019,"ABLE":5020,"Ġrepr":5021,"Ġheight":5022,"Ġunpacked":5023,"ĠLookup":5024,"ĠDataLoader":5025,"Ä±r":5026,"Ġtelegram":5027,"ĠQuery":5028,"ĠNameError":5029,"engine":5030,"Ġloading":5031,"Ġautomat":5032,"ĠZipFile":5033,"Ġbinary":5034,"ĠEnvironment":5035,"Ġexists":5036,"modified":5037,"ĠTLSv":5038,"Ġqr":5039,"ertificates":5040,"Ġcreated":5041,"ĠRequirementSet":5042,"986":5043,"Admin":5044,"Helper":5045,"ontend":5046,"Ġcalcul":5047,"Ġcalendar":5048,"contains":5049,"ĠUpdate":5050,"skip":5051,"Ġutilities":5052,"Ġutility":5053,"Ġdefining":5054,"global":5055,"regate":5056,"Ġagreement":5057,"TIONS":5058,"MODU":5059,"Ġcontributor":5060,"Container":5061,"ĠRemovedInDjango":5062,"Formatter":5063,"Ġipaddress":5064,"ĠOutputConfig":5065,"IGH":5066,"Ġconflict":5067,"destroy":5068,"metrics":5069,"nlp":5070,"Ġerrno":5071,"ĠMySQL":5072,"ĠMetadata":5073,"AutoField":5074,"Represents":5075,"RetryError":5076,"LOBAL":5077,"åºĶçĶ¨":5078,"quivalent":5079,"CCEP":5080,"Ġcryptography":5081,"ĠSajip":5082,"MODULE":5083,"(-":5084,")\\":5085,").\"\"\"<":5086,"-%":5087,"13":5088,"31":5089,":]<":5090,"=\"\"":5091,"=['":5092,">):<":5093,"CCompiler":5094,"Dis":5095,"EC":5096,"Form":5097,"HTML":5098,"Holder":5099,"MS":5100,"Mis":5101,"Media":5102,"NOT":5103,"NLP":5104,"Pre":5105,"RF":5106,"Run":5107,"Rout":5108,"SO":5109,"Site":5110,"Scalar":5111,"Types":5112,"ZE":5113,"]))<":5114,"cp":5115,"cast":5116,"cfg":5117,"dated":5118,"duct":5119,"ek":5120,"element":5121,"fy":5122,"fit":5123,"frame":5124,"feature":5125,"hyp":5126,"mk":5127,"mdb":5128,"mary":5129,"mapping":5130,"ned":5131,"ook":5132,"pc":5133,"pol":5134,"ptr":5135,"payload":5136,"rand":5137,"slo":5138,"sites":5139,"sleep":5140,"tor":5141,"tact":5142,"ving":5143,"Ġ//":5144,"Ġurls":5145,"Ġlimit":5146,"Ġescape":5147,"inator":5148,"ond":5149,"segmentation":5150,"requirement":5151,"render":5152,"Ġtk":5153,"stat":5154,"enneth":5155,"dean":5156,"tic":5157,"tities":5158,"Ġpn":5159,"Ġpot":5160,"Ġpage":5161,"Ġplatlib":5162,"mean":5163,"Ġreg":5164,"Ġrev":5165,"Ġreset":5166,"Ġremote":5167,"Ġframework":5168,"Ġfav":5169,"ssql":5170,"Ġdirection":5171,"Ġduring":5172,"geometry":5173,"Ġschema":5174,"Ġsleep":5175,"Ġinser":5176,"Ġinplanes":5177,"Ġinitialize":5178,"Ġinside":5179,"defin":5180,"loss":5181,"lap":5182,"lake":5183,"Ġbit":5184,"Ġnow":5185,"Ġnatur":5186,"ameter":5187,"Ġmar":5188,"Ġmixin":5189,"good":5190,"top":5191,"Ġcost":5192,"Ġreturned":5193,"Ġ''":5194,"getattr":5195,"ĠSU":5196,"ĠSpec":5197,"ĠSupport":5198,"ĠSafe":5199,"ĠSimple":5200,"ĠNormalizedName":5201,"ĠDownload":5202,"ĠDataset":5203,"ĠAd":5204,"intain":5205,"Ġthrough":5206,"Ġoff":5207,"conn":5208,"ĠLine":5209,"serve":5210,"tract":5211,"child":5212,"Ġ_,":5213,"())":5214,"etf":5215,"Ġrather":5216,"Ġlr":5217,"Ġlxml":5218,"Ġlmdb":5219,"Ġconfi":5220,"ureTransport":5221,"ĠFake":5222,"major":5223,"ĠMake":5224,"ĠGroup":5225,"Ġgraph":5226,"(\"[":5227,"(\"{":5228,"ternalError":5229,"Ġep":5230,"Ġear":5231,"ĠOGR":5232,"ĠHel":5233,"ĠEmail":5234,"matches":5235,"matrix":5236,"Constructor":5237,"Constraint":5238,"Ġsecs":5239,"ĠReitz":5240,"Ġonce":5241,"Ġcomparison":5242,"ĠInsecure":5243,"area":5244,"Ġengin":5245,"ĠVS":5246,"Ġabstract":5247,"ived":5248,"solution":5249,"agment":5250,"against":5251,"Ġmail":5252,"indll":5253,"dock":5254,"reeze":5255,"Ġchunk":5256,"pped":5257,"aryIO":5258,"ĠYEAR":5259,"Ġatt":5260,"Ġadjust":5261,"lenNLP":5262,"listdir":5263,"Ġpreferred":5264,"Ġpreserved":5265,"bound":5266,"ĠRed":5267,"ĠRLock":5268,"Ġ30":5269,"minor":5270,"ough":5271,"ĠBaseSpecifier":5272,"Ġ|=":5273,"Stack":5274,"Ġchecking":5275,"DED":5276,"FIG":5277,"ĠContext":5278,"../":5279,"ĠHTTPResponse":5280,"Ġdetect":5281,"Ġunicodedata":5282,"testCase":5283,"attrs":5284,"Def":5285,"astype":5286,"Timestamp":5287,"Unicode":5288,"Ġdispatch":5289,"xtOutput":5290,"Ġ2022":5291,"position":5292,"Resolver":5293,"Ġleast":5294,"Ġlegacy":5295,"Generator":5296,"ĠStore":5297,"ĠStart":5298,"ĠĠĠĠĠĠĠĠĠĠĠĠĠĠĠĠĠ":5299,"LOCK":5300,"ĠOracle":5301,"([\"":5302,"ential":5303,"1234":5304,"joints":5305,"Ġcharge":5306,"Ġrepresentative":5307,"clidean":5308,"Ġmatching":5309,"IDNA":5310,"Ġgeneral":5311,"Ġgenerating":5312,"schema":5313,"curity":5314,"âĸĪâĸĪâķĶ":5315,"ĠURLs":5316,"Ġorigin":5317,"Ġmanip":5318,"dotenv":5319,"Ġencoded":5320,"ĠDataS":5321,"howto":5322,"finders":5323,"Array":5324,"Ġlinks":5325,"interpreter":5326,"(?=":5327,"ĠQu":5328,"Ġmultipart":5329,"Ġconsider":5330,"ĠDatabaseFeatures":5331,"mmaryWriter":5332,"Ġ2008":5333,"Ġmatches":5334,"waitKey":5335,"ĠZIP":5336,"enumerator":5337,"deploy":5338,"clear":5339,"ldflags":5340,"SIZE":5341,"ĠAllenNLP":5342,"Enumeration":5343,"ï¼Ī":5344,"ï¼ī":5345,"There":5346,"ranges":5347,"ãģ®":5348,"Ġredirect":5349,"ĠSummaryWriter":5350,"Ġuritemplate":5351,"Ġissues":5352,"ĠPipSession":5353,"ĠLOGGER":5354,"Ġoptimizer":5355,"widgets":5356,"Ġdocutils":5357,"Buil":5358,"Ġwinreg":5359,"859":5360,"OPEN":5361,"Ordered":5362,"ĠKeyError":5363,"ĠNumber":5364,"ĠCodec":5365,"Ġproblem":5366,"ĠMaxRetryError":5367,"âĸĪâķĹ":5368,"Package":5369,"Ġoccurs":5370,"Supported":5371,"viding":5372,"ortcuts":5373,"ĠIPv":5374,"Ġvarname":5375,"ĠMarkup":5376,"Ġcorrectly":5377,"ArchiveView":5378,"Ġidea":5379,"ĠSecureTransport":5380,"Ġlocale":5381,"GRAM":5382,"certs":5383,"Ġ~~~~~~~~~~~~~~~~":5384,"erboseLogger":5385,"language":5386,"ĠTempDirectory":5387,"HelpFormatter":5388,"ĠReadTimeoutError":5389,"Ġrecommended":5390,"autog":5391,"house":5392,"linspace":5393,"Ġexplicitly":5394,"CCEPT":5395,"slots":5396,"Ġengines":5397,"deployment":5398,"\"\\":5399,"\"}<":5400,")-":5401,")``":5402,"8859":5403,"=(":5404,">:":5405,"?,":5406,"Callable":5407,"DJANGO":5408,"ELS":5409,"FRA":5410,"FFIX":5411,"GA":5412,"GLOBAL":5413,"Hook":5414,"KIP":5415,"MQ":5416,"Map":5417,"Match":5418,"Norm":5419,"Null":5420,"OINTER":5421,"Por":5422,"PEP":5423,"PTR":5424,"Sc":5425,"Sh":5426,"SNI":5427,"Sampler":5428,"SKIP":5429,"Target":5430,"Use":5431,"Windows":5432,"WARNING":5433,"Za":5434,"Zone":5435,"ZMQ":5436,"`_":5437,"azy":5438,"ailed":5439,"bs":5440,"cing":5441,"cid":5442,"dl":5443,"easy":5444,"fc":5445,"factory":5446,"gzip":5447,"ier":5448,"iver":5449,"linux":5450,"mas":5451,"nter":5452,"nam":5453,"oolean":5454,"ppro":5455,"publicId":5456,"rConfig":5457,"sm":5458,"sup":5459,"sources":5460,"sole":5461,"uc":5462,"uint":5463,"win":5464,"zeros":5465,"}.":5466,"},<":5467,"}({":5468,"Ð°":5469,"ç»":5470,"Ġed":5471,"Ġli":5472,"Ġhead":5473,"Ġends":5474,"Ġ40":5475,"ĠâĸĪâĸĪâķĳ":5476,"ork":5477,"ination":5478,"invalid":5479,"erge":5480,"ones":5481,"onth":5482,"send":5483,"sections":5484,"implement":5485,"ropped":5486,"Ġtitle":5487,"atter":5488,"stock":5489,"alph":5490,"Ġpx":5491,"Ġplay":5492,"Ġcallable":5493,"Ġcause":5494,"ani":5495,"anose":5496,"Ġrece":5497,"Ġrestr":5498,"Ġrequire":5499,"Ġfix":5500,"Ġfallback":5501,"Ġfeature":5502,"ssian":5503,"Ġder":5504,"Ġdid":5505,"getopt":5506,"Ġsat":5507,"Ġslight":5508,"isolation":5509,"utes":5510,"acti":5511,"Ġinteger":5512,"logs":5513,"lambda":5514,"Ġ\":":5515,"Ġwalker":5516,"Ġwritten":5517,"units":5518,"eser":5519,"exp":5520,"fier":5521,"ĠTEXT":5522,"ĠTakes":5523,"ĠTags":5524,"eck":5525,"Ġmost":5526,"addo":5527,"Ġdefines":5528,"Ġtool":5529,"ilation":5530,"Ġforms":5531,"atever":5532,"ĠSE":5533,"ĠSome":5534,"ĠShow":5535,"ĠScanner":5536,"ĠPref":5537,"ĠPep":5538,"ĠPost":5539,"ĠPOINTER":5540,"ably":5541,"about":5542,"ipv":5543,"ĠCA":5544,"ĠCallback":5545,"ationResult":5546,"ĠDAT":5547,"ĠAN":5548,"ĠAc":5549,"ĠAre":5550,"ĠLock":5551,"serialize":5552,"namedtuple":5553,"setter":5554,"setLe":5555,"spath":5556,"Ġ.__":5557,"Ġ.._":5558,"change":5559,"()`":5560,"Ġraw":5561,"ĠFore":5562,"ĠFunc":5563,"ĠFinder":5564,"Ġlower":5565,"Ġprocessed":5566,"Ġdeal":5567,"Ġdeprecation":5568,"veri":5569,"verride":5570,"tegr":5571,"Ġhuman":5572,"umb":5573,"ular":5574,"(\"-":5575,"(\"--":5576,"paration":5577,"parts":5578,"ĠBack":5579,"',\"":5580,"ĠOperation":5581,"ctor":5582,"apped":5583,"ĠHand":5584,"Ġwhitespace":5585,"Ġwhatever":5586,"Inspect":5587,"scatter":5588,"outfiles":5589,"('/":5590,"ConnectTimeoutError":5591,"versioncontrol":5592,"comment":5593,"Ġselect":5594,"ĠReverseIP":5595,"001":5596,"0000":5597,"0001":5598,"END":5599,"found":5600,"INE":5601,"ĠVER":5602,"Ġmade":5603,"Ġmaintain":5604,"mbre":5605,"TICKET":5606,"ĠWarning":5607,"ĠWARNING":5608,"ĠWKT":5609,"Ġurljoin":5610,"Ġpassword":5611,"reader":5612,"configuration":5613,"Loss":5614,"Ġtrain":5615,"dataElements":5616,"STAT":5617,"ĠAnchor":5618,"Ġprevent":5619,"Ġpreparation":5620,"ĠDistlibException":5621,"ĠRun":5622,"ĠRec":5623,"ĠRNG":5624,"osx":5625,"Ġpyssql":5626,"lask":5627,"ĠnumB":5628,"ĠDOWNLOAD":5629,"ĠContain":5630,"Ġkeyboard":5631,"These":5632,"Ġrunner":5633,"tests":5634,"grpc":5635,"ĠNotSupported":5636,"Ġlazy":5637,"Union":5638,"Ġtesting":5639,"aries":5640,"ignAttributes":5641,"presenter":5642,"NUM":5643,"Ġscene":5644,"Implementation":5645,"redirect":5646,"redenti":5647,"Ġencodings":5648,"issue":5649,"Ġtermin":5650,"Enable":5651,"aking":5652,"methods":5653,"entially":5654,"dispatch":5655,"Ġinterpre":5656,"ĠInvalidHeader":5657,"DOCTYPE":5658,"HTTPWarning":5659,"Keyboard":5660,"cluding":5661,"such":5662,"insert":5663,"onical":5664,"systemId":5665,"DataZMQ":5666,"Ġindent":5667,"note":5668,"ĠSpecifierSet":5669,"Transform":5670,"Service":5671,"Ġexpects":5672,"izedFormat":5673,"Ġcases":5674,"Ġunpackb":5675,"chars":5676,"riting":5677,"Doc":5678,"]+\\":5679,"Ġspecial":5680,"Ġhandlers":5681,"Ġworking":5682,"canonicalize":5683,"regexp":5684,"Ġactions":5685,"aussian":5686,"contenttypes":5687,"ĠSSLError":5688,"ĠSSLTransport":5689,"Template":5690,"ASET":5691,"ĠEncoding":5692,"Ġexisting":5693,"âĸĪâĸĪâķĳâĸĳâĸĳ":5694,"Tokenizer":5695,"month":5696,"xmlrpc":5697,"âĸĪâĸĪâĸĪâĸĪâĸĪâĸĪ":5698,"connections":5699,"ĠASGI":5700,"ĠTraceback":5701,"ĠTransform":5702,"Ġstarting":5703,"Ġtuples":5704,"Ġcreating":5705,"ĠUpload":5706,"ĠHTMLInput":5707,"Ġexecutable":5708,"cursor":5709,"year":5710,"Ġproduction":5711,"ĠUnpacker":5712,"(.*)\")<":5713,"ALIZ":5714,"ValidationError":5715,"Build":5716,"etchDataZMQ":5717,"lru":5718,"Ġpower":5719,"ĠOSError":5720,"ĠCacheController":5721,"ĠCacheControlAdapter":5722,"EmailBackend":5723,"Recurs":5724,"Ġetc":5725,"Ġquote":5726,"veni":5727,"âĸĢâĸĢ":5728,"Creates":5729,"enclos":5730,"Ġdescribed":5731,"ĠModules":5732,"ĠOpenSSL":5733,"SUFFIX":5734,"Executor":5735,"DataFlow":5736,"ĠInlineKeyboard":5737,"FIELDNAMES":5738,"Caller":5739,"ĠÐ³":5740,"Ġpurposes":5741,"Ġfinding":5742,"trained":5743,"BasicAuth":5744,"Details":5745,"namespaceURI":5746,"ĠModel":5747,"Ġparsedate":5748,"AbstractDistribution":5749,"flood":5750,"Ġpadding":5751,"Ġsimply":5752,"âĸĲâĸĪ":5753,"ExtType":5754,"ForeignAttributes":5755,"normalizer":5756,"ÅŁt":5757,"ulnerable":5758,"ĠOnly":5759,"ĠHiddenText":5760,"Individual":5761,"Ġscanner":5762,"whatwg":5763,"recognizedFormat":5764,"Ġconfigura":5765,"56789":5766,"ĠLookupError":5767,"IGHTS":5768,"ScalarString":5769,"Ġpotentially":5770,"Ġfavor":5771,"ĠSpecific":5772,"HookCaller":5773,"anoseconds":5774,"Ġrestriction":5775,"Ġslightly":5776,"addoption":5777,"ĠPrefetchDataZMQ":5778,"setLevel":5779,"tegrityError":5780,"Inspector":5781,"ĠVERBOSE":5782,"ĠRNGDataFlow":5783,"redentials":5784,"ĠHTMLInputStream":5785,"SUFFIXES":5786,"\"(?":5787,"\"(?:":5788,"'\".":5789,")/":5790,"-_":5791,"-]*":5792,"19":5793,"30":5794,"3986":5795,"400":5796,"=(),":5797,">)":5798,">/":5799,">``":5800,"Ak":5801,"ARE":5802,"APP":5803,"Appro":5804,"BRA":5805,"Custom":5806,"Close":5807,"Crawler":5808,"Event":5809,"Earth":5810,"FC":5811,"Find":5812,"FUN":5813,"GP":5814,"Gn":5815,"GMENT":5816,"Image":5817,"Jar":5818,"LLOW":5819,"Mod":5820,"NormalizedName":5821,"PAR":5822,"POST":5823,"Scheme":5824,"Schema":5825,"SITE":5826,"UAGE":5827,"WH":5828,"YY":5829,"[<":5830,"[\\":5831,"[^":5832,"_/":5833,"aÃ§":5834,"bad":5835,"black":5836,"bidi":5837,"bably":5838,"ctr":5839,"cice":5840,"close":5841,"dt":5842,"dic":5843,"dating":5844,"eff":5845,"epoch":5846,"fp":5847,"fact":5848,"game":5849,"ground":5850,"here":5851,"ihat":5852,"kt":5853,"kes":5854,"kik":5855,"non":5856,"npy":5857,"nom":5858,"olt":5859,"oser":5860,"ove":5861,"pd":5862,"pin":5863,"pad":5864,"qrt":5865,"rong":5866,"raise":5867,"raries":5868,"sity":5869,"some":5870,"srf":5871,"slash":5872,"tls":5873,"task":5874,"uch":5875,"uuid":5876,"vari":5877,"vulnName":5878,"ws":5879,"way":5880,"walker":5881,"wheels":5882,"xff":5883,"}\".":5884,"»ç»":5885,"Ð¾":5886,"ÑĢ":5887,"áŀ":5888,"åħ":5889,"ðŁ":5890,"Ġ,":5891,"Ġ64":5892,"Ġlabel":5893,"orith":5894,"orland":5895,"inp":5896,"inject":5897,"inct":5898,"eratationConfig":5899,"ercice":5900,"mporary":5901,"seq":5902,"ren":5903,"reset":5904,"redi":5905,"attern":5906,"atial":5907,"atibility":5908,"enu":5909,"deb":5910,"rome":5911,"let":5912,"Ġimportant":5913,"Ġpol":5914,"Ġplot":5915,"Ġpickling":5916,"Ġcare":5917,"mess":5918,"__`":5919,"ingredi":5920,"Ġreli":5921,"Ġrelat":5922,"Ġredis":5923,"itable":5924,"Ġfast":5925,"urlopen":5926,"Ġday":5927,"Ġsin":5928,"Ġside":5929,"ish":5930,"Ġow":5931,"active":5932,"Ġincluded":5933,"Ġinstru":5934,"Ġincluding":5935,"location":5936,"lam":5937,"Ġbound":5938,"Ġbundle":5939,"Ġ\"*":5940,"Ġnone":5941,"istant":5942,"Ġws":5943,"Ġwere":5944,"unix":5945,"exml":5946,"Ġmd":5947,"Ġmy":5948,"Ġmkpath":5949,"adow":5950,"ases":5951,"Ġtop":5952,"Ġcop":5953,"Ġcome":5954,"Ġcould":5955,"lim":5956,"lip":5957,"Ġ(/":5958,"otonic":5959,"ĠiÃ§":5960,"Ġ'{":5961,"getroot":5962,"getmro":5963,"appro":5964,"ĠScheme":5965,"ĠSocket":5966,"Ġask":5967,"ĠPattern":5968,"classmethod":5969,"ĠNight":5970,"ĠNEO":5971,"ely":5972,"ĠDate":5973,"ĠAlso":5974,"Ġthose":5975,"cond":5976,"convert":5977,"cher":5978,"choice":5979,"Ġvcs":5980,"Ġ_|":5981,"()'":5982,"()):<":5983,"__(<":5984,"Ġconn":5985,"Ġconv":5986,"Ġconstant":5987,"Reg":5988,"Ġloop":5989,"make":5990,"Ġdele":5991,"Ġdesign":5992,"ĠMedia":5993,"ĠUsed":5994,"Ġgetenv":5995,"Ġgetgr":5996,"teur":5997,"ĠGo":5998,"Ġgzip":5999,"(\".":6000,"(\"_":6001,"ĠBert":6002,"ĠBorland":6003,"âĸĦ":6004,"Ġunix":6005,"Ġoscrypto":6006,"Ġmetaclass":6007,"ĠOther":6008,"Ġbelow":6009,"://``":6010,"filesystem":6011,"preds":6012,"preprocess":6013,"ribute":6014,"ĠHat":6015,"ĠHEAD":6016,"ĠHeaders":6017,"olsun":6018,"InternalError":6019,"MEGA":6020,"ifler":6021,"SECU":6022,"SESSION":6023,"completion":6024,"Ġnamed":6025,"Ġnameprep":6026,"Ġones":6027,"ĠInteger":6028,"INPUT":6029,"areMixin":6030,"Ġenv":6031,"ĠVerboseLogger":6032,"usage":6033,"Ġ:\"))<":6034,"keyifler":6035,"CHANN":6036,"vious":6037,"Exercice":6038,"readthe":6039,"dom":6040,"Ġlists":6041,"Ġtrail":6042,"Ġuseful":6043,"ĠaraÃ§":6044,"INGS":6045,"\")):<":6046,"ITP":6047,"ITY":6048,"Ġattemp":6049,"Ġweakref":6050,"VersionTypeVar":6051,"bosity":6052,"ĠRandom":6053,"ĠRename":6054,"ĠRFC":6055,"Ġformatdate":6056,"Ġformatting":6057,"ĠBaseSSLError":6058,"Ġreading":6059,"SSWORD":6060,"dirname":6061,"Ġ|-":6062,"ĠNOTE":6063,"aff":6064,"afÄ±":6065,"Ġtorchvision":6066,"COUN":6067,"Ġcaches":6068,"DEF":6069,"LEMENT":6070,"ĠConnectTimeoutError":6071,"...<":6072,"ĠHTTPException":6073,"Ġsubcommand":6074,"Ġsubdomains":6075,"Ġruns":6076,"grid":6077,"ndan":6078,"Ġoutplanes":6079,"compatibility":6080,"ĠDistutilsExec":6081,"ĠDistutilsPlatform":6082,"Ġlam":6083,"shared":6084,"ĠSets":6085,"icker":6086,"Generate":6087,"need":6088,"NOWN":6089,"rawl":6090,"device":6091,"Ġfolder":6092,"Kekik":6093,"Ġ50":6094,"Ġbackwards":6095,"Ġspawn":6096,"dispose":6097,"ĠToml":6098,"ADD":6099,"Ġnewer":6100,"success":6101,"ĠExceptions":6102,"));<":6103,"Requests":6104,"Ġgenerated":6105,"schemas":6106,"logy":6107,"patial":6108,"matching":6109,"Ġpermissions":6110,"CompareMixin":6111,"supports":6112,"ĠRequestMethods":6113,"ĠProvides":6114,"abstractproperty":6115,"COLOR":6116,"Server":6117,"ViewSet":6118,"GIS":6119,"Ġresolver":6120,"Domain":6121,"pyplot":6122,"CharField":6123,"'],<":6124,"Ä±lm":6125,"Ä±ÅŁt":6126,"pho":6127,"Ġ\"\".":6128,"Ġtelegraph":6129,"ĠQueue":6130,"editor":6131,"Ġenumerate":6132,"Temporary":6133,"Ġconsistent":6134,"rows":6135,"rowser":6136,"managed":6137,"Ġretval":6138,"Ġretrie":6139,"Ġstatements":6140,"2728":6141,"ãĥ³":6142,"ãĥ¼":6143,"Ġending":6144,"monotonic":6145,"ĠArg":6146,"ĠArgs":6147,"Ġdependency":6148,"OptionParser":6149,"returns":6150,"Ġoptionally":6151,"ĠTextIO":6152,"Attribute":6153,"ĠAlter":6154,"ĠConfigOptionParser":6155,"Upper":6156,"ĠFIX":6157,"container":6158,"arguments":6159,"Ġasync":6160,"Ġseparated":6161,"operators":6162,"ĠâĸĦ":6163,"unpacked":6164,"ANGUAGE":6165,"MODE":6166,"Ġincludes":6167,"ĠIOError":6168,"scanner":6169,"Markup":6170,"clus":6171,"Ġopts":6172,"Ġlogical":6173,"Ġpostgres":6174,"PPORT":6175,"Ġfullname":6176,"ĠEnumeratationConfig":6177,"))?\"<":6178,"================":6179,"System":6180,"ĠtarafÄ±":6181,"Ġdownsample":6182,"Ġmodify":6183,"ĠPermission":6184,"\"^(?:":6185,"})>":6186,"Ġfrontend":6187,"Ġproblems":6188,"ArgumentParser":6189,"resolvelib":6190,"btn":6191,"cookielib":6192,">~~~~~~~~~~~~~~<":6193,"euclidean":6194,"Ġinvok":6195,"UsedContainer":6196,"ademi":6197,"wrappers":6198,"å®ļ":6199,"ĠTODO":6200,"QUI":6201,"ĠHashMis":6202,"Ġalgorith":6203,"BasedCompareMixin":6204,"ĠProxyError":6205,"AlterField":6206,"allennlp":6207,"ublished":6208,"completeRead":6209,"Ġpatterns":6210,"Ġtzinfo":6211,"Ġcriterion":6212,"entlyUsedContainer":6213,"CookieJar":6214,"Processor":6215,"Letters":6216,"Ġlibraries":6217,"annels":6218,"ĠUTF":6219,"screenx":6220,"ĠyazÄ±lm":6221,"MSG":6222,"Ġinserted":6223,"Ġconsidered":6224,"FRAGMENT":6225,"Ġderived":6226,"ĠHandle":6227,"Recursive":6228,"Akademi":6229,"ihatexml":6230,"variant":6231,"ingredients":6232,"Ġinstructions":6233,"ĠiÃ§in":6234,"Ġgetgrnam":6235,"SECURE":6236,"keyiflerolsun":6237,"readthedocs":6238,"COUNT":6239,"ĠDistutilsExecError":6240,"ĠDistutilsPlatformError":6241,"KekikAkademi":6242,"Ä±ÅŁtÄ±r":6243,"ĠtarafÄ±ndan":6244,"ĠHashMismatch":6245,"ĠyazÄ±lmÄ±ÅŁtÄ±r":6246,"!\")<":6247,"#(.*":6248,"'\\":6249,")(":6250,")>":6251,")]<":6252,"-=":6253,"-\\":6254,"/?#]*":6255,"15":6256,"199":6257,"35":6258,"37":6259,"46":6260,"440":6261,"500":6262,"65":6263,"86":6264,"91":6265,">|":6266,">..":6267,"?([^":6268,"AM":6269,"Ag":6270,"Bit":6271,"Batch":6272,"CAL":6273,"From":6274,"First":6275,"GEX":6276,"Graph":6277,"GDAL":6278,"HO":6279,"Hi":6280,"Host":6281,"It":6282,"IME":6283,"LY":6284,"LATE":6285,"Line":6286,"LegacyVersion":6287,"MIN":6288,"MATCH":6289,"Non":6290,"OL":6291,"OM":6292,"PL":6293,"Per":6294,"Pass":6295,"PORT":6296,"PRO":6297,"SA":6298,"Send":6299,"Single":6300,"TOR":6301,"Table":6302,"Tok":6303,"Tags":6304,"UP":6305,"USE":6306,"VAL":6307,"Video":6308,"When":6309,"WKT":6310,"XX":6311,"[(":6312,"\\\",":6313,"ba":6314,"bro":6315,"ca":6316,"cr":6317,"cat":6318,"cap":6319,"dan":6320,"dif":6321,"driver":6322,"datasets":6323,"eign":6324,"elementTree":6325,"embed":6326,"empty":6327,"flat":6328,"ffix":6329,"fqd":6330,"gon":6331,"gen":6332,"given":6333,"hn":6334,"hig":6335,"home":6336,"lon":6337,"llic":6338,"mor":6339,"migr":6340,"null":6341,"plit":6342,"pep":6343,"qr":6344,"ratio":6345,"sl":6346,"tection":6347,"ui":6348,"uish":6349,"vale":6350,"vOptions":6351,"wb":6352,"xception":6353,"xies":6354,"³»ç»":6355,"ä»":6356,"çļ":6357,"ç³»ç»":6358,"è¡":6359,"Ġ8":6360,"ĠOR":6361,"Ġlabels":6362,"ŁåºĶçĶ¨":6363,"oring":6364,"orator":6365,"ini":6366,"ins":6367,"into":6368,"inery":6369,"inspect":6370,"initialize":6371,"onent":6372,"seed":6373,"impl":6374,"Ġttype":6375,"develop":6376,"Ġalabel":6377,"Ġaudio":6378,"lear":6379,"leve":6380,"tire":6381,"alter":6382,"Ġpic":6383,"Ġpai":6384,"Ġpublic":6385,"Ġplus":6386,"Ġcl":6387,"Ġcm":6388,"Ġcar":6389,"medi":6390,"__).":6391,"inguish":6392,"Ġrem":6393,"Ġrend":6394,"Ġreponse":6395,"Ġredu":6396,"arge":6397,"Ġfig":6398,"Ġdst":6399,"Ġsignal":6400,"Ġscope":6401,"Ġol":6402,"Ġinher":6403,"icies":6404,"Ġban":6405,"counter":6406,"Ġnd":6407,"Ġnormal":6408,">#:":6409,"Ġwindow":6410,"Ġwindows":6411,"Ġwindll":6412,"uninstall":6413,"entrypoints":6414,"ĠTask":6415,"ĠTxtOutput":6416,"Ġmi":6417,"Ġmix":6418,"Ġmiddleware":6419,"Ġmerge":6420,"Ġmonth":6421,"idna":6422,"adv":6423,"adapter":6424,"ceil":6425,"rillic":6426,"this":6427,"today":6428,"Ġtogether":6429,"Ġcomb":6430,"lier":6431,"ots":6432,"otation":6433,"Ġiglob":6434,"ateg":6435,"Ġanother":6436,"Ġ'*":6437,"ĠSo":6438,"ĠSite":6439,"ĠSund":6440,"ĠScalar":6441,"ĠPri":6442,"ĠPass":6443,"olution":6444,"ĠCertificate":6445,"acking":6446,"andHolder":6447,"elcome":6448,"intranges":6449,"Ġthing":6450,"constant":6451,"asure":6452,"ĠLog":6453,"ĠLinux":6454,"namespaces":6455,"spatial":6456,"ggregate":6457,"Ġvisit":6458,"ĠvulnInfo":6459,"etval":6460,"Ġrand":6461,"Ġ`__":6462,"Ġulabel":6463,"ĠudB":6464,"mmutable":6465,"Ġloader":6466,"force":6467,"forwards":6468,"Ġprofile":6469,"Ġprogram":6470,"Ġproviding":6471,"Ġprobably":6472,"Ġdeprecated":6473,"\",\"":6474,"ĠMIME":6475,"perandHolder":6476,"Ġgets":6477,"iref":6478,"irections":6479,"quential":6480,"ĠGe":6481,"Ġgen":6482,"Ġhapp":6483,"umns":6484,"âĸĵ":6485,"Ġemit":6486,"Ġunsu":6487,"Ġunless":6488,"Ġ255":6489,"Ġmeant":6490,"igu":6491,"Ġbecome":6492,"filepost":6493,"Ġparses":6494,"pretrained":6495,"ĠHAS":6496,"Integer":6497,"ĠĠĠĠĠĠĠĠĠĠĠĠĠĠ":6498,"Ġstar":6499,"Ġstore":6500,"Ġstep":6501,"Ġstop":6502,"Ġstorage":6503,"('\\":6504,"('--":6505,"combin":6506,"SETT":6507,"SException":6508,"Ġseg":6509,"Ġsection":6510,"Ġsecret":6511,"compil":6512,"ĠRevOptions":6513,"Ġ128":6514,"ferences":6515,"Ġcompile":6516,"Ġcompteur":6517,"ĠIntegrityError":6518,"Ġenvironment":6519,"Ġengine":6520,"Ġentities":6521,"~~~~~<":6522,"Ġabove":6523,"Ġintrospection":6524,"aginator":6525,"oku":6526,"Ġshort":6527,"keywords":6528,"Ġexit":6529,"Ġexposes":6530,"Ġmakes":6531,"Ġcodes":6532,"mbigu":6533,"CHAT":6534,"CHAR":6535,"ĠWork":6536,"Ġurlencode":6537,"Ġliste":6538,"formdata":6539,"Could":6540,"ERT":6541,"RECT":6542,"REGEX":6543,"ĠGenerate":6544,"Ġdoing":6545,"Ġdouble":6546,"IText":6547,"lications":6548,"TIMEOUT":6549,"symbols":6550,"Ġatom":6551,"ĠImplement":6552,"Ġbasename":6553,"Ġbasestring":6554,"iveServer":6555,"ĠUnparsedVersion":6556,"backwards":6557,"Ġ32":6558,"Ġ300":6559,"Ġ302":6560,"lug":6561,"SSchemaEditor":6562,"Ġupdated":6563,"number":6564,"hello":6565,"],\"\\":6566,"Store":6567,"ucture":6568,"raster":6569,"Ġzone":6570,"Setup":6571,"ĠVersionControl":6572,"grad":6573,"Delete":6574,"Ġpop":6575,"ALP":6576,"ĠDistutilsInternalError":6577,"shortcuts":6578,"shgrid":6579,"many":6580,"ĠStatic":6581,"entities":6582,"builder":6583,"DOWNLOAD":6584,"Provide":6585,"EXCL":6586,"defaults":6587,"Ġaddtor":6588,"Ġmaximum":6589,"ĠExit":6590,"Distutils":6591,"achinery":6592,"Sequence":6593,"Sequential":6594,"ĠDecodeError":6595,"ĠFiles":6596,"ĠFileList":6597,"aving":6598,"DIS":6599,"ĠProgramm":6600,"DatabaseError":6601,"DatabaseWrapper":6602,"nodes":6603,"Ġverify":6604,"Ġexpire":6605,"Ġstructures":6606,"GISSchemaEditor":6607,"Ġreply":6608,"ĠCallableOperator":6609,"endencies":6610,"ĠLoad":6611,"Ġtranslation":6612,"Ġtransaction":6613,"):)?":6614,"Ä±n":6615,"PYOPEN":6616,"markers":6617,"APIException":6618,"Ġauthentication":6619,"ĠResolver":6620,"aused":6621,"Ġextracted":6622,"Ġskimage":6623,"([^}":6624,"([^?#]*":6625,"ĠDatabaseWrapper":6626,"Ġapproach":6627,"blocks":6628,"tzinfo":6629,"dependencies":6630,"Ġbinascii":6631,"execute":6632,"TEST":6633,"mongo":6634,"Ġenter":6635,"Ġentry":6636,"ĠGEOSFunc":6637,"ĉĉĉĉ":6638,"Ġminor":6639,"Ġbuilding":6640,"priv":6641,"extras":6642,"extract":6643,"ĠTrans":6644,"FactoryFactory":6645,"ROOT":6646,"Update":6647,"errcheck":6648,"revers":6649,"Ġmove":6650,"Ġmoving":6651,"ĠTemplateDoesNotExist":6652,"Ġoverrides":6653,"Ġreports":6654,"ĠBinaryIO":6655,"Ġexecute":6656,"bitwise":6657,"gresOperator":6658,"sklearn":6659,"resolver":6660,"ĠTimeoutState":6661,"Thread":6662,"Ġtables":6663,"Ġbetter":6664,"Ġchanges":6665,"Color":6666,"MissingWarning":6667,"ĠPipError":6668,"Ġgeom":6669,"Ġgeometry":6670,"Ġrights":6671,"ĠasciiUpper":6672,"ĠasciiLetters":6673,"âķĿâķļ":6674,"ĠResponseError":6675,"CLI":6676,"USERS":6677,"ĠStrictVersion":6678,"ĠStructure":6679,"ĠAttributes":6680,"Ġalpha":6681,"prepare":6682,"\"^\\":6683,"ĠThere":6684,"ĠThread":6685,"Ġspecification":6686,"AllWindows":6687,"ĠSNIMissingWarning":6688,"Ġeventually":6689,"DataFrame":6690,"7498":6691,"MPLATE":6692,"VIDED":6693,"threading":6694,"ĠInstead":6695,"ĠIncrementalDecoder":6696,"webm":6697,"DATASET":6698,"PlatformWarning":6699,"wrapped":6700,"Ġadapters":6701,"Ġscreeny":6702,"ChildNodes":6703,"fragment":6704,"termines":6705,"ĠSpinner":6706,"Ġdevelopment":6707,"Ġbytearray":6708,"IncrementalDecoder":6709,"Ġsuccessful":6710,"ĠHowever":6711,"ĠGEOSException":6712,"Dependency":6713,"Ġactually":6714,"Ġprepare":6715,"Ġregistry":6716,"ĠIndexError":6717,"HTTPConnectionPool":6718,"ĠSuspiciousOperation":6719,"Filename":6720,"Ġdotenv":6721,"destroyAllWindows":6722,"Ġtkinter":6723,"defining":6724,"(\"{([^}":6725,"ĠInsecurePlatformWarning":6726,"âĸĪâĸĪâķĶâķĲâķĲ":6727,"(?=\\":6728,"EnumerationTime":6729,"Builder":6730,"?,?,":6731,"ĠContainer":6732,"ĠNotSupportedError":6733,"venience":6734,"Approach":6735,"CloseApproach":6736,"Ġpolicies":6737,"viously":6738,"TemporaryFile":6739,"ĠArgumentParser":6740,"ĠFIXME":6741,"})>\".":6742,"#(.*))?":6743,"?([^#]*":6744,"BatchNorm":6745,"fqdn":6746,"migrate":6747,"çļĦ":6748,"ç³»ç»ŁåºĶçĶ¨":6749,"Ġinherit":6750,"ĠSunday":6751,"ĠCertificateError":6752,"Ġunsuitable":6753,"SETTINGS":6754,"Ġatomic":6755,"iveServerTestCase":6756,"Ġaddtoretval":6757,"PYOPENSSL":6758,"ĠGEOSFuncFactory":6759,"gresOperatorLookup":6760,"ĠTimeoutStateError":6761,"!!":6762,"\"[-":6763,"\"(\\":6764,"$\\":6765,"$\")<":6766,"'}<":6767,")}<":6768,"+)":6769,"++":6770,"-'":6771,".|":6772,".)<":6773,".\",<":6774,".'<":6775,".]+":6776,"/'":6777,"14":6778,"155":6779,"45":6780,"860":6781,"874":6782,"90":6783,":\\":6784,">âĸĳ":6785,"AV":6786,"Av":6787,"Ban":6788,"Bound":6789,"Button":6790,"Bidi":6791,"Classes":6792,"Cast":6793,"DLE":6794,"End":6795,"ELEMENT":6796,"Flow":6797,"Feature":6798,"Hash":6799,"HOST":6800,"LINE":6801,"LANGUAGE":6802,"Mac":6803,"MIS":6804,"ODE":6805,"Operations":6806,"PM":6807,"Page":6808,"PER":6809,"Pickle":6810,"Point":6811,"Qu":6812,"Su":6813,"Sur":6814,"Sib":6815,"Swagger":6816,"SUCCESS":6817,"Scope":6818,"Spatial":6819,"TA":6820,"Tag":6821,"UI":6822,"Url":6823,"WG":6824,"WM":6825,"WR":6826,"Wheel":6827,"]%":6828,"]:":6829,"]>":6830,"]')<":6831,"]),":6832,"]+=":6833,"_.]+":6834,"aat":6835,"bet":6836,"blit":6837,"bold":6838,"blue":6839,"blake":6840,"browser":6841,"cd":6842,"cython":6843,"cpp":6844,"cert":6845,"crawler":6846,"crt":6847,"certifi":6848,"cdataElements":6849,"dig":6850,"dence":6851,"dataset":6852,"dater":6853,"dumb":6854,"ess":6855,"full":6856,"fallback":6857,"fetch":6858,"gid":6859,"gmail":6860,"han":6861,"hol":6862,"hang":6863,"hmac":6864,"jk":6865,"jit":6866,"mli":6867,"mup":6868,"nod":6869,"norm":6870,"ntax":6871,"nfc":6872,"pl":6873,"ped":6874,"power":6875,"sage":6876,"single":6877,"snip":6878,"srid":6879,"sHelpFormatter":6880,"tre":6881,"tar":6882,"tli":6883,"tlen":6884,"tColor":6885,"udo":6886,"visit":6887,"vmess":6888,"wd":6889,"wik":6890,"zz":6891,"zero":6892,"{[":6893,"£ħ":6894,"Ãł":6895,"Ð±":6896,"áŁ":6897,"åĪ":6898,"æľ":6899,"è£ħ":6900,"Ġes":6901,"ĠâĸĪâĸĪ":6902,"īè£ħ":6903,"orry":6904,"inv":6905,"include":6906,"erly":6907,"ertain":6908,"sen":6909,"seil":6910,"seconds":6911,"secret":6912,"security":6913,"rem":6914,"rename":6915,"resp":6916,"ression":6917,"remap":6918,"related":6919,"releve":6920,"references":6921,"router":6922,"rogate":6923,"Ġtries":6924,"Ġtidx":6925,"stere":6926,"stored":6927,"enied":6928,"Ġaff":6929,"lel":6930,"leach":6931,"Ġimporter":6932,"tition":6933,"alg":6934,"alind":6935,"alcul":6936,"allel":6937,"Ġplan":6938,"ĠpublicId":6939,"Ġphoto":6940,"Ġce":6941,"Ġcr":6942,"Ġcli":6943,"Ġcertifi":6944,"Ġcandidates":6945,"Ġcertain":6946,"anno":6947,"meshgrid":6948,"__\",":6949,"Ġreal":6950,"Ġresp":6951,"Ġrespon":6952,"itow":6953,"Ġfp":6954,"Ġfed":6955,"Ġframe":6956,"ssal":6957,"Ġdt":6958,"Ġdry":6959,"Ġdrop":6960,"Ġdilation":6961,"ges":6962,"geto":6963,"geom":6964,"Ġsure":6965,"Ġsources":6966,"Ġsrc":6967,"Ġsqrt":6968,"ising":6969,"ished":6970,"Ġocc":6971,"access":6972,"Ġintern":6973,"Ġinline":6974,"Ġincremental":6975,"deflate":6976,"ici":6977,"icer":6978,"lain":6979,"Ġbad":6980,"Ġbns":6981,"cost":6982,"cols":6983,"comm":6984,"Ġ\"&":6985,"edGraph":6986,"Ġnog":6987,"Ġnative":6988,"Ġnull":6989,"Ġnanoseconds":6990,"Ġwild":6991,"Ġwrapp":6992,"Ġwriting":6993,"Ġwrong":6994,"unce":6995,"under":6996,"unnamed":6997,"exto":6998,"exclus":6999,"ĠTF":7000,"ĠTurn":7001,"ective":7002,"ecorator":7003,"Ġmk":7004,"Ġmus":7005,"Ġmuch":7006,"identi":7007,"Ġdefine":7008,"rivers":7009,"too":7010,"Ġtoday":7011,"Ġtotal":7012,"----<":7013,"lieu":7014,"erscore":7015,"Ġ(...":7016,"ilent":7017,"Ġimmutable":7018,"Ġforeign":7019,"ately":7020,"Ġ')<":7021,"Ġ'',":7022,"Ġ'''":7023,"getenv":7024,"getTreeWalker":7025,"ĠSc":7026,"ĠSty":7027,"ĠPM":7028,"ĠProm":7029,"abel":7030,"absolute":7031,"ablis":7032,"abseil":7033,"ĠCan":7034,"ĠClass":7035,"ĠCore":7036,"ellow":7037,"ĠDeser":7038,"ileError":7039,"ĠAs":7040,"ĠActor":7041,"integ":7042,"consu":7043,"concat":7044,"asc":7045,"asd":7046,"ĠLAB":7047,"ATWG":7048,"splash":7049,"protected":7050,"ORY":7051,"chart":7052,"chard":7053,"Ġvary":7054,"Ġvide":7055,"Ġvoice":7056,"ĠvulnName":7057,"().<":7058,"()]<":7059,"ĠrcdataElements":7060,"buy":7061,"bugs":7062,"Ġ`.":7063,"Ġ``<":7064,"Reverse":7065,"ĠFlask":7066,"Ġlock":7067,"Ġlooks":7068,"quees":7069,"extend":7070,"mass":7071,"Ġprotected":7072,"Ġproduct":7073,"Ġprotection":7074,"Ġdev":7075,"Ġdest":7076,"Ġdeprec":7077,"\",)<":7078,"ĠMS":7079,"ĠMac":7080,"ĠUR":7081,"ĠURI":7082,"ĠUsers":7083,"ĠgetNode":7084,"Ġgu":7085,"Ġgid":7086,"Ġgpu":7087,"Ġdistinguish":7088,"Ġhow":7089,"Ġhou":7090,"aix":7091,"ĠBasic":7092,"ĠBASE":7093,"ĠBlur":7094,"Ġek":7095,"Ġelt":7096,"Ġeff":7097,"Ġeven":7098,"Ġeuc":7099,"FORMERS":7100,"Ġ27":7101,"ĠOne":7102,"://\",":7103,"ctx":7104,"Ġparameter":7105,"press":7106,"predictor":7107,"Ġordered":7108,"ĠHe":7109,"ĠHolds":7110,"ĠEX":7111,"ĠEOF":7112,"protocol":7113,"Ġstill":7114,"Ġstarts":7115,"versions":7116,"coming":7117,"Ġsequence":7118,"Ġsecond":7119,"component":7120,"endorImport":7121,"ĠReport":7122,"ĠRemote":7123,"Ġ13":7124,"ayssal":7125,"contexto":7126,"ĠInterface":7127,"foo":7128,"Ġencoder":7129,"ĠVendorImport":7130,"ush":7131,"ives":7132,"Ġintention":7133,"okri":7134,"Ġ+<":7135,"Ġcolors":7136,"Ġcollect":7137,"Ġexpos":7138,"Ġexcl":7139,"ĠWKB":7140,"Ġurlun":7141,"modes":7142,"columns":7143,"ĠmoduleFactoryFactory":7144,"doptions":7145,"distributed":7146,"Ġchunks":7147,"resize":7148,"``.":7149,"024":7150,"mlink":7151,"Location":7152,"REP":7153,"RES":7154,"RESET":7155,"REQUI":7156,"REDIS":7157,"Ġtra":7158,"Ġtrack":7159,"ĠGeneric":7160,"Ġarch":7161,"Ġarray":7162,"ĠYear":7163,"lick":7164,"ourceCache":7165,"ansitow":7166,"validate":7167,"validators":7168,"Ġunderlying":7169,"Ġrout":7170,"ĠUnsupported":7171,"ĠUnknown":7172,"Ġxspace":7173,"Ġpreprocess":7174,"ĠRaised":7175,"ĠRaise":7176,"ĠRPM":7177,"Ġsym":7178,"Ġsymlink":7179,"ĠCommandHandler":7180,"Ġformatter":7181,"FieldMixin":7182,"Ġpyopen":7183,"Ġpyautog":7184,"ibly":7185,"mini":7186,"PIP":7187,"BaseModel":7188,"BaseSpecifier":7189,"illon":7190,"Ġdefaults":7191,"numA":7192,"01234":7193,"ðĿĶ":7194,"Ġapply":7195,"Ġapplications":7196,"afk":7197,"after":7198,"rays":7199,"ARY":7200,"CODE":7201,"DELETE":7202,"Ġnopython":7203,"Ġnombre":7204,"LEGRAM":7205,"ĠContact":7206,"UND":7207,"epat":7208,"epgram":7209,"Ġzeros":7210,"builders":7211,"urred":7212,"urrenc":7213,"callable":7214,"bye":7215,"Ġsubclasses":7216,"abcdef":7217,"Ġimplementations":7218,"Ġoutfiles":7219,"compatible":7220,"TimeError":7221,"Timezone":7222,"TimeZone":7223,"Ġinputs":7224,"specs":7225,"formats":7226,"UnrecognizedFormat":7227,"ignore":7228,"Parti":7229,"Params":7230,"Ġsomefile":7231,"Ġsomeother":7232,"images":7233,"LScheme":7234,"Ġscale":7235,"FFSET":7236,"Ġinstalling":7237,"]['":7238,"lanchard":7239,"NOFO":7240,"endswith":7241,"Ġterm":7242,"ĠĠĠĠĠĠĠĠĠĠĠĠĠĠĠĠĠĠĠĠ":7243,"akik":7244,"LOGGER":7245,"transaction":7246,"Ġbackends":7247,"Ġbackports":7248,"127":7249,"128":7250,"Ġspacy":7251,"WEB":7252,"WEIGHTS":7253,"disp":7254,"Channel":7255,"ĠInvalidCodepoint":7256,"DOUT":7257,"ADME":7258,"FileError":7259,"milieu":7260,"ĠJust":7261,"Ġpkgutil":7262,"crete":7263,"Ġnewname":7264,"Ġmaxvals":7265,"Keyword":7266,"Ġfollows":7267,"Ġactive":7268,"RequestError":7269,"Ġgeneric":7270,"Ġ*_:":7271,"sched":7272,"Ġvalidators":7273,"TreeBuilder":7274,"Ġapkpath":7275,"Ġinstallable":7276,"Ġcalling":7277,"DistlibException":7278,"ĠTelegram":7279,"MLDecodeError":7280,"runner":7281,"ĠDetermines":7282,"ification":7283,"avily":7284,"ĠAPIView":7285,"contextj":7286,"contextmanager":7287,"Ġextraction":7288,"DIRECT":7289,"Ġtwine":7290,"DatabaseFeatures":7291,"nodeValue":7292,"hashlib":7293,"Ġ427":7294,"externally":7295,"ABASE":7296,"Ġtokenizer":7297,"]*)}":7298,"Ġhealth":7299,"Ġdepth":7300,"safestring":7301,"PRETER":7302,"PRESSION":7303,"ĠDataLoss":7304,"ĠDataProcessor":7305,"Ġhandled":7306,"ĠPYTHON":7307,"ĠPYTOR":7308,"Ġtranslate":7309,"VERBOSE":7310,"ĠDoes":7311,"TYPES":7312,"cyrillic":7313,"Ġreferenc":7314,"Ġsortie":7315,"editable":7316,"Installer":7317,"InstallationResult":7318,"Ġxmlrpc":7319,"Ġextracting":7320,"netloc":7321,"wraps":7322,"Ġsklearn":7323,"([^\\":7324,"Ġposition":7325,"ĠDatabaseError":7326,"InvalidCodepoint":7327,"TERN":7328,"details":7329,"cvtColor":7330,"blocking":7331,"dumps":7332,"instead":7333,"COMP":7334,"COMPRESSION":7335,"Ġcovered":7336,"ĠNoReturn":7337,"ĠNoReverse":7338,"FOUND":7339,"hooks":7340,"revctr":7341,"stdlib":7342,"reshold":7343,"Ġusages":7344,"StreamHandler":7345,"StreamWriter":7346,"StreamReader":7347,"MAIL":7348,"signals":7349,"Ġexecutor":7350,"Ġrenderers":7351,"KEYS":7352,"Ġpatches":7353,"Ġredact":7354,"ĠINFO":7355,"optimize":7356,"JSONField":7357,"2015":7358,"Ġparenthes":7359,"ĠCreateModel":7360,"ĠLOGS":7361,"ĠsystemId":7362,"Ġoptimization":7363,"DBFeature":7364,"Heuristic":7365,"OutputFieldMixin":7366,"plotly":7367,"Ġwelcome":7368,"ĠChange":7369,"CommentType":7370,"ĠLibraryLoader":7371,"PATTERN":7372,"Ġsolve":7373,"=[]<":7374,"CTRL":7375,"Utility":7376,"ĠSHO":7377,"ReadTimeoutError":7378,"('.')<":7379,"CURITY":7380,"PASSWORD":7381,"ĠKenneth":7382,"ĠAuthInfo":7383,"Ġlooked":7384,"Author":7385,"OPTIONS":7386,"lural":7387,"Ġdigits":7388,"lookups":7389,"ĠNumPy":7390,"Ġstaticfiles":7391,"INTERPRETER":7392,"ĠNamedTemporaryFile":7393,"44860":7394,"CONN":7395,"CONFIG":7396,"Ġprimary":7397,"examples":7398,"Ġdescribing":7399,"ĠElementTreeCommentType":7400,"Ġhandles":7401,"################################":7402,"Ġtrees":7403,"Ġtreew":7404,"ĠParser":7405,"ĠParsedVersion":7406,"âĸĪâķĶ":7407,"DownloadStatus":7408,"Packer":7409,"mystere":7410,"ericOutputFieldMixin":7411,"Ġtried":7412,"Ġctx":7413,"ĠIncrementalEncoder":7414,"indentation":7415,"StrField":7416,"drawing":7417,"pkgs":7418,"å®īè£ħ":7419,"Ġpersonal":7420,"Ġsmall":7421,"traData":7422,"ĠMovie":7423,"docstrings":7424,"DefaultsHelpFormatter":7425,"UnpackException":7426,"UnpackValueError":7427,"CREAT":7428,"IncrementalEncoder":7429,"ĠProxyScheme":7430,"Ġparticularly":7431,"OUTPUT":7432,"tensorflow":7433,"Ġpyproject":7434,"Ġthreshold":7435,"Ġestablis":7436,"ĠInputFeatures":7437,"ĠInputExample":7438,"Ġchoiceadv":7439,"Ġreplacement":7440,")\"')<":7441,"@@@":7442,"DateTime":7443,"clazz":7444,"ä¸º":7445,"Ġdumps":7446,"ĠvoidElements":7447,"Ġevaluation":7448,"TRANSFORMERS":7449,"CoreAPIException":7450,"Iterable":7451,"twine":7452,"Ġexceeded":7453,"Ġpixelt":7454,"ĠDirectedGraph":7455,"ĠMiddlewareMixin":7456,"âĸĮâĸĲâĸĪ":7457,"ĠExtType":7458,"UNKNOWN":7459,"Ġautomatically":7460,"=\"\",":7461,"Formerly":7462,"hyphen":7463,"Ġnaturally":7464,"Ġmarquees":7465,"Ġ'''<":7466,"ĠSUPPORT":7467,"Ġconfidence":7468,"solutions":7469,"ĠadjustForeignAttributes":7470,"../../":7471,"Defect":7472,"Ġoriginally":7473,"OrderedDict":7474,"Script":7475,"super":7476,"aniye":7477,"ĠSECURITY":7478,"ĠArea":7479,"Ġmaintains":7480,"STATUS":7481,"xmlrpclib":7482,"IndividualSpecifier":7483,"-_]+\\":7484,"Modified":7485,"WHATWG":7486,"datingDefaultsHelpFormatter":7487,"effective":7488,"tasks":7489,"Ġrelies":7490,"Ġrelative":7491,"Ġsince":7492,"ĠIntegerField":7493,"CHANNEL":7494,"Ġinvoked":7495,"RecursiveTreeWalker":7496,"NonRecursiveTreeWalker":7497,"SAFE":7498,"VALID":7499,"flatpage":7500,"è¡¨":7501,"Ġcmdoptions":7502,"Ġrendu":7503,"Ġhappens":7504,"combiner":7505,"compilers":7506,"CHARS":7507,"Ġzoneinfo":7508,"CLIENT":7509,"(\"{([^}]*)}":7510,"âĸĪâĸĪâķĶâķĲâķĲâĸĪâĸĪâķĹ":7511,"\"[-_.]+":7512,"$\\{[":7513,"BidiError":7514,"MISMATCH":7515,"Sibling":7516,"holistic":7517,"tleneck":7518,"alindrome":7519,"announce":7520,"getoption":7521,"Ġoccurred":7522,"Ġinternally":7523,"Ġbnsbuy":7524,"commit":7525,"Ġnogil":7526,"exclusion":7527,"Ġmusl":7528,"integer":7529,"consume":7530,"ĠLABELS":7531,"Ġdeprecations":7532,"ĠgetNodeDetails":7533,"Ġhouses":7534,"ĠVendorImporter":7535,"Ġexposing":7536,"LocationValueError":7537,"ansitowin":7538,"Ġpyopenssl":7539,"Ġpyautogui":7540,"urrency":7541,"TimeZoneError":7542,"Ġsomeotherfile":7543,"LSchemeUnknown":7544,"NOFOLLOW":7545,"akika":7546,"ĠDataLossWarning":7547,"ĠPYTHONPATH":7548,"ĠPYTORCH":7549,"Ġreferencing":7550,"ĠNoReverseMatch":7551,"revctrl":7552,"ĠProxySchemeUnsupported":7553,"clazzes":7554,"(\"{([^}]*)}(.*)\")<":7555,"\"[-_.]+\")<":7556,"\"%":7557,"(%(":7558,")^":7559,")`":7560,")\"),<":7561,")(.*":7562,"*\\":7563,"+.":7564,",-":7565,".')<":7566,"/{":7567,"/')<":7568,"09":7569,"3002":7570,"43":7571,"512":7572,"61":7573,"93":7574,":/":7575,":=":7576,";\")<":7577,">'<":7578,"AC":7579,"Ass":7580,"BC":7581,"BE":7582,"BL":7583,"BIN":7584,"BOT":7585,"BGR":7586,"BLOCK":7587,"CN":7588,"Cls":7589,"Cash":7590,"CTION":7591,"CENT":7592,"CIText":7593,"DD":7594,"DOT":7595,"Direct":7596,"Function":7597,"Frame":7598,"Full":7599,"GH":7600,"Ge":7601,"Given":7602,"HAS":7603,"Headers":7604,"IF":7605,"IST":7606,"JK":7607,"LM":7608,"Len":7609,"Lite":7610,"Log":7611,"Lazy":7612,"LiveServerTestCase":7613,"MM":7614,"MID":7615,"NEO":7616,"PQ":7617,"Pi":7618,"Po":7619,"Pri":7620,"Pip":7621,"Prep":7622,"Post":7623,"RG":7624,"Raw":7625,"Ste":7626,"Sta":7627,"Sources":7628,"SOCKS":7629,"Scan":7630,"TU":7631,"TZ":7632,"TENSION":7633,"UV":7634,"UTI":7635,"Variable":7636,"VEL":7637,"VGG":7638,"WX":7639,"Wh":7640,"What":7641,"WKB":7642,"WARE":7643,"YZ":7644,"](":7645,"]=":7646,"]\\":7647,"]'<":7648,"]]:<":7649,"_*":7650,"await":7651,"bb":7652,"bi":7653,"border":7654,"cnt":7655,"closed":7656,"certificates":7657,"direction":7658,"drop":7659,"fA":7660,"false":7661,"font":7662,"flex":7663,"giref":7664,"hi":7665,"imag":7666,"ietf":7667,"ja":7668,"jar":7669,"ks":7670,"ku":7671,"kind":7672,"kernel":7673,"lst":7674,"lings":7675,"mq":7676,"math":7677,"mult":7678,"mime":7679,"mtime":7680,"mixin":7681,"mouth":7682,"mapped":7683,"machinery":7684,"nan":7685,"nier":7686,"operation":7687,"pic":7688,"plt":7689,"ptime":7690,"plat":7691,"plugin":7692,"rup":7693,"ram":7694,"som":7695,"sible":7696,"sav":7697,"similar":7698,"tup":7699,"tty":7700,"tries":7701,"uu":7702,"ucle":7703,"ugment":7704,"venv":7705,"vulnInfo":7706,"wit":7707,"wkt":7708,"xx":7709,"yond":7710,"ygon":7711,"zing":7712,"zily":7713,"}.<":7714,"}'\".":7715,"Â·":7716,"å¹":7717,"åĲ":7718,"èĩ":7719,"Ġ]":7720,"Ġsel":7721,"Ġel":7722,"ores":7723,"inel":7724,"inations":7725,"ertion":7726,"erce":7727,"onts":7728,"orth":7729,"sep":7730,"separ":7731,"sent":7732,"rew":7733,"reater":7734,"recent":7735,"recip":7736,"ross":7737,"Ġta":7738,"Ġtu":7739,"Ġturn":7740,"Ġtags":7741,"Ġtaking":7742,"att":7743,"ature":7744,"attribute":7745,"attributes":7746,"stor":7747,"star":7748,"sted":7749,"step":7750,"eno":7751,"enes":7752,"ennel":7753,"Ġaway":7754,"lev":7755,"legate":7756,"Ġimporting":7757,"tifact":7758,"alf":7759,"always":7760,"Ġplace":7761,"Ġplanes":7762,"Ġppu":7763,"Ġcy":7764,"Ġcur":7765,"Ġcame":7766,"Ġcapi":7767,"Ġcenter":7768,"Ġcertificates":7769,"ana":7770,"anal":7771,"anis":7772,"metin":7773,"media":7774,"___":7775,"arange":7776,"itect":7777,"Ġfs":7778,"Ġful":7779,"Ġfree":7780,"Ġflex":7781,"Ġfeed":7782,"Ġden":7783,"geo":7784,"geome":7785,"Ġscop":7786,"utex":7787,"Ġob":7788,"Ġodd":7789,"Ġinsensitive":7790,"login":7791,"loop":7792,"Ġbash":7793,"Ġblan":7794,"Ġbody":7795,"Ġbtw":7796,"Ġ\"$":7797,"Ġ\"'":7798,"Ġ\"+":7799,"Ġ\"[":7800,"edYAML":7801,"Ġnormalized":7802,"Ġngettext":7803,"istory":7804,"Ġwon":7805,"Ġwar":7806,"Ġwalk":7807,"Ġwriter":7808,"Ġwidget":7809,"Ġwait":7810,"unct":7811,"unique":7812,"unpatched":7813,"espec":7814,"ĠTAR":7815,"eces":7816,"ecess":7817,"Ġmot":7818,"Ġmag":7819,"adap":7820,"ypically":7821,"google":7822,"gobj":7823,"cestor":7824,"ria":7825,"rigin":7826,"than":7827,"though":7828,"utive":7829,"tobool":7830,"Ġcouple":7831,"lir":7832,"lix":7833,"ersity":7834,"ilater":7835,"upper":7836,"otes":7837,"strptime":7838,"Ġ'%":7839,"Ġ'-":7840,"aped":7841,"ĠSpat":7842,"ĠSingle":7843,"ĠScan":7844,"Ġasst":7845,"Ġasgiref":7846,"ĠPUT":7847,"ĠPoint":7848,"ĠPATCH":7849,"abi":7850,"abib":7851,"abspath":7852,"ipe":7853,"ips":7854,"ĠCre":7855,"ĠCall":7856,"ĠCython":7857,"ĠCurrent":7858,"ĠCustom":7859,"ĠCenter":7860,"ĠCursor":7861,"ĠNe":7862,"acks":7863,"Ġ__<":7864,"Ġ_____":7865,"ĠDep":7866,"ĠAction":7867,"ĠAvoid":7868,"ĠAsync":7869,"Ġthir":7870,"Ġthink":7871,"Ġthrow":7872,"construct":7873,"conditional":7874,"converter":7875,"ĠId":7876,"ĠIDomain":7877,"ĠLOCK":7878,"ATA":7879,"ATOR":7880,"profile":7881,"provid":7882,"profit":7883,"traction":7884,"ORE":7885,"ORITE":7886,"channel":7887,"channels":7888,"chennel":7889,"chanis":7890,"Ġvow":7891,"Ġvery":7892,"Ġvale":7893,"Ġ_)":7894,"()}<":7895,"()`,":7896,"etag":7897,"odle":7898,"Ġrich":7899,"Ġuf":7900,"Ġconform":7901,"Ġcontrib":7902,"Ġconstructor":7903,"]<=":7904,"Requires":7905,"Representer":7906,"ĠForm":7907,"ĠFull":7908,"ĠFactory":7909,"Ġloaded":7910,"libgeos":7911,"ternative":7912,"formed":7913,"Ġproperty":7914,"Ġprovider":7915,"Ġstrtobool":7916,"Ġdes":7917,"Ġdelta":7918,"Ġdetail":7919,"ĠMixin":7920,"ĠMaps":7921,"ysql":7922,"ĠUrl":7923,"ĠUsage":7924,"()<>":7925,"dernier":7926,"quer":7927,"ĠGiven":7928,"Ġgame":7929,"Ġgrid":7930,"Ġdistribute":7931,"Ġho":7932,"Ġhour":7933,"Ġhome":7934,"Ġhmac":7935,"Ġholds":7936,"Ġhaving":7937,"umn":7938,"ulated":7939,"(\"'":7940,"partition":7941,"ĠBoolean":7942,"âĸª":7943,"Ġunich":7944,"Ġunknown":7945,"Ġunquote":7946,"urlparse":7947,"urlencode":7948,"Ġ\"\"\":":7949,"Ġ23":7950,"Ġ[],":7951,"FORMATS":7952,"Ġmeans":7953,"Ġmechanis":7954,"ĠOverride":7955,"ĠOperandHolder":7956,"Ġbeyond":7957,"pyopen":7958,"ultd":7959,"fileName":7960,"appdirs":7961,"ĠHum":7962,"Ġwho":7963,"Ġbyref":7964,"InText":7965,"Interface":7966,"MESS":7967,"ĠEvery":7968,"ircle":7969,"ircular":7970,"ifest":7971,"ĠĠĠĠĠĠĠĠĠĠĠĠ":7972,"scene":7973,"ONE":7974,"ONG":7975,"ONLY":7976,"Condition":7977,"Console":7978,"Ġsections":7979,"complex":7980,"ĠRef":7981,"ĠRetry":7982,"0002":7983,"Ġcompute":7984,"Ġcompare":7985,"Ġcomplex":7986,"Ġcompletion":7987,"times":7988,"arehouse":7989,"anges":7990,"pathlib":7991,"using":7992,"csize":7993,"iversity":7994,"Ġ::=":7995,"agers":7996,"agram":7997,"Ġgot":7998,"Ġshare":7999,"Ġshlex":8000,"Ġshared":8001,"Ġshortc":8002,"Ġsoft":8003,"CHUNK":8004,"ĠWarehouse":8005,"Ġurlpatterns":8006,"colors":8007,"Exp":8008,"Exit":8009,"ICODE":8010,"distinct":8011,"Ġpacked":8012,"Ġtimestamp":8013,"Ġchr":8014,"Ġchild":8015,"resource":8016,"configs":8017,"configure":8018,"RESH":8019,"Ġartifact":8020,"Ġ=='":8021,"ĠYoutube":8022,"ITORY":8023,"STAR":8024,"raps":8025,"ansion":8026,"validation":8027,"validator":8028,"Ġbases":8029,"emy":8030,"Ġcanonical":8031,"Ġrock":8032,"THRESH":8033,"Ġpreds":8034,"Ġpreserve":8035,"Ġpresent":8036,"boucle":8037,"ĠRo":8038,"ĠRound":8039,"background":8040,"ensure":8041,"=\"\\":8042,"iblings":8043,"ĠnumA":8044,"SHandler":8045,"ĠBaseCodec":8046,"ĠBaseReporter":8047,"ĠBaseFieldInfo":8048,"ĠBaseEmailBackend":8049,"BaseException":8050,"BaseCache":8051,"Ġ|_|":8052,"Stub":8053,"Ġappend":8054,"Ġimplicit":8055,"rao":8056,"DEV":8057,"DEPRE":8058,"Ġnothing":8059,"LEVE":8060,"Ġiterator":8061,"iterable":8062,"itertools":8063,"Ġkeyword":8064,"Ġkeywords":8065,"Ġkeyring":8066,"authtoken":8067,"Ġnear":8068,"Dev":8069,"Delegate":8070,"ndimage":8071,"2021":8072,"ĠDistutilsSetup":8073,"addr":8074,"bert":8075,"ĠDictMetadata":8076,"Ġlay":8077,"Ġlazily":8078,"processing":8079,"Commands":8080,"Ġdisp":8081,"Bottle":8082,"should":8083,"Ġ2020":8084,"anted":8085,"Ġ/<":8086,"Ġleading":8087,"iaLite":8088,"][\"":8089,"neos":8090,"Ġsupporting":8091,"Note":8092,"subclasses":8093,"checkpoint":8094,"ĠGeneralScanner":8095,"ĠState":8096,"ĠStandard":8097,"ĠĠĠĠĠĠĠĠĠĠĠĠĠĠĠĠĠĠ":8098,"ĠĠĠĠĠĠĠĠĠĠĠĠĠĠĠĠĠĠĠĠĠĠĠĠĠĠĠĠĠĠĠĠ":8099,"Entry":8100,"LOCATION":8101,"translate":8102,"[::":8103,"built":8104,"Ġsync":8105,"asyncio":8106,"crease":8107,"creating":8108,"ĠExp":8109,"âķĲâķĿ":8110,")):":8111,"OSITORY":8112,"Ġaccount":8113,"Ġgenerates":8114,"IOError":8115,"RSTUV":8116,"ffset":8117,"whl":8118,"Cached":8119,"openapi":8120,"Ġ2017":8121,"Ġperformed":8122,"runtime":8123,"running":8124,"rypoint":8125,"Ġindividual":8126,"Compatibility":8127,"corre":8128,"Ġ\"<{":8129,"Serialize":8130,"Ġexpansion":8131,"Too":8132,"Tools":8133,"ViewMiddleware":8134,"Ġchats":8135,"]*(":8136,"Ġheuristic":8137,"Ġheavily":8138,"sqlite":8139,"ĠLocal":8140,"ĠLoader":8141,"charge":8142,"dots":8143,"ritable":8144,"Ġdiff":8145,"Ġdiffers":8146,"pypy":8147,"pyproject":8148,"Ġspecify":8149,"ĠDataError":8150,"ModelAdmin":8151,"GetAll":8152,"loatField":8153,"ĠDELETE":8154,"ailView":8155,"Ġlinked":8156,"secutive":8157,"Ġ\"\")<":8158,"ĠDosy":8159,"âĸĴâĸĴ":8160,"CIF":8161,"Ġauthor":8162,"BUIL":8163,"Ġquerying":8164,"targets":8165,"ĠXXX":8166,"ĠDatabaseIntrospection":8167,"Ġfiltered":8168,"UserModel":8169,"original":8170,"Ġautocomplete":8171,"DIRS":8172,"PoolExecutor":8173,"ReportInText":8174,"2727":8175,"depth":8176,"ĠApple":8177,"Returns":8178,"Ġ{}\".":8179,"TokenType":8180,"Ġentrypoint":8181,"startLogger":8182,"crypt":8183,"crypted":8184,"{}\\\"":8185,"Ġtherefore":8186,"boardX":8187,"velope":8188,"ĠAlmost":8189,"255":8190,"ROP":8191,"Upload":8192,"Ġcreates":8193,"reshape":8194,"ĠTemplateResponse":8195,"ĠTemplateSy":8196,"987":8197,"MAGE":8198,"Ġaliases":8199,"cursion":8200,"surance":8201,"surrogate":8202,"ï¼ļ":8203,"ĠREST":8204,"Ġrenderer":8205,"Than":8206,"cases":8207,"ĠtensorboardX":8208,"MiddlewareMixin":8209,"ĠâĸĢ":8210,"Ġâĸĵ":8211,"Ġprocessing":8212,"Ġproduced":8213,"Ġweighted":8214,"HASHES":8215,"2017":8216,"Collection":8217,"scancss":8218,"Ġgetopt":8219,"Ġoptname":8220,"Commented":8221,"Ġiterables":8222,"Ġmarkup":8223,"ointsDataset":8224,"Symbols":8225,"]=='":8226,"hashes":8227,"Ġ\"-\":":8228,"Ġanswer":8229,"ĠPoolManager":8230,"Ready":8231,"ĠBotCommands":8232,"('.')":8233,"PACE":8234,"ORDER":8235,"ĠGDALException":8236,"ĠKeyBasedCompareMixin":8237,"âķļâķĲâķĲâķĲâķĲ":8238,"ABCDEF":8239,"cryptography":8240,"PyPI":8241,"downloaded":8242,"saxutils":8243,"Ġprime":8244,"Ġprivate":8245,"ĠColor":8246,"spiciousOperation":8247,"ĠMaximum":8248,"Ġletters":8249,"Ġmanagement":8250,"384":8251,"MutableSet":8252,"btw":8253,"ĠContentType":8254,"Ġjoin":8255,">~~~~~~~~~~~~~~~<":8256,"Bytes":8257,"RangeField":8258,"finalize":8259,"sorted":8260,"loadedFile":8261,"ĠInstalled":8262,"ĠSessionBase":8263,"ĠSessionStore":8264,"ĠUnicodeDecodeError":8265,"ĠArrayField":8266,")}/":8267,"Ġsmart":8268,"ĠMoodle":8269,"viepy":8270,"Ġadapted":8271,")+(":8272,"fanity":8273,"fancy":8274,"Ġdirname":8275,"apsulate":8276,"ĠSwaggerValidationError":8277,"ImportError":8278,"UnknownTimeZoneError":8279,"HeaderDict":8280,"Address":8281,"OpenSSL":8282,"URCE":8283,"basicConfig":8284,"enabled":8285,"allenai":8286,"ublish":8287,"Ġ\\\"{}\\\"":8288,"ĠGEOM":8289,">~~~~~~~~~~~~~~~~~~~<":8290,">`_<":8291,"Depth":8292,"events":8293,"åı¯":8294,"retries":8295,"Ġactual":8296,"ĠCSV":8297,"ĠCSRF":8298,"[:,:])":8299,"ModulesOptions":8300,"TRANSPORT":8301,"ĠConfigurationError":8302,"gramming":8303,"247":8304,"Iterator":8305,"Ġexcel":8306,"Ġported":8307,"ĠGeometryField":8308,"Ġsentinel":8309,"SOURCE":8310,"mkdir":8311,"renderer":8312,"stats":8313,"childNodes":8314,"etflix":8315,"Ġdispatcher":8316,"Ġdispatching":8317,"Ġmanipul":8318,"Ġmanipulate":8319,"ĠDataSource":8320,"ĠDataScheduler":8321,"ï¼ī\\":8322,"wininst":8323,"implementation":8324,"Ġreceiver":8325,"activate":8326,"ĠAND":8327,"ĠActive":8328,"Ġselected":8329,"ĠReverseIPConfig":8330,"ServiceStub":8331,"âĸĪâĸĪâķĳâĸĳâĸĳâĸĪâĸĪâķĳ":8332,"ĠInlineKeyboardMarkup":8333,"ĠSpecifically":8334,"dico":8335,"oltage":8336,"srfViewMiddleware":8337,"Ġcopied":8338,"ĠNightMode":8339,"ĠGoogle":8340,"ĠOtherwise":8341,"Ġenviron":8342,"Ġattempt":8343,"ADDR":8344,"Ġalgorithms":8345,"SECURETRANSPORT":8346,"8601":8347,"Bitwise":8348,"PassArg":8349,"PROVIDED":8350,"slider":8351,"valeur":8352,"Ġpair":8353,"Ġolder":8354,"ategy":8355,"hellodjango":8356,"ĠExitStack":8357,"Threads":8358,"ĠThreadPoolExecutor":8359,"Ġsuccessfully":8360,"Avg":8361,"DLEWARE":8362,"SuspiciousOperation":8363,"Surface":8364,"SpatialFeatures":8365,"ntaxError":8366,"Ġresponsible":8367,"Ġwrapped":8368,"ĠStyle":8369,"ĠPromise":8370,"asctime":8371,"Ġeffects":8372,"ĠEXTENSION":8373,"ĠRemoteNotFoundError":8374,"Ġurlunparse":8375,"REPOSITORY":8376,"0123456789":8377,"scheduler":8378,"Ġpixeltype":8379,"consumes":8380,")(.*)":8381,"CashValue":8382,"Functions":8383,"Geom":8384,"JKLM":8385,"Length":8386,"PQRSTUV":8387,"PipSession":8388,"PostgresOperatorLookup":8389,"Stamp":8390,"WXYZ":8391,"Whitespace":8392,"mixins":8393,"somme":8394,"èĩª":8395,"ertionError":8396,"recipes":8397,"itecture":8398,"Ġfully":8399,"Ġscoping":8400,"Ġblank":8401,"unctuation":8402,"espece":8403,"Ġmagic":8404,"ilateral":8405,"ĠSpatiaLite":8406,"Ġthird":8407,"Ġthrowing":8408,"ĠIDomainEnumerator":8409,"providers":8410,"Ġunichr":8411,"pyopencl":8412,"MESSAGE":8413,"Ġshortcut":8414,"Ġartifacts":8415,"START":8416,"LEVELS":8417,"ĠDistutilsSetupError":8418,"ĠTemplateSyntaxError":8419,"ABCDEFGH":8420,"Ġ\\\"{}\\\"'.":8421,"PQRSTUVWXYZ":8422,"!')<":8423,"\"',":8424,"\"],":8425,"\"([^?#]*":8426,"$\",<":8427,"$')<":8428,"'})<":8429,"'));<":8430,"(\"<":8431,")|":8432,")',":8433,")'<":8434,")`<":8435,")).":8436,")),":8437,"+-]*":8438,"+)\"')<":8439,"-<":8440,"-[":8441,"-.<":8442,".'":8443,"/\"":8444,"/\",":8445,"/',":8446,"/'<":8447,"/``,":8448,"/)\")<":8449,"18":8450,"300":8451,"41":8452,"52":8453,"80":8454,"94":8455,"97":8456,":]":8457,":|":8458,"=>":8459,"=_":8460,"=\",":8461,">[":8462,">\",":8463,">\")<":8464,">----------------":8465,"Alt":8466,"ASS":8467,"Apache":8468,"Amount":8469,"Augment":8470,"BLE":8471,"Block":8472,"BAS":8473,"Boolean":8474,"Credentials":8475,"Circle":8476,"CsrfViewMiddleware":8477,"Don":8478,"Day":8479,"Dictionary":8480,"Drive":8481,"Denied":8482,"Er":8483,"Ele":8484,"Fig":8485,"Fallback":8486,"FMT":8487,"Failed":8488,"GRE":8489,"GAL":8490,"Gaussian":8491,"Hap":8492,"HAB":8493,"History":8494,"IE":8495,"IZ":8496,"ILED":8497,"IJKLM":8498,"Kind":8499,"Kenneth":8500,"Lay":8501,"Mo":8502,"My":8503,"Mon":8504,"Mar":8505,"Mot":8506,"Mas":8507,"Make":8508,"NC":8509,"NF":8510,"NV":8511,"Ne":8512,"NORM":8513,"Network":8514,"NDL":8515,"Op":8516,"Offset":8517,"PK":8518,"Punctuation":8519,"Qt":8520,"RAN":8521,"SL":8522,"Sock":8523,"Software":8524,"Simple":8525,"Socket":8526,"SchemaEditor":8527,"Slam":8528,"SPACE":8529,"Tz":8530,"Tra":8531,"TAD":8532,"Trip":8533,"TENT":8534,"Title":8535,"Tpd":8536,"VA":8537,"VO":8538,"Vulnerable":8539,"Wait":8540,"Wraps":8541,"Yes":8542,"YNC":8543,"Zip":8544,"[_":8545,"\\__":8546,"\\?([^#]*":8547,"]/":8548,"]\")<":8549,"]\"),<":8550,"_-":8551,"_]\\":8552,"`-'":8553,"aa":8554,"aul":8555,"aCCEPT":8556,"br":8557,"bz":8558,"bon":8559,"because":8560,"bidden":8561,"button":8562,"bundle":8563,"bbc":8564,"cn":8565,"car":8566,"cate":8567,"cas":8568,"cay":8569,"clock":8570,"cake":8571,"cibly":8572,"dg":8573,"dy":8574,"dat":8575,"direct":8576,"dns":8577,"dtemp":8578,"duration":8579,"dropped":8580,"derscore":8581,"eor":8582,"everse":8583,"eye":8584,"equivalent":8585,"fd":8586,"fort":8587,"fcc":8588,"fait":8589,"gif":8590,"gpic":8591,"hin":8592,"hard":8593,"hidden":8594,"hbar":8595,"iod":8596,"ium":8597,"kick":8598,"lar":8599,"lision":8600,"lCode":8601,"laces":8602,"mid":8603,"mall":8604,"more":8605,"mention":8606,"mysql":8607,"nai":8608,"nms":8609,"numpy":8610,"næľ":8611,"oke":8612,"over":8613,"oir":8614,"oie":8615,"oQueue":8616,"override":8617,"ohn":8618,"ps":8619,"pli":8620,"pwn":8621,"polation":8622,"published":8623,"qsize":8624,"qrst":8625,"rm":8626,"rist":8627,"ration":8628,"rhs":8629,"so":8630,"same":8631,"sIn":8632,"smo":8633,"sConfig":8634,"simple":8635,"swagger":8636,"scope":8637,"saj":8638,"sistent":8639,"slam":8640,"tmp":8641,"tWM":8642,"uh":8643,"uv":8644,"uck":8645,"ultroid":8646,"vis":8647,"ves":8648,"vict":8649,"vated":8650,"vary":8651,"vIP":8652,"vless":8653,"vulnerable":8654,"would":8655,"wxy":8656,"writer":8657,"welcome":8658,"writable":8659,"xis":8660,"youtube":8661,"yellow":8662,"zb":8663,"zer":8664,"zma":8665,"}')<":8666,"}'.":8667,"}-[":8668,"¦ģ":8669,"¯·":8670,"¹ī":8671,"Ã¨":8672,"Ã¼":8673,"ÑĤ":8674,"ä¹ī":8675,"å½":8676,"æķ":8677,"æĸ":8678,"è¦ģ":8679,"è¯·":8680,"éĢ":8681,"éľ":8682,"ìĽ":8683,"Ġ^":8684,"Ġ~":8685,"Ġkw":8686,"Ġ):":8687,"ĠâĢ":8688,"Ġãģ®":8689,"Ġ},<":8690,"ĠÑĢ":8691,"Ġáŀ":8692,"Ġingredients":8693,"ĠÃł":8694,"Ģè¦ģ":8695,"ĩä»":8696,"orsel":8697,"ormo":8698,"ords":8699,"inate":8700,"inline":8701,"inplanes":8702,"insecure":8703,"inley":8704,"incoming":8705,"inja":8706,"ineno":8707,"ern":8708,"eroku":8709,"ons":8710,"ongs":8711,"ongest":8712,"rey":8713,"reat":8714,"rece":8715,"repo":8716,"reitz":8717,"rock":8718,"route":8719,"Ġtel":8720,"Ġtire":8721,"ste":8722,"stand":8723,"sticker":8724,"enium":8725,"des":8726,"deque":8727,"decoding":8728,"delete":8729,"decoder":8730,"decla":8731,"decay":8732,"Ġam":8733,"Ġau":8734,"Ġaria":8735,"Ġaxis":8736,"lean":8737,"tiation":8738,"alError":8739,"alScanner":8740,"alloc":8741,"alabel":8742,"Ġpile":8743,"Ġplease":8744,"Ġpull":8745,"Ġpublished":8746,"Ġpush":8747,"Ġplural":8748,"Ġpalindrome":8749,"ĠpAmount":8750,"Ġcrawler":8751,"Ġcwords":8752,"Ġcgi":8753,"Ġcaused":8754,"Ġcpl":8755,"anport":8756,"aniti":8757,"anast":8758,"anÄ±n":8759,"metic":8760,"measure":8761,"__}":8762,"__):<":8763,"__\")<":8764,"Ġretain":8765,"Ġreleases":8766,"Ġrelation":8767,"Ġreserved":8768,"Ġrecip":8769,"Ġrecher":8770,"Ġretire":8771,"Ġrelev":8772,"Ġrecursion":8773,"ardi":8774,"arField":8775,"Ġfall":8776,"Ġfire":8777,"Ġface":8778,"Ġfonts":8779,"Ġfcharge":8780,"uritemplate":8781,"Ġds":8782,"ĠdÃ©":8783,"Ġdatasets":8784,"Ġdirections":8785,"Ġdakika":8786,"Ġdinley":8787,"ged":8788,"Ġscheduler":8789,"Ġsnip":8790,"Ġsaat":8791,"isol":8792,"isinstance":8793,"isEnable":8794,"uting":8795,"Ġoup":8796,"tions":8797,"acing":8798,"acter":8799,"account":8800,"accept":8801,"Ġintr":8802,"Ġinner":8803,"Ġinfers":8804,"ical":8805,"icit":8806,"lood":8807,"lazing":8808,"Ġbro":8809,"Ġbas":8810,"Ġbast":8811,"Ġblazing":8812,"coco":8813,"Ġ\"#":8814,"Ġ\"@":8815,"Ġ\"))<":8816,"Ġnou":8817,"Ġnegative":8818,">##":8819,"istor":8820,"Ġwww":8821,"unit":8822,"unately":8823,"exer":8824,"entr":8825,"entally":8826,"fies":8827,"ĠTable":8828,"ĠThat":8829,"ĠTOKEN":8830,"ĠTypedDict":8831,"Ġmime":8832,"Ġmim":8833,"Ġmicro":8834,"Ġmouth":8835,"adjust":8836,"tersection":8837,"gotiation":8838,"ried":8839,"threshold":8840,"tosections":8841,"tomli":8842,"Ġcook":8843,"lise":8844,"liant":8845,"Ġ(%":8846,"Ġ((":8847,"Ġ(>":8848,"uplic":8849,"oted":8850,"strftime":8851,"Ġformed":8852,"atest":8853,"Ġannot":8854,"Ġanchor":8855,"Ġ'('":8856,"Ġ''.":8857,"Ġ'{}":8858,"getChildNodes":8859,"ĠSon":8860,"ĠSource":8861,"ĠSCHEME":8862,"ĠSTR":8863,"ltr":8864,"ĠPlease":8865,"ĠPress":8866,"ĠPop":8867,"ĠPlay":8868,"ĠPIP":8869,"ĠPhoto":8870,"ollow":8871,"olygon":8872,"classifiers":8873,"ĠCatch":8874,"ĠCERT":8875,"ĠCalcul":8876,"ĠNetwork":8877,"ĠDon":8878,"ĠDST":8879,"ĠDummy":8880,"ĠAuto":8881,"ĠAggregate":8882,"ĠAmbigu":8883,"intypes":8884,"Ġthough":8885,"console":8886,"consistent":8887,"ĠIS":8888,"ĠIT":8889,"ĠIs":8890,"ĠImpl":8891,"ĠIts":8892,"asst":8893,"asset":8894,"ĠLif":8895,"ĠLay":8896,"ĠLazy":8897,"sert":8898,"setting":8899,"setFilter":8900,"speed":8901,"sphin":8902,"produ":8903,"projection":8904,"tracking":8905,"Ġ.-.<":8906,"ORIZ":8907,"chr":8908,"Ġvector":8909,"endix":8910,"Ġ_/":8911,"Ġ_`":8912,"Ġ_)<":8913,"Ġ_):<":8914,"ithmetic":8915,"()``<":8916,"ets":8917,"Ġratio":8918,"Ġ`--":8919,"Ġ`-.":8920,"Ġlarge":8921,"Ġlineno":8922,"Ġlongest":8923,"Ġuid":8924,"Ġconver":8925,"Ġcontrol":8926,"Ġconcurrent":8927,"Ġcontact":8928,"ureTr":8929,"Register":8930,"ReverseIP":8931,"RestartLogger":8932,"RevIP":8933,"ĠFix":8934,"ĠFill":8935,"ĠFast":8936,"ĠFeng":8937,"ĠFollow":8938,"libs":8939,"jectory":8940,"jectAlt":8941,"forcibly":8942,"master":8943,"Ġprovision":8944,"Ġproxies":8945,"Ġprogramming":8946,"Ġdeci":8947,"Ġdebt":8948,"ĠMock":8949,"ĠMorsel":8950,"perm":8951,"perties":8952,"permission":8953,"ĠUti":8954,"ĠUSER":8955,"ĠUsing":8956,"Ġgetpwn":8957,"ired":8958,"question":8959,"veral":8960,"verbosity":8961,"ĠGMAIL":8962,"ĠGCN":8963,"httpbin":8964,"Ġgis":8965,"Ġgif":8966,"Ġgive":8967,"Ġhim":8968,"Ġhop":8969,"Ġhach":8970,"Ġheroku":8971,"(\"../../":8972,"parfait":8973,"ĠBZ":8974,"ĠBut":8975,"ĠBRA":8976,"ĠBecause":8977,"ĠButton":8978,"ĠBond":8979,"ĠBleach":8980,"Ġembed":8981,"Ġequivalent":8982,"Ġevict":8983,"Ġune":8984,"Ġunsafe":8985,"Ġunsupported":8986,"Ġunused":8987,"Ġunpatched":8988,"Ġunhex":8989,"Ġunexp":8990,"Ġunderscore":8991,"FORMS":8992,"urlpatterns":8993,"Ġ20":8994,"Ġ[[":8995,"Ġ[])<":8996,"Ġmesaj":8997,"Ġbeings":8998,"://([^":8999,"Ġitypes":9000,"Ġsets":9001,"Ġsetattr":9002,"ctypes":9003,"pyepat":9004,"Ġparty":9005,"Ġparsers":9006,"Ġparallel":9007,"preading":9008,"appname":9009,"ĠHu":9010,"ĠHong":9011,"ĠHNDL":9012,"Include":9013,"Information":9014,"Initialize":9015,"IncompleteRead":9016,"Insert":9017,"METAD":9018,"ĠEns":9019,"ĠEnc":9020,"ĠEmpty":9021,"ĠENV":9022,"ift":9023,"ĠĠĠĠĠĠĠĠĠĠĠĠĠĠĠĠĠĠĠĠĠĠĠ":9024,"Ġstud":9025,"Ġsticker":9026,"scenes":9027,"outplanes":9028,"('^":9029,"(''.":9030,"Convert":9031,"SEP":9032,"SEPAR":9033,"Ġsensitive":9034,"Ġsegment":9035,"Ġsecurity":9036,"Ġseveral":9037,"ĠReDoc":9038,"Ġ12":9039,"Ġ15":9040,"Ġ127":9041,"ENTI":9042,"Ġcompiled":9043,"ĠInitial":9044,"ĠIncompleteRead":9045,"ixel":9046,"timedelta":9047,"INT":9048,"INST":9049,"INED":9050,"Ġalthough":9051,"Ġalternative":9052,"Ġenormo":9053,"~~~~<":9054,"iving":9055,"Ġintro":9056,"Ġintended":9057,"solve":9058,"Ġ:-":9059,"agon":9060,"Ġships":9061,"ĠThey":9062,"Ġexternal":9063,"Ġexcluded":9064,"futures":9065,"Ġmaillon":9066,"Ġsole":9067,"ĠWE":9068,"Ġpassing":9069,"Ġpasswords":9070,"Ġprototypes":9071,"Ġarea":9072,"collection":9073,"ĠmoduleName":9074,"vies":9075,"jsonline":9076,"undant":9077,"readlines":9078,"ICE":9079,"ĠtimeStamp":9080,"Ġcho":9081,"``-":9082,"coreapi":9083,"Count":9084,"Ġhasn":9085,"Loaded":9086,"Ġarrays":9087,"Ġarithmetic":9088,"dataframe":9089,"Ġserializ":9090,"Ġserious":9091,"ĠYour":9092,"lice":9093,"STD":9094,"STS":9095,"###<":9096,"Ġatexit":9097,"Ġnprint":9098,"Ġ``\"":9099,"Ġ``/``,":9100,"Ġaddition":9101,"ĠSepar":9102,"ĠImplements":9103,"Ġunderstand":9104,"ĠAnd":9105,"TypeError":9106,"Ġrow":9107,"Ġrows":9108,"VersionPredicate":9109,"Ġxrange":9110,"Ġpredictor":9111,"ĠDistance":9112,"boot":9113,"kware":9114,"taining":9115,"backend":9116,"osname":9117,"ConfigParser":9118,"Ġpystyle":9119,"Ġpydan":9120,"maillon":9121,"=\"(\\":9122,"minutes":9123,"Ġnumeric":9124,"splitComp":9125,"fixed":9126,"ĠBaseModel":9127,"ĠBaseDistribution":9128,"ĠBaseResolver":9129,"PILED":9130,"Ġready":9131,"Ġjsonlines":9132,"BaseDatabase":9133,"BaseEmailBackend":9134,"umption":9135,"Ġupper":9136,"Ġshouldn":9137,"Ġ|(":9138,"Ġ|.|":9139,"affinity":9140,"Ġimpending":9141,"rake":9142,"ravel":9143,"Ġ\\__,":9144,"packaged":9145,"COOK":9146,"caches":9147,"FIER":9148,"LESS":9149,"LEVEL":9150,"LEGAL":9151,"ĠCondition":9152,"ĠConvenience":9153,"egin":9154,"Ġiterkeys":9155,"Ġiterating":9156,"Ġitervalues":9157,"iterkeys":9158,"UNSAFE":9159,"UNICODE":9160,"caler":9161,"Ġkon":9162,"ĠHTTPWarning":9163,"ĠHTTPConnection":9164,"ĠHTTPBasicAuth":9165,"avefunction":9166,"ĠUsernames":9167,"ĠUserViewSet":9168,"Ġnested":9169,"tested":9170,"Ġoutbox":9171,"arknet":9172,"ALLO":9173,"ALLED":9174,"TimeWarning":9175,"Ġhasher":9176,"ĠDistutilsFileError":9177,"addHandler":9178,"formatted":9179,"Unless":9180,"kenneth":9181,"Parses":9182,"Ġargtypes":9183,"shot":9184,"ĠSetup":9185,"Ġjax":9186,"Ġassistant":9187,"Ġ/__)":9188,"gistry":9189,"Ġtemporary":9190,"Ġprices":9191,"GeneralScanner":9192,"lane":9193,"needed":9194,"âĸĳâĸĴ":9195,"NOPQRSTUVWXYZ":9196,"subdirectory":9197,"manent":9198,"ĠĠĠĠĠĠĠĠĠĠĠĠĠĠĠĠĠĠĠĠĠĠĠĠĠĠ":9199,"Encoding":9200,"Engine":9201,"NameWarning":9202,"ValueDict":9203,"Ġ543":9204,"transforms":9205,"entifier":9206,"enticate":9207,"Ġbacklink":9208,"Ġbacktracking":9209,"WED":9210,"Ġinterf":9211,"ĠToASCII":9212,"ĠToUnicode":9213,"Chat":9214,"Change":9215,"ĠInvalidRequirement":9216,"ĠInvalidWheel":9217,"Projection":9218,"EXEC":9219,"Ġcharacter":9220,"403":9221,"Ġ['.":9222,"Ġaddtosections":9223,"SSLContext":9224,"ĠmaxSub":9225,"HTTPHeaderDict":9226,"KeyEx":9227,"IDENTI":9228,"Ġacti":9229,"Ġaccessed":9230,"Ġaccid":9231,"RequestFactory":9232,"RequestUnsupported":9233,"RequestMethods":9234,"Ġserves":9235,"CacheMiddleware":9236,"ASGI":9237,"Ġ2019":9238,"DataPayload":9239,"Ġperm":9240,"Ġsuffix":9241,"Ġyourself":9242,"linked":9243,"ĠDeprecated":9244,"ĠFileMeta":9245,"ĠFileSystem":9246,"titles":9247,"Ġindicates":9248,"Forbidden":9249,"contextlib":9250,"GEOS":9251,"GEOM":9252,"Ġtwice":9253,"Ġboto":9254,"Ġverbosity":9255,"Ġzipimport":9256,"Together":9257,"Ġensures":9258,"IPV":9259,"Ġmanager":9260,"Ġtokenize":9261,"EnumValue":9262,"EnumKey":9263,"Ġdepend":9264,"Ġdepends":9265,"ĠLogger":9266,"Ġ'/',":9267,"Ġ'/'<":9268,"Document":9269,"...`<":9270,"FAILED":9271,"0008":9272,"Ġtransforms":9273,"GetD":9274,"GetTarget":9275,"Ġtargets":9276,"actions":9277,"filterdb":9278,"CELESS":9279,"canonical":9280,"findall":9281,"ĠPyPi":9282,"ĠPySock":9283,"markdown":9284,"Ġbutton":9285,"ELL":9286,"Ġcomments":9287,"Ġmediainfo":9288,"Ġ\"\",":9289,"Ġ\"\"),<":9290,"interBase":9291,"interactive":9292,"ĠResolution":9293,"cyan":9294,"Ġreferences":9295,"\"],<":9296,"Ġmultiprocessing":9297,"tokenization":9298,"Ġconsumption":9299,"ĠXZ":9300,"Ġ'.'<":9301,"Ġ'.')<":9302,"proxyman":9303,"Ġloads":9304,".*?":9305,"chats":9306,"PoolManager":9307,"tzname":9308,"ĠZero":9309,"ĠZhang":9310,"anguage":9311,"ĠAppendix":9312,"ĠattributeMap":9313,"âĸĪâĸĪâķĳâĸĪâĸĪâķĳ":9314,"TEMPLATE":9315,"modal":9316,"modify":9317,"ĠTLSing":9318,"Ġentries":9319,"Ġentrypoints":9320,"âĸĪâĸĪâĸĪâĸĪâĸĪâķĹ":9321,"âĸĪâĸĪâĸĪâĸĪâĸĪâķĶ":9322,"Ġwebbrowser":9323,"COMPILED":9324,"ILLEGAL":9325,"{}.":9326,"admins":9327,"connectionpool":9328,"Attemp":9329,"AttributeError":9330,"OKUP":9331,"ĠCONFIG":9332,"Ġthereof":9333,"currentToken":9334,"gments":9335,"hoc":9336,"hood":9337,"their":9338,"ãĤĭ":9339,"ãĤĴ":9340,">`{":9341,"UploadedFile":9342,"Ġcreation":9343,"Ġmoviepy":9344,"Ġdomains":9345,"replacement":9346,"EnumeratationConfig":9347,"Hello":9348,"MAP":9349,"MAX":9350,"MAGI":9351,"WNER":9352,"Ġreporting":9353,"ĠServer":9354,"ĠUpdatingDefaultsHelpFormatter":9355,"ĠJSONField":9356,"ĠJSONDecodeError":9357,"Ġcustomize":9358,"Ġrendering":9359,"ĠLibError":9360,"ĠCompare":9361,"ĠCompiled":9362,"ĠCompileError":9363,"Ġseparator":9364,"ĠTimeouts":9365,"ĠTimeoutError":9366,"1000000":9367,"Ġutilise":9368,"levelname":9369,"Ġredundant":9370,"optimizer":9371,"**<":9372,"optname":9373,"ĠâĸĲ":9374,"Ġ\"\\\"":9375,"Ġproduce":9376,"Ġproducing":9377,"HASHFUN":9378,"({\"":9379,"2013":9380,"Collap":9381,"NumericOutputFieldMixin":9382,"Ġ60":9383,"Ġcookielib":9384,"ĠCreateError":9385,"ĠAbstractProvider":9386,"ĠLOG":9387,"Ġ`-.<":9388,"Ġ`-'<":9389,"Ġ`-`.":9390,"Ġdecay":9391,"ĠUseful":9392,"offers":9393,"MarkedYAML":9394,"WSGI":9395,"staticmethod":9396,"Ġoptval":9397,"ĠChannel":9398,"transports":9399,"Ġshowing":9400,"Ġtakewhile":9401,"ĠLinkError":9402,"ĠEnumerator":9403,"weights":9404,"IGN":9405,"Ġpowers":9406,"Ġcapable":9407,"ĠCandidateLookup":9408,"2006":9409,"EmailField":9410,"PACK":9411,"RecentlyUsedContainer":9412,"saveopts":9413,"Ġeta":9414,"ĠPerm":9415,"ĠNewConnectionError":9416,"ĠAuthor":9417,"ĠAuthBase":9418,"Ġdisabled":9419,"SecureTr":9420,"Ġdigit":9421,"âķļâķĲâķĿ":9422,"Ġnumba":9423,"cludedModules":9424,"Ġhexlify":9425,"ĠHttpResponseRedirect":9426,"443":9427,"Creation":9428,"DLL":9429,"ĠColors":9430,"ĠModuleType":9431,"Ġevents":9432,"ĠOpenLay":9433,"IndexCandidate":9434,"LookupDict":9435,"Ġidentify":9436,"Ġidentifier":9437,"Ġmanaged":9438,"ĠINSTALLED":9439,"varname":9440,"ĠSubcommands":9441,"ĠSubjectAlt":9442,"Ġjob":9443,"Ġjoined":9444,"ĠĠĠĠĠĠĠĠĠĠĠĠĠĠĠĠĠĠĠĠĠĠĠĠĠĠĠĠ":9445,"Ġworks":9446,">~~~~~~~~~~~~~<":9447,"Ġappropriately":9448,"2616":9449,"Byte":9450,"RangeWidget":9451,"RangeRequestUnsupported":9452,"Ġoccur":9453,"Ġinvoke":9454,"ĠsendMessage":9455,"ĠInstagram":9456,"ĠBaseDatabaseIntrospection":9457,"bytearray":9458,"mirrorbot":9459,"DATA":9460,"DATABASE":9461,"Noise":9462,"StrictVersion":9463,"Weight":9464,"Ġextending":9465,"ĠTOMLDecodeError":9466,"ĠmidEle":9467,"ĠIPV":9468,"Ġperforming":9469,"Ġperformance":9470,"ĠDefaultDict":9471,"ĠPoolErrors":9472,"CRET":9473,"DetailView":9474,"vcsudo":9475,"Ġsignals":9476,"Ġinitialization":9477,"ĠSplit":9478,"Classification":9479,"OpenKeyEx":9480,"others":9481,"Ġblacklist":9482,"Extension":9483,">~~~~~~~~~~~~~~~~<":9484,">~~~~~~~~~~~~~~~~~~~~~<":9485,"ĠSystemTimeWarning":9486,"229":9487,"Multipart":9488,"ordering":9489,"retrie":9490,"hexversion":9491,"Ġcriteria":9492,"Ġregistration":9493,"riveTools":9494,"Ġconstructors":9495,"Ġevalu":9496,"[:,:],":9497,"Ġseparately":9498,"Ġinstantiate":9499,"Aggregate":9500,"Filters":9501,"MTP":9502,"bcpp":9503,"ĠCrawlerConfig":9504,"ĠDisplay":9505,"ĠEmbedType":9506,"ĠEmbedded":9507,"ĠVariables":9508,"ĠWebsite":9509,"Ġautomatic":9510,"Ġqrcode":9511,"Ġcalculate":9512,"ĠUpdateError":9513,"Ġconflicts":9514,"åºĶçĶ¨ä¸º":9515,"MediaType":9516,"Router":9517,"Routes":9518,"hyper":9519,"Ġregular":9520,"Ġnatural":9521,"Ġmarsh":9522,"ĠSupports":9523,"ĠSafeData":9524,"ĠAdmin":9525,"ĠLinear":9526,"ĠLineString":9527,"Ġepe":9528,"Ġearly":9529,"Ġearlier":9530,"ĠOGRGeom":9531,"ĠHelp":9532,"ĠEmailBackend":9533,"reezeCommand":9534,"boundary":9535,"ĠRedirect":9536,"ĠContextMixin":9537,"123456":9538,"autograd":9539,")``,<":9540,"Shared":9541,"Ð°Ð±":9542,"Ġedges":9543,"Ġsatir":9544,"ĠSomeone":9545,"ĠDATrie":9546,"ĠANSI":9547,"ĠFinderConfig":9548,"ĠReverseIPBase":9549,"ĠRecentlyUsedContainer":9550,"Enabled":9551,"Ġinterpreting":9552,"âĸĪâĸĪâĸĪâĸĪâĸĪâĸĪâĸĪâķĹ":9553,"Ġexecutables":9554,"ALIZABLE":9555,"ĠModulesOptions":9556,"ĠInlineKeyboardButton":9557,"Ġrestrictions":9558,"\"(?://([^":9559,"\"(?:#(.*))?":9560,"\"(?:\\?([^#]*":9561,"-]*):)?":9562,"APPS":9563,"BRACK":9564,"pads":9565,"Ð¾ÑĢ":9566,"åħ¥":9567,"debut":9568,"Ġplotly":9569,"Ġcareful":9570,"Ġfastapi":9571,"Ġowed":9572,"Ġowner":9573,"Ġ\"*\"":9574,"adowban":9575,"ĠSocketError":9576,"ĠSocketTimeout":9577,"ĠDateTime":9578,"ĠBertConfig":9579,"Ġtrailing":9580,"ĠRandomSampler":9581,"photo":9582,"phology":9583,"\"^(?:[":9584,"\"^(?:([":9585,"å®ļä¹ī":9586,"/?#]*))?\"<":9587,"1999":9588,"3578":9589,"370":9590,"Agent":9591,"GDALGetD":9592,"Tokens":9593,"caption":9594,"higher":9595,"morphology":9596,"Ġreduce":9597,"Ġmixup":9598,"Ġmerged":9599,"ceilrad":9600,"Ġcombined":9601,"Ġrandint":9602,"ĠGeo":9603,"CHATS":9604,"Couldn":9605,"Ġpopulated":9606,"manylinux":9607,"ĠStaticFile":9608,"reverser":9609,"Ġmovement":9610,"ĠasciiUppercase":9611,"ĠSpinnerInterface":9612,"ĠContainerCls":9613,"1555":9614,"PERCENT":9615,"UIRenderer":9616,"nodot":9617,"Ġaffect":9618,"Ġceil":9619,"Ġcrash":9620,"identity":9621,"Ġ(...)":9622,"ĠScene":9623,"Ġvideos":9624,"Ġlocks":9625,"Ġdevpi":9626,"ĠHeader":9627,"Ġcollecting":9628,"REQUIRED":9629,"Ġtrajectory":9630,"ĠUnsupportedOperation":9631,"abcdefgh":9632,"Ġparenthesized":9633,"å®īè£ħèĩª":9634,"ĠSUPPORTED":9635,"flatpages":9636,"âĸĪâĸĪâķĶâķĲâķĲâĸĪâĸĪâķĹâĸĪâĸĪâķĶâķĲâķĲâĸĪâĸĪâķĹ":9637,"\"%[":9638,"+.-]*):)?":9639,"AssertionError":9640,"DOTALL":9641,"DirectUrl":9642,"MIDDLEWARE":9643,"PointerBase":9644,"Prepare":9645,"RawConfigParser":9646,"Step":9647,"UTILS":9648,"savings":9649,"recently":9650,"Ġtaken":9651,"Ġturned":9652,"ĠcurSum":9653,"ĠScanResults":9654,"ĠCustomFilters":9655,"Ġdesired":9656,"querade":9657,"Ġhooks":9658,"urlencoded":9659,"ĠHumans":9660,"Ġtimestamps":9661,"ĠYoutubeDL":9662,"Ġcanonicalise":9663,"ĠRoundTrip":9664,"DEPRECATION":9665,"Devs":9666,"ĠStatement":9667,"[::-":9668,"correct":9669,"MAGEMAGI":9670,"ï¼ļ\")<":9671,"Ġmarkupsafe":9672,"âķļâķĲâķĲâķĲâķĲâķĿ":9673,"PyPIRCCommand":9674,"ĠColorate":9675,"ADDRZ":9676,"AvgPool":9677,"ABCDEFGHIJKLM":9678,"\"([^?#]*)\"<":9679,"+-]*:|":9680,">--------------------<":9681,"BASIC":9682,"Figure":9683,"Happy":9684,"HABET":9685,"NORMALIZABLE":9686,"SlamDevs":9687,"everseen":9688,"fortunately":9689,"næľĪ":9690,"psf":9691,"qrstuv":9692,"sInScope":9693,"wxyz":9694,"æķ°":9695,"æĸĩä»":9696,"éľĢè¦ģ":9697,"ìĽĶ":9698,"ĠâĢĶ":9699,"receiver":9700,"allocate":9701,"anasty":9702,"ardised":9703,"Ġdinleyici":9704,"isolate":9705,"Ġintranges":9706,"Ġbastardised":9707,"Ġmimic":9708,"ĠCatching":9709,"ĠImplicit":9710,"ĠLifoQueue":9711,"ĠLayer":9712,"sphinx":9713,"Ġconverts":9714,"ĠFastAPI":9715,"Ġprovisional":9716,"Ġdecides":9717,"ĠMockRequest":9718,"Ġgetpwnam":9719,"Ġhope":9720,"Ġhachoir":9721,"ĠBRACELESS":9722,"Ġevicted":9723,"Ġunhexlify":9724,"Ġunexpected":9725,"ĠHNDLR":9726,"METADATA":9727,"ĠInitializer":9728,"Ġenormous":9729,"Ġseriously":9730,"Ġpydantic":9731,"splitComparison":9732,"COOKIE":9733,"ALLOWED":9734,"kennethreitz":9735,"ĠInvalidWheelFilename":9736,"IDENTIFIER":9737,"Ġaccidentally":9738,"ĠFileMetaDataPayload":9739,"ForbiddenError":9740,"ĠPySocks":9741,"HASHFUNC":9742,"Ġ`-`.`-'":9743,"SecureTranport":9744,"ĠOpenLayers":9745,"IndexCandidateInfo":9746,"ĠSubjectAltNameWarning":9747,"åºĶçĶ¨ä¸ºç³»ç»ŁåºĶçĶ¨":9748,"ĠOGRGeomType":9749,"\"(?:#(.*))?$\",<":9750,"\"(?:\\?([^#]*))?\"<":9751,"å®ļä¹īåºĶçĶ¨ä¸ºç³»ç»ŁåºĶçĶ¨":9752,"å®īè£ħèĩªå®ļä¹īåºĶçĶ¨ä¸ºç³»ç»ŁåºĶçĶ¨":9753,"+.-]*):)?\"<":9754,"ABCDEFGHIJKLMNOPQRSTUVWXYZ":9755,"+-]*:|/)\")<":9756,"qrstuvwxyz":9757,"æĸĩä»¶":9758,"\"'<":9759,"\"]:<":9760,"\"][\"":9761,"#]+":9762,"#.*?":9763,"$)',":9764,"'^":9765,"'\"<":9766,"'')<":9767,"'),":9768,"']:<":9769,"'(?":9770,"']['":9771,"(\"\"":9772,"(\"\"\"<":9773,"(//":9774,"(([^":9775,"(#(.*))?":9776,"(:\\":9777,")%":9778,")'":9779,")//":9780,")(\\":9781,"*'<":9782,"*((":9783,"+(":9784,"+\",":9785,"+')<":9786,",'":9787,",)":9788,",):<":9789,".[":9790,"/(":9791,"/\")<":9792,"/>`":9793,"/*'<":9794,"03":9795,"06":9796,"110":9797,"150":9798,"1024":9799,"432":9800,"4000":9801,"57":9802,"59":9803,"691":9804,"7234":9805,"822":9806,"8440":9807,":\",":9808,":')<":9809,":]+":9810,";'":9811,"=<":9812,"=__":9813,">$":9814,">]":9815,">âĸĴ":9816,">\":<":9817,">`.<":9818,"?)":9819,"?$\")<":9820,"?#]+":9821,"AU":9822,"AX":9823,"As":9824,"AST":9825,"ANA":9826,"Aff":9827,"AUTH":9828,"Audio":9829,"ADED":9830,"ACCEPT":9831,"Actor":9832,"BN":9833,"BR":9834,"Be":9835,"Bt":9836,"Big":9837,"BER":9838,"BIT":9839,"BEL":9840,"Body":9841,"Blur":9842,"BERT":9843,"CSS":9844,"CSI":9845,"Caused":9846,"Click":9847,"Centr":9848,"CDATA":9849,"Dig":9850,"DIN":9851,"Div":9852,"DIO":9853,"Decimal":9854,"Deser":9855,"Decorator":9856,"Empty":9857,"Everything":9858,"Equivalent":9859,"ETreeBuilder":9860,"ECIF":9861,"FY":9862,"Fc":9863,"Four":9864,"FData":9865,"FRO":9866,"Font":9867,"Flag":9868,"FUSE":9869,"Hand":9870,"Has":9871,"Hour":9872,"Is":9873,"IDE":9874,"IMetadata":9875,"IWR":9876,"Jython":9877,"JointsDataset":9878,"Lat":9879,"Lib":9880,"Legacy":9881,"Lints":9882,"Lower":9883,"MK":9884,"MAT":9885,"MIT":9886,"Main":9887,"MAS":9888,"MUL":9889,"MWidget":9890,"Nr":9891,"Next":9892,"NegativeInfinity":9893,"NSI":9894,"Near":9895,"OO":9896,"Of":9897,"Out":9898,"OFFSET":9899,"Origin":9900,"PU":9901,"Ps":9902,"Port":9903,"Pai":9904,"PSE":9905,"Pkey":9906,"PROTO":9907,"PROTOCOL":9908,"PTION":9909,"PABLE":9910,"PECIF":9911,"Ran":9912,"Ray":9913,"REND":9914,"Rotation":9915,"RTU":9916,"Skey":9917,"Sdist":9918,"Save":9919,"Some":9920,"Sized":9921,"Space":9922,"SRC":9923,"SVE":9924,"SLA":9925,"Split":9926,"Sorry":9927,"Scaler":9928,"Tk":9929,"TOT":9930,"Tensor":9931,"TRA":9932,"TxtOutput":9933,"Tried":9934,"TELL":9935,"UE":9936,"UM":9937,"Users":9938,"UUID":9939,"VR":9940,"Vi":9941,"Val":9942,"VIO":9943,"Vuln":9944,"VulnName":9945,"Verbose":9946,"Vector":9947,"With":9948,"Way":9949,"Write":9950,"WINDOWS":9951,"Wheels":9952,"Xml":9953,"Yë":9954,"Yå¹":9955,"ZEN":9956,"[.":9957,"[()":9958,"['<":9959,"[...":9960,"]\"":9961,"]).":9962,"]!=":9963,"]>=":9964,"_#":9965,"_%":9966,"`).<":9967,"aware":9968,"aising":9969,"bn":9970,"bp":9971,"bal":9972,"bers":9973,"bine":9974,"blanchard":9975,"begin":9976,"cm":9977,"cmp":9978,"cit":9979,"cpython":9980,"card":9981,"cmsg":9982,"center":9983,"caster":9984,"cpu":9985,"cElementTree":9986,"click":9987,"capsulate":9988,"dx":9989,"don":9990,"dar":9991,"dent":9992,"due":9993,"dError":9994,"done":9995,"div":9996,"dim":9997,"dmin":9998,"dtype":9999,"dll":10000,"damage":10001,"dilation":10002,"directions":10003,"drivers":10004,"ev":10005,"emplate":10006,"fs":10007,"free":10008,"fns":10009,"fail":10010,"flict":10011,"freeze":10012,"failed":10013,"fsen":10014,"fayssal":10015,"gm":10016,"glass":10017,"gir":10018,"glue":10019,"green":10020,"hint":10021,"habib":10022,"iu":10023,"ike":10024,"ius":10025,"ijk":10026,"jr":10027,"jy":10028,"jæ":10029,"jac":10030,"jython":10031,"jout":10032,"jinja":10033,"kb":10034,"lator":10035,"linal":10036,"lhs":10037,"llane":10038,"mot":10039,"mand":10040,"mus":10041,"micro":10042,"mutex":10043,"nb":10044,"nm":10045,"ners":10046,"nop":10047,"nail":10048,"nanoseconds":10049,"nature":10050,"nhood":10051,"oit":10052,"ood":10053,"ology":10054,"pq":10055,"pot":10056,"pare":10057,"pem":10058,"pdf":10059,"person":10060,"paginator":10061,"pAff":10062,"ran":10063,"rconfig":10064,"rrevers":10065,"ranted":10066,"sal":10067,"sil":10068,"sError":10069,"slot":10070,"sHandler":10071,"srs":10072,"sBar":10073,"saniye":10074,"tf":10075,"typ":10076,"trie":10077,"ulabel":10078,"vo":10079,"wat":10080,"wts":10081,"windows":10082,"windll":10083,"xor":10084,"xied":10085,"yut":10086,"yes":10087,"zil":10088,"zmq":10089,"}\",":10090,"})\"<":10091,"}(:\\":10092,"¢ãĤ":10093,"¨å":10094,"´næľĪ":10095,"¸è":10096,"½½":10097,"Ã¡":10098,"Ä°":10099,"×ĳ":10100,"ØĮ":10101,"âľĺ":10102,"å¤":10103,"åį":10104,"ìĿ":10105,"Ġ9":10106,"Ġ;":10107,"Ġ00":10108,"ĠâĸĪ":10109,"Ġesc":10110,"ĠKEY":10111,"Ġ99":10112,"Ġãģ":10113,"Ġuts":10114,"ĠâĸĪâĸĪâķĹ":10115,"Ġicer":10116,"Ġhellodjango":10117,"Ġquestion":10118,"Ġ×ĳ":10119,"ħĦ":10120,"Īãģ®":10121,"ķļ":10122,"Ĺ¥":10123,"ordered":10124,"oracle":10125,"inde":10126,"invert":10127,"information":10128,"incip":10129,"inners":10130,"ernet":10131,"erify":10132,"ercher":10133,"></":10134,"mpt":10135,"mpv":10136,"mpeg":10137,"ony":10138,"onds":10139,"online":10140,"seg":10141,"require":10142,"recurs":10143,"implements":10144,"Ġtrue":10145,"Ġtxt":10146,"Ġtail":10147,"Ġtrip":10148,"Ġtied":10149,"Ġtultd":10150,"attemp":10151,"atrix":10152,"atexit":10153,"atÄ±r":10154,"sts":10155,"stale":10156,"starknet":10157,"enur":10158,"enate":10159,"encoder":10160,"envelope":10161,"develo":10162,"detail":10163,"Ġav":10164,"Ġaio":10165,"Ġajout":10166,"roman":10167,"romet":10168,"leton":10169,"leaking":10170,"lebi":10171,"tile":10172,"tiger":10173,"tible":10174,"tify":10175,"heus":10176,"alo":10177,"Ġpi":10178,"Ġpp":10179,"Ġput":10180,"Ġpics":10181,"Ġpublish":10182,"Ġpromet":10183,"Ġcc":10184,"Ġche":10185,"Ġcel":10186,"Ġcpython":10187,"Ġcredentials":10188,"Ġcsrf":10189,"Ġcrawl":10190,"Ġclear":10191,"ĠcPickle":10192,"Ġcurrency":10193,"ane":10194,"anti":10195,"aning":10196,"anum":10197,"ants":10198,"__\":<":10199,"___/":10200,"ingCircle":10201,"Ġreinit":10202,"Ġrepo":10203,"Ġreally":10204,"Ġrelied":10205,"Ġrewrite":10206,"Ġrelying":10207,"arate":10208,"arson":10209,"arsing":10210,"arcaster":10211,"ittle":10212,"Ġfan":10213,"Ġfur":10214,"Ġfurn":10215,"Ġfint":10216,"Ġfmode":10217,"Ġfact":10218,"Ġfaster":10219,"Ġfreeze":10220,"Ġflask":10221,"Ġflood":10222,"ssh":10223,"ssv":10224,"ssue":10225,"ssible":10226,"ssrf":10227,"ssltr":10228,"urt":10229,"Ġdat":10230,"Ġdic":10231,"Ġdlib":10232,"Ġdash":10233,"Ġdropped":10234,"Ġdrivers":10235,"---":10236,"Ġsour":10237,"Ġsay":10238,"Ġsaf":10239,"Ġsong":10240,"Ġslot":10241,"Ġswagger":10242,"Ġsaniye":10243,"Ġsiblings":10244,"Ġsongs":10245,"Ġsaniti":10246,"Ġslice":10247,"isual":10248,"isible":10249,"utOf":10250,"Ġomit":10251,"Ġinsecure":10252,"Ġinjection":10253,"Ġinsurance":10254,"ionrock":10255,"icy":10256,"icial":10257,"loud":10258,"ladmin":10259,"Ġbz":10260,"Ġband":10261,"Ġbund":10262,"Ġbread":10263,"Ġbrow":10264,"Ġbrou":10265,"Ġbbc":10266,"colo":10267,"covery":10268,"coerce":10269,"Ġ\"{":10270,"Ġ\")<":10271,"Ġ\"==":10272,"Ġ\"!=":10273,"Ġ\"@@@":10274,"edPayload":10275,"edOffset":10276,"Ġns":10277,"Ġnmaps":10278,"Ġnecess":10279,"ĠnìĽĶ":10280,"Ġwts":10281,"Ġwkt":10282,"Ġwintypes":10283,"Ġwants":10284,"una":10285,"une":10286,"ung":10287,"uny":10288,"unset":10289,"unts":10290,"unmute":10291,"export":10292,"exclude":10293,"excluded":10294,"enta":10295,"fiers":10296,"figobj":10297,"ĠTA":10298,"ĠTar":10299,"ĠTarget":10300,"ĠTry":10301,"ĠTensor":10302,"ĠTwit":10303,"ĠTypically":10304,"ecek":10305,"echan":10306,"Ġmor":10307,"Ġmsv":10308,"Ġmention":10309,"Ġmapped":10310,"Ġmenu":10311,"idCo":10312,"idom":10313,"adb":10314,"gopt":10315,"ceptr":10316,"cellane":10317,"uess":10318,"rilebi":10319,"thandler":10320,"thenur":10321,"ased":10322,"Ġcomm":10323,"Ġcomand":10324,"lias":10325,"ershed":10326,"Ġ(__)":10327,"upgra":10328,"updated":10329,"updater":10330,"otp":10331,"Ġforward":10332,"ateDatabase":10333,"Ġancestor":10334,"Ġisfile":10335,"Ġisolation":10336,"Ġ')":10337,"Ġ'+":10338,"Ġ'--":10339,"Ġ'\"',":10340,"getter":10341,"getAttribute":10342,"getTreeBuilder":10343,"apon":10344,"apis":10345,"apture":10346,"apleton":10347,"ĠSol":10348,"ĠSend":10349,"ĠSta":10350,"ĠSample":10351,"ĠSAN":10352,"ĠSpace":10353,"ĠSIG":10354,"ĠSITE":10355,"ĠSchemaEditor":10356,"ĠSmall":10357,"ĠSMTP":10358,"ĠSAX":10359,"ĠSPECIF":10360,"ĠSatÄ±r":10361,"Ġasset":10362,"Ġassets":10363,"ĠPe":10364,"ĠPrep":10365,"ĠPRO":10366,"ĠPoints":10367,"ĠPsycopg":10368,"ĠPickling":10369,"olding":10370,"ipes":10371,"ipedia":10372,"ĠCk":10373,"ĠClasses":10374,"ĠCalled":10375,"ĠCPython":10376,"ĠCSI":10377,"ĠClosed":10378,"ĠCord":10379,"ĠCLI":10380,"ĠClear":10381,"ĠCurrency":10382,"Ġ##":10383,"ĠNow":10384,"ĠNull":10385,"ĠNONE":10386,"ĠNetflix":10387,"ackError":10388,"ackets":10389,"ĠDB":10390,"ĠDan":10391,"ĠDue":10392,"ĠDEP":10393,"ĠDisc":10394,"ĠDirection":10395,"ĠDDL":10396,"ĠDJANGO":10397,"ĠDecorator":10398,"ĠDROP":10399,"ĠAES":10400,"ĠAfter":10401,"ĠALP":10402,"ĠACCEPT":10403,"ĠABC":10404,"Ġthus":10405,"condition":10406,"constructor":10407,"concrete":10408,"consecutive":10409,"configobj":10410,"ĠINT":10411,"ĠIssue":10412,"asco":10413,"assets":10414,"asquerade":10415,"ĠLots":10416,"ĠLexer":10417,"ĠLanguage":10418,"ĠLiu":10419,"ĠLarson":10420,"ATORS":10421,"serv":10422,"serializ":10423,"setdb":10424,"spinners":10425,"program":10426,"provided":10427,"providing":10428,"proxies":10429,"trc":10430,"trary":10431,"cho":10432,"chunk":10433,"chmod":10434,"chokri":10435,"Ġvoit":10436,"Ġvisible":10437,"()\"\"\"<":10438,"etags":10439,"ettiger":10440,"oday":10441,"Ġrfc":10442,"Ġraising":10443,"Ġlst":10444,"Ġlis":10445,"Ġlatest":10446,"Ġui":10447,"Ġconst":10448,"Ġcondition":10449,"Ġconven":10450,"Ġconstraint":10451,"Ġconvenience":10452,"Rep":10453,"Reparse":10454,"Remove":10455,"Reference":10456,"ĠFrom":10457,"ĠFrame":10458,"ĠFeed":10459,"ĠFAV":10460,"ĠFayssal":10461,"ĠFloatField":10462,"ĠFreezeCommand":10463,"ĠFernet":10464,"amily":10465,"Ġlogo":10466,"Ġlogs":10467,"Ġ<(":10468,"jects":10469,"izing":10470,"ubs":10471,"tplib":10472,"maux":10473,"Ġfilepath":10474,"Ġproperly":10475,"Ġproperties":10476,"Ġproxied":10477,"veau":10478,"Ġdebu":10479,"Ġdeinit":10480,"Ġdecomp":10481,"Ġdepart":10482,"Ġdesk":10483,"Ġdedic":10484,"Ġdeepgram":10485,"Ġdedent":10486,"ĠMA":10487,"ĠMa":10488,"ĠMin":10489,"ĠMap":10490,"ĠMod":10491,"ĠMix":10492,"ĠMute":10493,"ĠMRO":10494,"ĠMechan":10495,"ĠUN":10496,"ĠUSE":10497,"ĠUsu":10498,"ĠgetValue":10499,"Ġgetting":10500,"Ġgetpass":10501,"ĠgetTreeWalker":10502,"ĠgetFirst":10503,"ĠgetETreeBuilder":10504,"ĠgetNext":10505,"versed":10506,"verified":10507,"figure":10508,"ĠGab":10509,"ĠGEN":10510,"ĠGlob":10511,"ĠGrad":10512,"ĠGMT":10513,"ĠGaussian":10514,"Ġgd":10515,"Ġgens":10516,"Ġgrad":10517,"Ġgives":10518,"Ġgmtime":10519,"Ġgranted":10520,"Ġguess":10521,"Ġdistinct":10522,"Ġhr":10523,"Ġhint":10524,"Ġhard":10525,"Ġhacks":10526,"ulates":10527,"(\":":10528,"(\">":10529,"(\")<":10530,"(\"{}":10531,"parameters":10532,"ĠBan":10533,"ĠBlock":10534,"ĠBEL":10535,"ĠBAND":10536,"ĠBlanchard":10537,"excel":10538,"oref":10539,"Ġeg":10540,"Ġei":10541,"Ġele":10542,"Ġeod":10543,"Ġeye":10544,"Ġunified":10545,"Ġuniversity":10546,"Ġunadjust":10547,"Ġunverified":10548,"Ġ\"\"\")<":10549,"Ġ[-":10550,"Ġmeg":10551,"Ġmedi":10552,"Ġmetric":10553,"Ġmembers":10554,"Ġmemor":10555,"Ġmeaning":10556,"iglob":10557,"ĠOptions":10558,"ĠOGE":10559,"ĠOutOf":10560,"Ġbegin":10561,"ableBody":10562,"ached":10563,"pytest":10564,"pyOpenSSL":10565,"filepath":10566,"filetypes":10567,"Ġpara":10568,"Ġparam":10569,"prev":10570,"preinit":10571,"preview":10572,"pressions":10573,"appengine":10574,"Ġord":10575,"ĠHost":10576,"ĠHOST":10577,"ĠHIDE":10578,"ĠHettiger":10579,"Ġwhom":10580,"ĠComment":10581,"ĠCommon":10582,"Inst":10583,"Inter":10584,"Invariant":10585,"Injects":10586,"ĠElement":10587,"ĠEnd":10588,"ĠEasy":10589,"ĠEach":10590,"ĠEpoch":10591,"ĠEOL":10592,"ĠETag":10593,"ĠECONN":10594,"irInfo":10595,"ifference":10596,"packer":10597,"Ġste":10598,"Ġstale":10599,"Ġstmt":10600,"Ġstability":10601,"Ġstoring":10602,"Ġstores":10603,"Ġstubs":10604,"owsk":10605,"outbox":10606,"('%":10607,"('\\\\":10608,"('[\\":10609,"('#.*?":10610,"Constants":10611,"Conflict":10612,"combine":10613,"taste":10614,"SERI":10615,"SECTION":10616,"SECRET":10617,"Ġsessions":10618,"Ġsender":10619,"compute":10620,"comparison":10621,"composer":10622,"ĠRemap":10623,"ĠRegex":10624,"ĠRequires":10625,"ĠRequired":10626,"ĠReading":10627,"ĠRevers":10628,"ĠRegen":10629,"Ġ14":10630,"Ġ199":10631,"Ġ113":10632,"Ġ1024":10633,"003":10634,"0010":10635,"ENCE":10636,"aymon":10637,"aybe":10638,"Ġonwards":10639,"ĠonDownload":10640,"Ġcompliant":10641,"ĠInspect":10642,"ĠInten":10643,"ĠInitialize":10644,"ĠIntersection":10645,"timetuple":10646,"timegm":10647,"INSER":10648,"assign":10649,"assert":10650,"Ġalter":10651,"Ġalters":10652,"Ġalong":10653,"Ġprinting":10654,"Ġentire":10655,"ĠVc":10656,"ĠVAL":10657,"ĠVoice":10658,"ĠVulner":10659,"ĠVoltage":10660,"ĠVisual":10661,"errorlist":10662,"Ġabspath":10663,"csample":10664,"csInfo":10665,"ivant":10666,"Ġyes":10667,"Ġyear":10668,"Ġyoutube":10669,"ograph":10670,">âķļ":10671,"Ġ:(\")<":10672,"Ġtee":10673,"Ġteam":10674,"agile":10675,"Ġgoes":10676,"ĠPythons":10677,"ĠPythonVersion":10678,"ĠPythonCodec":10679,"ĠPythonSerializer":10680,"ĠPythonDeser":10681,"Ġshquote":10682,"Ġshadow":10683,"Ġcolno":10684,"Ġcolored":10685,"Ġcollision":10686,"imer":10687,"imwrite":10688,"Ġexclude":10689,"Ġexpose":10690,"Ġexports":10691,"textarea":10692,"basename":10693,"song":10694,"ĠWarn":10695,"ĠWarned":10696,"ĠWriting":10697,"ĠWelcome":10698,"inputstream":10699,"CKLE":10700,"indableBody":10701,"Exceptions":10702,"ExtraData":10703,"ExcludedModules":10704,"ICATE":10705,"distribute":10706,"Ġpackb":10707,"Ġpacker":10708,"Ġtimes":10709,"Ġchercher":10710,"Ġbuf":10711,"Ġbug":10712,"``,<":10713,"``).":10714,"coref":10715,"ERR":10716,"ERIC":10717,"pprint":10718,"Load":10719,"REPYTHON":10720,"RECATION":10721,"REAM":10722,"README":10723,"REFUSE":10724,"Ġtrange":10725,"Ġart":10726,"aryNotFound":10727,"CHES":10728,"datastructures":10729,"dataState":10730,"fferFull":10731,"Ġserve":10732,"Ġserialize":10733,"ĠYang":10734,"ĠYANG":10735,"ĠYAML":10736,"\");":10737,"\");<":10738,"\")[-":10739,"ITER":10740,"ITemplate":10741,"STDOUT":10742,"ansi":10743,"Ġadjac":10744,"===<":10745,"dier":10746,"dirilebi":10747,"irectly":10748,"Ġsuppri":10749,"lenecek":10750,"ĠUndefined":10751,"ĠUnique":10752,"ĠUnrecognizedFormat":10753,"ĠUnrew":10754,"listener":10755,"THO":10756,"VersionControl":10757,"Ġpredict":10758,"Ġpretty":10759,"ĠRout":10760,"ĠRock":10761,"ĠRender":10762,"ĠRather":10763,"ĠRaymon":10764,"Ġelsewhere":10765,"refreplace":10766,"ominate":10767,"FieldDefault":10768,"osing":10769,"Configuration":10770,"lates":10771,"Ġ333":10772,"Ġ3986":10773,"isionError":10774,"ializationError":10775,"dedent":10776,"Ġpytorch":10777,"Ġpygame":10778,"Ġpymongo":10779,"Ġclassonly":10780,"envoie":10781,"Ġnumerate":10782,"SHA":10783,"fixture":10784,"ĠBaseTransport":10785,"ĠBaseFinder":10786,"ĠBaseHeuristic":10787,"ĠBaseSpatialFeatures":10788,"PIX":10789,"PICKLE":10790,"Ġreads":10791,"BaseHeuristic":10792,"!</":10793,"016":10794,"ðĿĳ":10795,"hell":10796,"Ġdivmod":10797,"Stuff":10798,"Ġapplying":10799,"COLS":10800,"Ġcachecontrol":10801,"DEO":10802,"ĠConvert":10803,"ĠContrary":10804,"iterator":10805,"iterations":10806,"ĠVersionType":10807,"called":10808,"calendar":10809,"calcsize":10810,"Ġknn":10811,"ĠHTTPHandler":10812,"ĠHTTPSHandler":10813,"~~~~~~~~~~~<":10814,"Ġdetected":10815,"ĠUserNot":10816,"Ġsubject":10817,"Ġsubpackages":10818,"Ġsublicense":10819,"Ġsubdirectory":10820,"Ġsubdomain":10821,"Ġsubmodules":10822,"Ġsubtitles":10823,"testing":10824,"ities":10825,"Ġimplementing":10826,"Develop":10827,"Delta":10828,"Deprecated":10829,"ndic":10830,"Ġfilm":10831,"Ġoutfile":10832,"Ġoutside":10833,"='',":10834,"=''):<":10835,"ALENV":10836,"ĠDistutilsArg":10837,"addini":10838,"ĠDictMixin":10839,"formatter":10840,"Ġtrying":10841,"Ġtextarea":10842,"Uninstall":10843,"Undefined":10844,"Unique":10845,"ironpython":10846,"Ġdisk":10847,"maxEnumerationTime":10848,"Bottleneck":10849,"Parsing":10850,"Ġsometimes":10851,"share":10852,"shuff":10853,"ĠSetting":10854,"ĠSetConsole":10855,"LSocket":10856,"ĠjìĿ":10857,"antum":10858,"EPGRAM":10859,"ardless":10860,"Ġinstallations":10861,"ResourceCache":10862,"Ġopens":10863,"Ġprincip":10864,"film":10865,"ness":10866,"netrc":10867,"NotBe":10868,"sublist":10869,"subdir":10870,"checklist":10871,"managers":10872,"Ġanyway":10873,"ĠStapleton":10874,"ĠStackError":10875,"Entities":10876,"Enhan":10877,"LOCAL":10878,"LOADED":10879,"Ġfollowed":10880,"rpcTransport":10881,"rpcerrorlist":10882,"ANSI":10883,"[:],":10884,"1252":10885,"Ġspaces":10886,"disposition":10887,"arger":10888,"argtypes":10889,"Ġinterp":10890,"Ġinterval":10891,"Ġinterrup":10892,"ĠTools":10893,"ĠInvalidPage":10894,"ĠInvalidSdist":10895,"DOFFSET":10896,"outputs":10897,"FileName":10898,"FileList":10899,"FileOperation":10900,"FileWrapper":10901,"FileOperator":10902,"FileCould":10903,"joint":10904,"jobs":10905,"architecture":10906,"defaultdict":10907,"ĠJython":10908,"ĠInstallation":10909,"ĠInstallationResult":10910,"creti":10911,"Ġnewline":10912,"Ġnewsections":10913,"ĠwriteResults":10914,"Ġaddr":10915,"SSLTransport":10916,"KeyBasedCompareMixin":10917,"sumed":10918,"suffix":10919,"suivant":10920,"ĠExtract":10921,"ĠExtraData":10922,")))*":10923,"OSC":10924,"gned":10925,"gnize":10926,"Ġaccuracy":10927,"Ġacross":10928,"RequestWarning":10929,"RequirementSet":10930,"Ġgenerator":10931,"Ġvalidation":10932,"Anchor":10933,"logged":10934,"ffff":10935,"llinux":10936,"whitespace":10937,"ĠPEPs":10938,"CacheControl":10939,"ĠGetAll":10940,"Distance":10941,"DataSet":10942,"ModeElements":10943,"Ġpermit":10944,"Ġpermission":10945,"Ġsuite":10946,"Ġsudo":10947,"Ġsuspect":10948,"ĠTestCase":10949,"Seq":10950,"Search":10951,"ĠDeepgram":10952,"ĠFilePayload":10953,"alkers":10954,"avg":10955,"aved":10956,"ForSocket":10957,"ForClassification":10958,"ĠfoundElements":10959,"ĠAPIs":10960,"MENTS":10961,"MENTUM":10962,"ĠRequestField":10963,"DIST":10964,"axes":10965,"bins":10966,"tupleuh":10967,"ĠProvide":10968,"')]":10969,"nodeName":10970,"Ġ\"<!":10971,"Ġhereby":10972,"helps":10973,"COLLA":10974,"decoded":10975,"ĠForce":10976,"Ġexpand":10977,"PythonVersion":10978,"ToString":10979,"ToWait":10980,"Ġ425":10981,"ĠWei":10982,"grouping":10983,"timizer":10984,"Ġmaps":10985,"IPv":10986,"Ġreplying":10987,"Ġreplaces":10988,"ĠtokenTypes":10989,"Ġtokenizing":10990,"Ġ('/'":10991,"Ġmainly":10992,"Ġdeploy":10993,"Ġdepending":10994,"Ġunpacking":10995,"ULD":10996,"noop":10997,"Ġoverview":10998,"characters":10999,"chardet":11000,"charrefreplace":11001,"mitter":11002,"(*(":11003,"Double":11004,"PRETRA":11005,"PREVIO":11006,"]+\"":11007,"]+|":11008,"]+\"<":11009,"ĠSSB":11010,"ĠSSLSocket":11011,"ĠDataAugment":11012,"...\")<":11013,"Ġpoints":11014,"Chars":11015,"'].":11016,"0003":11017,"0004":11018,"0005":11019,"0009":11020,"Ġtransition":11021,"Ġtranslates":11022,"GetMiddleware":11023,"GetParams":11024,"GetThreads":11025,"Ġwords":11026,"Ġworld":11027,"âķĲâķĲâķĿâķļ":11028,"Ġdatabases":11029,"CodecInfo":11030,"marker":11031,"Ġoutputs":11032,"RAY":11033,"Ġhelpers":11034,"phone":11035,"interpol":11036,"roundup":11037,"Ġfinds":11038,"Ġstreaming":11039,"Ġstreamlit":11040,"Ġstreamreader":11041,"Ġstreamwriter":11042,"Ġtelepot":11043,"Ġauthenticate":11044,"partInvariant":11045,"ĠResnet":11046,"ĠResourceCache":11047,"ĠtreeType":11048,"Ġtreebuilder":11049,"Ġsorting":11050,"foreign":11051,"ĠxmlEntities":11052,"Ġxmlcharrefreplace":11053,"Ġdifferences":11054,"Metric":11055,"Tele":11056,"Ġmultipli":11057,"tokenize":11058,"ĠCacheCommand":11059,"Ġconsist":11060,"qualname":11061,"qualities":11062,"([^/?#]*":11063,"mtree":11064,"unknown":11065,"ĠDatabaseClient":11066,"Ġ2006":11067,"Username":11068,"passwd":11069,"detect":11070,"detector":11071,"Ġautocast":11072,"Ġautocompletion":11073,"Ġstatement":11074,"CaseFilter":11075,"CaseNum":11076,"warped":11077,"chedule":11078,"ditionalGetMiddleware":11079,"TextAttribute":11080,"Ġkeeping":11081,"Ġkeepdb":11082,"dependency":11083,"anger":11084,"Ġbinding":11085,"Ġbinance":11086,"ĠHttpRequest":11087,"ĠEnemy":11088,"Ġ{},":11089,"Ġ{})<":11090,"Ġ{}'.":11091,"ResultBy":11092,"TED":11093,"TELEGRAM":11094,"TokenTypes":11095,"monkey":11096,"ictions":11097,"ĠNodeNotFoundError":11098,"ĠbooleanAttributes":11099,"WalkerCache":11100,"ikTok":11101,"xmlreader":11102,"Ġqs":11103,"Ġenters":11104,"Ġtabulate":11105,"Ġ\"%(":11106,"{}{}":11107,"Ġdirected":11108,"Ġminidom":11109,"FinderConfig":11110,"Many":11111,"Manage":11112,"Manifest":11113,"TRY":11114,"clean":11115,"treeType":11116,"treebuilder":11117,"treebuilders":11118,"treeadap":11119,"treeWalkerCache":11120,"zipfile":11121,"ĠNoWay":11122,"these":11123,"ãĤ¯":11124,"ãĤ¢ãĤ":11125,"Ġregistering":11126,"Ġregistered":11127,"localtime":11128,"localName":11129,"extraction":11130,"ĠAlways":11131,"ĠlocalName":11132,"Ġeggs":11133,"Ġstartproject":11134,"revolt":11135,"Ġspecifiers":11136,"Ġmoved":11137,"ĠBuild":11138,"ĠBufferFull":11139,"Ġordering":11140,"reshaped":11141,"Enumerators":11142,"escapeFlag":11143,"Ġalive":11144,"Ġaliased":11145,"Ġcalls":11146,"ĠHTMLTokenizer":11147,"ĠspacePre":11148,"ĠREADME":11149,"ĠComposer":11150,"ĠCompatibility":11151,"CAPTION":11152,"ObjectMixin":11153,"parents":11154,"Ġpatched":11155,"ĠConnectionDoesNotExist":11156,"Backing":11157,"Backports":11158,"JSONCodec":11159,"JSONSerializer":11160,"JSONEncoder":11161,"globally":11162,"regression":11163,"ĠtableInsert":11164,"Ġ\"\\\\\",":11165,"Ġformal":11166,"ĠChecks":11167,"Ġchanged":11168,"Ġweights":11169,"ParseResults":11170,"({'":11171,"20140":11172,"Collect":11173,"MOMENTUM":11174,"MissingError":11175,"macinto":11176,"Ġ610":11177,"Ġ656":11178,"ĠPipXml":11179,"ĠLOOKUP":11180,"ĠMigrationLoader":11181,"ContextMixin":11182,"Statement":11183,"official":11184,"Ġskipped":11185,"GeometryMixin":11186,"Marker":11187,"Subpackage":11188,"Ġgeo":11189,"ĠPathMetadata":11190,"ĠChokri":11191,"ĠChrist":11192,"ĠAddField":11193,"Ġ100000":11194,"Comments":11195,"Ġdoctests":11196,"Ġposted":11197,"BuildEnvironment":11198,"BinaryIO":11199,"PATI":11200,"rcdataElements":11201,"warnings":11202,"Ġfinalization":11203,"Ġwins":11204,"Ġwinbase":11205,"Ġwinapi":11206,"Ġmarkers":11207,"ĠStrings":11208,"Ġlonger":11209,"ĠFieldError":11210,"ĠFieldInfo":11211,"Ġzeroth":11212,"))?([^?#]*":11213,"))?(#(.*))?":11214,"hasattr":11215,"hasChildNodes":11216,"saturation":11217,"Ġeditable":11218,"Ġcapabi":11219,"Ġcaptions":11220,"Ġdownside":11221,"Ġsaveopts":11222,"ĠBottleneck":11223,"ĠOSC":11224,"ĠOSMWidget":11225,"ĠObjectDoesNotExist":11226,"Ġchardetect":11227,"2009":11228,"20000":11229,"2000000":11230,"Recipe":11231,"finalized":11232,"Ġetag":11233,"Ġfailure":11234,"Ġmodified":11235,"Ġmodern":11236,"Ġ'_'":11237,"ĠPerceptr":11238,"ĠAuthentication":11239,"connector":11240,"âĸĳâĸĳâĸĪâĸĪâĸĪâĸĪâĸĪâķĹ":11241,"Ġaccessing":11242,"(?:\\":11243,"\"^(([^":11244,"EditedPayload":11245,"NSPs":11246,"Seconds":11247,"behavior":11248,"cedence":11249,"})\".":11250,"})?$\")<":11251,"realtime":11252,"olationDefect":11253,"ĠAUTHORIZ":11254,"Ġdecorators":11255,"ĠMirrors":11256,"ĠReplied":11257,"ĠhexDig":11258,"Ġspecifically":11259,"ĠHttpResponsePer":11260,"Creating":11261,"radius":11262,"initialise":11263,"erosion":11264,"Ġrecovery":11265,"Ġrecognize":11266,"Ġfront":11267,"Ġfragment":11268,"Ġfragile":11269,"firstChild":11270,"ĠSymbols":11271,"ĠCollection":11272,"ĠCollect":11273,"ĠCodeType":11274,"Ġconftest":11275,"Ġdescribe":11276,"ĠOpenAPI":11277,"ĠElementTreeImplementation":11278,"Ġadmins":11279,"Ġlettre":11280,"Ġidentical":11281,"ĠLocationValueError":11282,"ĠIDNABidiError":11283,"SUVO":11284,"autocompletion":11285,"stderrthreshold":11286,"utcnow":11287,"existing":11288,"express":11289,"ĠChatSend":11290,"ĠMultipartInvariant":11291,"ĠViewInspector":11292,"Ġ...])":11293,"Ġ...]:<":11294,"Ġknows":11295,"Ġjobs":11296,"26691":11297,"VIRTU":11298,"VIDEO":11299,"finished":11300,"ĠtagTokenTypes":11301,"threads":11302,"Ġvariant":11303,"Ġstdin":11304,"Ġstdlib":11305,"Ġstdout":11306,"ĠIncrementalBar":11307,"ĠBaseDatabaseClient":11308,"ĠStreamWriter":11309,"ĠStreamReader":11310,"Ġtransformers":11311,"HEADERS":11312,"Supports":11313,"Web":11314,"WinDLL":11315,"cipant":11316,"nextSibling":11317,"ĠÐ¶":11318,"Ġpurge":11319,"Ġpurpose":11320,"Ġpersons":11321,"Ġfinalize":11322,"Ġsmtplib":11323,"ĠSTDOUT":11324,"ĠSTDIN":11325,"ĠSQLite":11326,"Ġlookups":11327,"ĠWSGIHandler":11328,"ElementTreeImplementation":11329,"QUENCE":11330,"frontend":11331,"strides":11332,"Ġsigning":11333,"Ġsignify":11334,"Ġinjects":11335,"Ġinjecting":11336,"terminal":11337,"ĠSecurityWarning":11338,"ĠSwaggerUIRenderer":11339,"Ġbytestring":11340,"Ġmajority":11341,"ĠWheelDistribution":11342,"AlterModel":11343,"3694":11344,"GRAY":11345,"LIMIT":11346,"URLSchemeUnknown":11347,"\\\\/?#]*))?\"<":11348,"tensorboard":11349,"vcaccess":11350,"âĢı":11351,"Ġ~~~~~~~~~~~~<":11352,"Ġpyparsing":11353,"Ġpatching":11354,"Ġsimplify":11355,"Ġ\"/\":":11356,"struction":11357,"ĠShort":11358,"ĠShortcuts":11359,"ĠPrinting":11360,"abilityInfo":11361,"Ġthresholding":11362,"STRUC":11363,"ĠHTTPSConnection":11364,"ĠTemporary":11365,"endencyWarning":11366,"ĠDocumentType":11367,"COMMENTED":11368,">`_.":11369,">`_.<":11370,"ĠSystemError":11371,"ĠSystemExit":11372,"MultiDomain":11373,"variables":11374,"Ġ!!!":11375,"hexdigest":11376,"lastFour":11377,"Ġblocks":11378,"Ġblocking":11379,"Ġvoidptr":11380,"Ġconstructing":11381,"magenta":11382,"umanize":11383,"ĠBadCommand":11384,"Indent":11385,"ĠSearchVector":11386,"ĠFormatError":11387,"postgresql":11388,"[:,:](":11389,"ĠConfigurationFileCould":11390,"Ġinstantiated":11391,"Ġinstantiating":11392,"ĠSuspiciousFileOperation":11393,"AndState":11394,"csswg":11395,"lmnop":11396,"pieces":11397,"Ġportion":11398,"Ġpixels":11399,"ĠTEMPLATE":11400,"ĠTELEGRAM":11401,"ĠParseResults":11402,"ĠLeaf":11403,"ĠUTC":11404,"ĠGeometryCollection":11405,"ĠExtension":11406,"ContentNe":11407,"Ġ16384":11408,"Ġyazi":11409,"Ġgoodbye":11410,"StartEvent":11411,"Ġassumed":11412,"ProxyError":11413,"ĠWebCrawler":11414,"ĠQuerySet":11415,"Ġcalculated":11416,"Ġconflicting":11417,"Ġconflictual":11418,"ĠMySQLIntrospection":11419,"ĠMySQLGISSchemaEditor":11420,"ĠMetadataConflict":11421,"ĠMetadataMissingError":11422,"=\"\")<":11423,"ECTIONS":11424,"HTMLParser":11425,"HolderMixin":11426,"Previously":11427,"Runtime":11428,"mklabels":11429,"policy":11430,"randint":11431,"Ġlimitation":11432,"Ġpages":11433,"Ġregression":11434,"Ġregardless":11435,"definition":11436,"goodbye":11437,"topics":11438,"ĠSupported":11439,"ĠSimpleLazy":11440,"serveElements":11441,"children":11442,"Ġlru":11443,"(\"[%":11444,"ĠInsecureRequestWarning":11445,"Ġattached":11446,"Ġadjustments":11447,"ĠStartBound":11448,"123456789":11449,"IDNAError":11450,"IDNABidiError":11451,"(?=$)',":11452,"ĠQuick":11453,"ĠQuoref":11454,"ĠQuantum":11455,"ï¼ī\")<":11456,"Ġredirects":11457,"Ġ~~~~~~~~~~~~~~~~~~<":11458,"Ġ~~~~~~~~~~~~~~~~~~~~~<":11459,"Ġ~~~~~~~~~~~~~~~~~~~~~~~~~~~<":11460,"CallableOperator":11461,"NullProvider":11462,"SKIPPABLE":11463,"small":11464,"Ġlipreading":11465,"alphanum":11466,"Ġplayer":11467,"Ġplayback":11468,"animaux":11469,"Ġreceiving":11470,"Ġfixes":11471,"Ġsaturation":11472,"activated":11473,"Ġtooling":11474,"ĠScannerConfig":11475,"ĠScannerReport":11476,"ĠPostGIS":11477,"ĠCallbackFileWrapper":11478,"ĠAccept":11479,"umbnail":11480,"(\"-\",":11481,"ĠOperationalError":11482,"('/')":11483,"ConnectTimeoutErrors":11484,"ĠWKTAdapter":11485,"Ġtraining":11486,"STATIC":11487,"ĠRecipes":11488,"NUMBER":11489,"redirects":11490,"issuecomment":11491,"Ġterminal":11492,"Ġterminals":11493,"Ġterminology":11494,"dispatcher":11495,"Ġinterpret":11496,"Docypes":11497,"TemplateResponse":11498,"ĠASGIHandler":11499,"ĠTracebackType":11500,"BuildSystem":11501,"BuildTag":11502,")/(":11503,"EarthObject":11504,"FUNCTYPE":11505,"SchemaGenerator":11506,"nonzero":11507,"lettre":11508,"Ġcopies":11509,"approve":11510,"approaches":11511,"Ġasked":11512,"Ġloops":11513,"Ġdeleted":11514,"Ġdeletable":11515,"Ġdesigned":11516,"Ġattempting":11517,"ĠRenamed":11518,"affs":11519,"Ġ503":11520,"Ġretrieving":11521,"ãĥ³ãĥ":11522,"ãĥ¼ãĥ":11523,"ĠAlterModel":11524,"ĠâĸĦâĸĢ":11525,"ĠPermissionDenied":11526,"Ġalgorithm":11527,"MSGPACK":11528,"5003694":11529,"65432":11530,"Again":11531,"HOOK":11532,"Linear":11533,"MINS":11534,"WKTReader":11535,"brotli":11536,"capture":11537,"differ":11538,"high":11539,"longopt":11540,"ä»¥":11541,"inspectors":11542,"development":11543,"ĠclÃ©":11544,"Ġcarry":11545,"Ġreducing":11546,"Ġndarr":11547,"Ġmixed":11548,"ĠPrior":11549,"\",\"/":11550,"ĠMIMEMultipart":11551,"âĸĵâĸĪ":11552,"Ġemitting":11553,"Ġstarmap":11554,"Ġstarkware":11555,"mbiguous":11556,"ĠWorks":11557,"ALPN":11558,"ALPHA":11559,"entitiesTrie":11560,"DOWNLOADING":11561,"DistutilsError":11562,"Ġexpires":11563,"):)?(//":11564,"Ġentering":11565,"ĠTransaction":11566,"ĠTranslate":11567,"ĠAttributesNSI":11568,"\"^\\$\\{[":11569,"?,?,?,?,":11570,"?([^#]*))?(#(.*))?":11571,"+)_":11572,"+)(.*)\")<":11573,"EndEvent":11574,"HOSTS":11575,"Macro":11576,"MacVersion":11577,"PickleSerializer":11578,"Quote":11579,"TAGS":11580,"WRONLY":11581,"beta":11582,"between":11583,"fullTree":11584,"tarfile":11585,"wiki":11586,"wikipedia":11587,"ĠeslCode":11588,"Ġincrementaldecoder":11589,"Ġincrementalencoder":11590,"costume":11591,"Ġmkdtemp":11592,"Ġmknhood":11593,"ĠDeserializer":11594,"ĠDeserializationError":11595,"concatenate":11596,"Ġdestinations":11597,"ĠURLSchemeUnknown":11598,"ĠURITemplate":11599,"Ġguide":11600,"Ġhowever":11601,"ĠBlurring":11602,"Ġekle":11603,"ĠOneDay":11604,"Ġintentionally":11605,"Ġtracked":11606,"Ġroutines":11607,"ĠUnknownTimezone":11608,"Ġsymlinks":11609,"Particle":11610,"Participant":11611,"ĠInvalidCodepointContext":11612,"InvalidCodepointContext":11613,"ĠexecutorFactory":11614,"ĠSHOW":11615,"ĠSHOULD":11616,"ReadTimeoutErrors":11617,"Authorization":11618,"CONNECTIONS":11619,"Ġtreewalker":11620,"Ġtreewalkers":11621,"Ġestablish":11622,"Ġestablishes":11623,"ĠreplacementCharacters":11624,"@@@\"<":11625,"-_]+\\}(:\\":11626,"-_]+\\})?$\")<":11627,"exclusions":11628,":/?#]+":11629,"BINARY":11630,"BLOCKSIZE":11631,"Logic":11632,"NEODatabase":11633,"Primary":11634,"RGB":11635,"VariableValueDict":11636,"WKBReader":11637,"kuma":11638,"platforms":11639,"åĲį":11640,"Ġsell":11641,"separated":11642,"starmap":11643,"steps":11644,"Ġcycle":11645,"analy":11646,"Ġfsdecode":11647,"Ġflexible":11648,"geometries":11649,"Ġobtaining":11650,"Ġ\"'\",":11651,"Ġwarmup":11652,"Ġwidgets":11653,"ĠDependencyWarning":11654,"ĠAvoids":11655,"Ġvaleurs":11656,"Ġricher":11657,"()<>]+|":11658,"Ġhours":11659,"Ġmechanisms":11660,"Ġsoftware":11661,"Ġlayer":11662,"SerializeToString":11663,"ĠDosyanÄ±n":11664,"Ġauthority":11665,"BUILD":11666,"ĠTemplateResponseMixin":11667,"98765432":11668,"surrogateescape":11669,"ĠâĸĵâĸĪâĸĪ":11670,"ĠInstalledDistribution":11671,"åı¯ä»¥":11672,"[:,:])',<":11673,"Ġmanipulating":11674,"ĠActiveState":11675,")(.*)(?=\\":11676,"LengthValidator":11677,"ĠscopingElements":11678,")|\\":11679,"DriveHelper":11680,"Eric":11681,"Monkey":11682,"Masla":11683,"PKGS":11684,"RANGE":11685,"SLICE":11686,"SPACES":11687,"Train":11688,"aulthandler":11689,"casual":11690,"smooth":11691,"Ġtell":11692,"Ġamong":11693,"Ġaugmentation":11694,"Ġrecipe":11695,"Ġrecherche":11696,"Ġrelevant":11697,"Ġbrotli":11698,"Ġbasis":11699,"Ġ\"#\":<":11700,"Ġnouveau":11701,"ĠTableInfo":11702,"Ġmimetypes":11703,"Ġ'{}'\".":11704,"ĠSourceDistribution":11705,"ĠSTRONG":11706,"ĠDSTOFFSET":11707,"ĠAmbiguityError":11708,"Ġlargely":11709,"ĠFillingCircle":11710,"ĠUtilities":11711,"ĠGCNConv":11712,"ĠEnsure":11713,"ĠEmptyPoolError":11714,"('^[":11715,"ĠReDocRenderer":11716,"Ġintrodu":11717,"agonal":11718,"ĠWEIGHTS":11719,"STDERR":11720,"Ġnprintf":11721,"Ġunderstandability":11722,"Ġ\\__,_|":11723,"manentRedirect":11724,"Ġinterfacing":11725,"ChangedError":11726,"ĠFileSystemStorage":11727,"FAILEDTELL":11728,"ĠZeroDiv":11729,"modifyitems":11730,"Attempt":11731,"Collapses":11732,"Weighted":11733,"retrieve":11734,"ĠWebsiteEmbedPayload":11735,"Ġmarshal":11736,"ĠSupportsInt":11737,"ĠHelpers":11738,"SharedData":11739,"\"(?://([^\\\\/?#]*))?\"<":11740,"åħ¥éľĢè¦ģ":11741,"ĠDateTimeField":11742,"GDALGetDriver":11743,"ĠStaticFilesHandler":11744,"ĠHeaderParsing":11745,"abcdefghijk":11746,"MAGEMAGIK":11747,"ĠOpenLayersWidget":11748,"'(?<=":11749,")(\\?([^#]*))?(#(.*))?":11750,"/>`.":11751,"AUDIO":11752,"BtNr":11753,"BigAutoField":11754,"Central":11755,"FROZEN":11756,"Hourglass":11757,"IMetadataProvider":11758,"IWRITE":11759,"Latin":11760,"Library":11761,"MATCHES":11762,"MULTI":11763,"NegativeInfinityType":11764,"NearEarthObject":11765,"PUREPYTHON":11766,"PROTOCOLS":11767,"Rank":11768,"RayError":11769,"RENDER":11770,"SRCALPHA":11771,"SVEM":11772,"SLASH":11773,"Splitter":11774,"ViolationDefect":11775,"VulnNames":11776,"YëħĦ":11777,"Yå¹´næľĪ":11778,"[()],":11779,"[...,":11780,"citext":11781,"cmsgpack":11782,"darwin":11783,"fsencode":11784,"girdi":11785,"jæĹ¥":11786,"linalg":11787,"musllinux":11788,"pAffine":11789,"rreversible":11790,"silently":11791,"watershed":11792,"zilla":11793,"¸è½½":11794,"åį¸è½½":11795,"Ġicerik":11796,"Ġ×ĳF":11797,"recursive":11798,"Ġtriple":11799,"attempts":11800,"developer":11801,"Ġprometheus":11802,"Ġcells":11803,"Ġfurther":11804,"Ġfurnished":11805,"Ġfinta":11806,"ssltransport":11807,"Ġdico":11808,"Ġsourced":11809,"Ġinsecurely":11810,"Ġbundled":11811,"Ġbreadth":11812,"Ġbrowsers":11813,"Ġbrought":11814,"Ġnecessary":11815,"ĠTargetPython":11816,"ĠTensorFlow":11817,"idCoords":11818,"cellaneous":11819,"thenurhabib":11820,"Ġcomma":11821,"upgrade":11822,"ateDatabaseAndState":11823,"getAttributeNode":11824,"ĠSoldier":11825,"ĠStale":11826,"ĠSIGINT":11827,"ĠSchemaEditorClass":11828,"ĠSPECIFIC":11829,"ĠClosedPoolError":11830,"ĠCordasco":11831,"ĠCurrencyConverter":11832,"ĠDEPRECATION":11833,"ĠDiscord":11834,"ĠALPHABET":11835,"Ġvoiture":11836,"Ġconditions":11837,"Ġconvention":11838,"ReparseException":11839,"ĠFeedParser":11840,"ĠFAVORITE":11841,"Ġdesktop":11842,"Ġdedicated":11843,"ĠMechanics":11844,"ĠUsually":11845,"ĠgetFirstChild":11846,"ĠgetNextSibling":11847,"ĠGENERIC":11848,"ĠGradScaler":11849,"Ġgenshi":11850,"Ġgradually":11851,"ĠBANDTYPE":11852,"ĠunadjustForeignAttributes":11853,"Ġmemorized":11854,"ĠOutOfData":11855,"ĠHostChangedError":11856,"ĠECONNREFUSE":11857,"owski":11858,"('\\\\\\\\":11859,"('#.*?(?=\\":11860,"SERIALIZ":11861,"ĠReverser":11862,"ĠRegenarate":11863,"ĠIntended":11864,"INSERT":11865,"assignment":11866,"Ġentirely":11867,"ĠVulnerabilityInfo":11868,"ĠPythonDeserializer":11869,"indableBodyError":11870,"aryNotFoundDefect":11871,"Ġadjacent":11872,"dirilebilir":11873,"ĠUnrewindableBodyError":11874,"ĠRaymond":11875,"ominateur":11876,"FieldDefaultMixin":11877,"Ġclassonlymethod":11878,"Ġnumerateur":11879,"ĠUserNotParticipant":11880,"DevelopInstaller":11881,"ĠDistutilsArgError":11882,"addinivalue":11883,"ĠSetConsoleTextAttribute":11884,"ĠjìĿ¼":11885,"Ġprinciple":11886,"NotBeLoaded":11887,"Enhanced":11888,"ĠInvalidSdistFilename":11889,"Ġsuspected":11890,"ForSocketError":11891,"COLLAPSE":11892,"ToWaitForSocketError":11893,"Ġ('/'-":11894,"PRETRAINED":11895,"PREVIOUS":11896,"interpolate":11897,"([^/?#]*))?([^?#]*":11898,"ResultByVuln":11899,"treeadapters":11900,"ĠNoWayToWaitForSocketError":11901,"ĠspacePreserveElements":11902,"ĠtableInsertModeElements":11903,"macintosh":11904,"ĠPipXmlrpcTransport":11905,"Ġcapabilities":11906,"ĠPerceptron":11907,"\"^(([^:/?#]+":11908,"ĠAUTHORIZED":11909,"ĠhexDigits":11910,"ĠHttpResponsePermanentRedirect":11911,"ĠMultipartInvariantViolationDefect":11912,"VIRTUALENV":11913,"MultiDomainBasicAuth":11914,"lastFourChars":11915,"ĠConfigurationFileCouldNotBeLoaded":11916,"lmnopqrstuvwxyz":11917,"ContentNegotiation":11918,"ĠMetadataConflictError":11919,"ĠSimpleLazyObject":11920,"ĠStartBoundaryNotFoundDefect":11921,"alphanums":11922,"BuildSystemDetails":11923,"500369493":11924,"):)?(//([^/?#]*))?([^?#]*":11925,"ĠAttributesNSImpl":11926,"ĠOneDayCache":11927,"ĠUnknownTimezoneException":11928,"-_]+\\}(:\\$\\{[":11929,"ĠFillingCirclesBar":11930,"ĠZeroDivisionError":11931,"ĠHeaderParsingError":11932,"abcdefghijklmnopqrstuvwxyz":11933,")(\\?([^#]*))?(#(.*))?\")<":11934,"BtNrFc":11935,"åį¸è½½ç³»ç»ŁåºĶçĶ¨":11936,"ĠECONNREFUSED":11937,"\"^(([^:/?#]+):)?(//([^/?#]*))?([^?#]*":11938,"\"^(([^:/?#]+):)?(//([^/?#]*))?([^?#]*)(\\?([^#]*))?(#(.*))?\")<":11939,"!\".":11940,"\">":11941,"\".<":11942,"\".\"\"\"<":11943,"\"]+":11944,"\"``.":11945,"#(":11946,"$\",":11947,"$\")":11948,"%<":11949,"%'<":11950,"&\"<":11951,"'\")<":11952,"''<":11953,"'>)<":11954,"'][":11955,"']*":11956,"'[\\":11957,"'],\"\\":11958,"(%":11959,"(.":11960,"(...":11961,"({}":11962,"(>=":11963,"(([^\\":11964,")!":11965,");":11966,")\",":11967,")()<":11968,")])<":11969,")'.":11970,")>=":11971,"*(":11972,"*(<":11973,"*([":11974,"*)*":11975,"*$\")<":11976,"*([^\\":11977,"*(?:\\":11978,"*$\")":11979,"+,":11980,"+<":11981,"+')":11982,",(":11983,",]+":11984,"-]+":11985,".\"":11986,".(":11987,".\\":11988,".]*":11989,".'''<":11990,"/_":11991,"/\")":11992,"/{}.":11993,"04":11994,"07":11995,"101":11996,"1000":11997,"232":11998,"285":11999,"42":12000,"485":12001,"5000":12002,"537":12003,"600":12004,"616":12005,"698":12006,"70":12007,"75":12008,"723":12009,"81":12010,"88":12011,"92":12012,"901":12013,":\"":12014,":'":12015,":,":12016,":.":12017,":',":12018,":\")<":12019,":])<":12020,":]:<":12021,"<|":12022,"=$":12023,"=\\":12024,"=|":12025,"=\":":12026,"=[\"":12027,"=-_":12028,">\"<":12029,">----":12030,">')<":12031,">\":":12032,">(.*":12033,">âĸĪâĸĪâķĳâĸĳâĸĳ":12034,">================":12035,">âĸĪâĸĪâĸĪâĸĪâĸĪâĸĪâĸĪâķĹ":12036,"?:":12037,"Are":12038,"ACK":12039,"Aler":12040,"Available":12041,"AUT":12042,"Also":12043,"AIL":12044,"AMA":12045,"Access":12046,"After":12047,"AVI":12048,"Async":12049,"ASSWORD":12050,"Alias":12051,"Br":12052,"Bad":12053,"Band":12054,"Bool":12055,"BID":12056,"Bert":12057,"BDIR":12058,"Black":12059,"Both":12060,"BANN":12061,"Bleach":12062,"CS":12063,"CV":12064,"Cython":12065,"Clock":12066,"CAD":12067,"CRI":12068,"Center":12069,"CPP":12070,"Crop":12071,"Caster":12072,"CWORD":12073,"Candidates":12074,"Clip":12075,"Crawl":12076,"CCOUNT":12077,"Calcul":12078,"CPointerBase":12079,"Cloud":12080,"Dr":12081,"Dat":12082,"Dec":12083,"Dash":12084,"Draw":12085,"Dns":12086,"Duration":12087,"Desc":12088,"DNS":12089,"DirInfo":12090,"Difference":12091,"DMINS":12092,"EG":12093,"EST":12094,"Equal":12095,"Eye":12096,"EAST":12097,"FL":12098,"FP":12099,"FS":12100,"Fix":12101,"FER":12102,"Framework":12103,"Float":12104,"Fail":12105,"Fetch":12106,"FLA":12107,"FloatField":12108,"Family":12109,"Gre":12110,"Gal":12111,"GIT":12112,"Group":12113,"GNU":12114,"GMAIL":12115,"HE":12116,"HH":12117,"HY":12118,"HER":12119,"HEX":12120,"Hunk":12121,"Http":12122,"HIS":12123,"HAND":12124,"HIGH":12125,"IV":12126,"IX":12127,"Im":12128,"ITI":12129,"IMP":12130,"Item":12131,"IALIZ":12132,"JO":12133,"JP":12134,"JIT":12135,"John":12136,"KM":12137,"KO":12138,"KNOWN":12139,"LL":12140,"LN":12141,"LU":12142,"Last":12143,"LTER":12144,"LATION":12145,"LBRA":12146,"LITY":12147,"Like":12148,"MD":12149,"Md":12150,"Min":12151,"Med":12152,"More":12153,"Mix":12154,"Mem":12155,"Makes":12156,"Master":12157,"MARY":12158,"Matrix":12159,"Maybe":12160,"NB":12161,"NE":12162,"NON":12163,"Normalize":12164,"North":12165,"Netflix":12166,"Od":12167,"On":12168,"OME":12169,"OCO":12170,"OVER":12171,"Old":12172,"OUTH":12173,"OCT":12174,"OUR":12175,"OperandHolder":12176,"OWNER":12177,"PR":12178,"Pil":12179,"Pos":12180,"PYPY":12181,"Plan":12182,"PROT":12183,"PTS":12184,"Photo":12185,"Polygon":12186,"PGEOM":12187,"QLO":12188,"RIC":12189,"RCode":12190,"Random":12191,"Rename":12192,"RENT":12193,"RLock":12194,"RBRA":12195,"Renvoie":12196,"She":12197,"Size":12198,"Spec":12199,"SCHE":12200,"SING":12201,"Seg":12202,"Signal":12203,"Scheduler":12204,"South":12205,"SPL":12206,"Sku":12207,"SYNC":12208,"SQLO":12209,"Tan":12210,"Tun":12211,"TIN":12212,"Tom":12213,"Trop":12214,"TikTok":12215,"UST":12216,"USD":12217,"UES":12218,"Using":12219,"UMENTS":12220,"VEN":12221,"Vari":12222,"Values":12223,"Visit":12224,"Virtual":12225,"VCCompiler":12226,"VerboseLogger":12227,"VORITE":12228,"Verify":12229,"VcsInfo":12230,"Wen":12231,"WOR":12232,"Will":12233,"WAR":12234,"Winter":12235,"Written":12236,"Wrapp":12237,"Word":12238,"Work":12239,"XR":12240,"XML":12241,"YS":12242,"Yue":12243,"Yaml":12244,"Youtube":12245,"ZipFile":12246,"ZSite":12247,"\\_|":12248,"]\"\"\"<":12249,"]\",<":12250,"]],":12251,"]])<":12252,"].*":12253,"]].":12254,"]','":12255,"]`).<":12256,"_{":12257,"`)":12258,"`)<":12259,"ae":12260,"amm":12261,"aque":12262,"ays":12263,"aField":12264,"axy":12265,"aav":12266,"around":12267,"aites":12268,"azip":12269,"aho":12270,"aggregate":12271,"bf":12272,"bil":12273,"bout":12274,"bpo":12275,"blink":12276,"bio":12277,"bian":12278,"bcc":12279,"best":12280,"blur":12281,"baz":12282,"bilateral":12283,"cri":12284,"clob":12285,"camp":12286,"cword":12287,"cance":12288,"cale":12289,"custom":12290,"candidates":12291,"crawl":12292,"cxx":12293,"ctible":12294,"dp":12295,"dial":12296,"dnn":12297,"dakika":12298,"duplic":12299,"dDns":12300,"ez":12301,"eel":12302,"eper":12303,"eig":12304,"each":12305,"eze":12306,"everything":12307,"fa":12308,"fk":12309,"fw":12310,"fing":12311,"fed":12312,"flt":12313,"fect":12314,"fsh":12315,"fsub":12316,"fak":12317,"farray":12318,"fgh":12319,"fban":12320,"flag":12321,"flus":12322,"flip":12323,"gb":12324,"gu":12325,"gal":12326,"gad":12327,"gap":12328,"gte":12329,"give":12330,"ggest":12331,"gcd":12332,"gÃł":12333,"greater":12334,"grey":12335,"hl":12336,"hr":12337,"hot":12338,"hour":12339,"have":12340,"hsv":12341,"hstore":12342,"half":12343,"harField":12344,"hÃ¡":12345,"ii":12346,"ien":12347,"iqu":12348,"igger":12349,"iases":12350,"kd":12351,"kin":12352,"kar":12353,"kit":12354,"kun":12355,"kler":12356,"klar":12357,"kran":12358,"kowski":12359,"kEye":12360,"lans":12361,"long":12362,"lxml":12363,"loring":12364,"large":12365,"lzma":12366,"mx":12367,"mer":12368,"mal":12369,"ming":12370,"mul":12371,"migration":12372,"missing":12373,"merge":12374,"ng":12375,"ni":12376,"ny":12377,"nÄ":12378,"nRe":12379,"nir":12380,"negative":12381,"normalize":12382,"natur":12383,"ngettext":12384,"nmtime":12385,"necess":12386,"nå®īè£ħèĩªå®ļä¹īåºĶçĶ¨ä¸ºç³»ç»ŁåºĶçĶ¨":12387,"oin":12388,"osed":12389,"omain":12390,"oom":12391,"oauth":12392,"ospace":12393,"oSum":12394,"ossible":12395,"pm":12396,"ping":12397,"pur":12398,"pth":12399,"pect":12400,"pow":12401,"pix":12402,"pick":12403,"pull":12404,"pie":12405,"pause":12406,"psycopg":12407,"plain":12408,"plural":12409,"publish":12410,"qm":12411,"qs":12412,"qsl":12413,"rr":12414,"rable":12415,"rator":12416,"rices":12417,"rmtree":12418,"sd":12419,"sw":12420,"sin":12421,"sure":12422,"sque":12423,"ssed":12424,"saf":12425,"sds":12426,"soup":12427,"sampler":12428,"sDis":12429,"sArray":12430,"sqrt":12431,"slug":12432,"saat":12433,"silent":12434,"sDraw":12435,"td":12436,"tt":12437,"tv":12438,"tti":12439,"tate":12440,"tlib":12441,"typed":12442,"tConverter":12443,"tcp":12444,"tultd":12445,"uF":12446,"uk":12447,"uate":12448,"uses":12449,"uclidean":12450,"vir":12451,"vity":12452,"vSt":12453,"vplot":12454,"vccompiler":12455,"vicer":12456,"wt":12457,"wrong":12458,"wanted":12459,"woSum":12460,"xD":12461,"xspace":12462,"yi":12463,"yen":12464,"ydl":12465,"zzy":12466,"zfill":12467,"zanti":12468,"|==":12469,"|<|":12470,"}\\":12471,"}'<":12472,"}):":12473,"}>'<":12474,"}!\".":12475,"¡ãĥ³":12476,"¤º":12477,"¦ãĥ³ãĥ":12478,"§å":12479,"§ãĥ³":12480,"¨Ń":12481,"ªħ":12482,"«ãĤ":12483,"±a":12484,"±ðĿĴ":12485,"³ðĿĴ":12486,"¶áŁ":12487,"·ãĥ":12488,"ºİ":12489,"»Ð":12490,"»å":12491,"¾ĵ":12492,"Â»":12493,"Ã±a":12494,"ÄŁ":12495,"Ð½":12496,"Ðļ":12497,"ÐĽ":12498,"Ñĭ":12499,"Ò¯":12500,"ÙĢ":12501,"ä½":12502,"äºİ":12503,"å¯":12504,"åĨ":12505,"åĮ":12506,"æĭ":12507,"æĮ":12508,"ç¤º":12509,"è®":12510,"è¿":12511,"è¨Ń":12512,"è¾ĵ":12513,"éĥ":12514,"Ġæ":12515,"Ġ,<":12516,"Ġist":12517,"Ġil":12518,"ĠORM":12519,"Ġill":12520,"Ġ).":12521,"Ġ------":12522,"Ġgeos":12523,"Ġlight":12524,"ĠðŁ":12525,"Ġ----<":12526,"ĠÂ·":12527,"Ġâľĺ":12528,"ĠãĤ¢ãĤ":12529,"Ġerosion":12530,"ĩå®ļ":12531,"Īå¹":12532,"ĭãĤ":12533,"įðĿķ":12534,"įãĥ¼ãĥ":12535,"ıá´":12536,"ĵį":12537,"ķðĿķ":12538,"ĸåħ¥éľĢè¦ģ":12539,"ĺæ":12540,"ĻãĤĭ":12541,"ĿðĿķ":12542,"oriz":12543,"orClient":12544,"orld":12545,"infer":12546,"increment":12547,"inference":12548,"inned":12549,"inbound":12550,"eril":12551,"eration":12552,"ersed":12553,"erial":12554,"erprint":12555,"erred":12556,"eries":12557,"mpro":12558,"onents":12559,"onential":12560,"ortType":12561,"sex":12562,"sequence":12563,"second":12564,"reur":12565,"rema":12566,"rent":12567,"relat":12568,"really":12569,"represent":12570,"repository":12571,"relation":12572,"recor":12573,"required":12574,"readed":12575,"redoc":12576,"representer":12577,"registry":12578,"rempro":12579,"roke":12580,"rove":12581,"roBot":12582,"Ġtd":12583,"Ġtti":12584,"Ġtal":12585,"Ġtts":12586,"Ġtill":12587,"Ġtsv":12588,"Ġtyped":12589,"Ġtimer":12590,"ats":12591,"atri":12592,"atypes":12593,"atmap":12594,"atJSON":12595,"sten":12596,"stors":12597,"stmt":12598,"stFramework":12599,"ening":12600,"ency":12601,"enemy":12602,"encrypted":12603,"delay":12604,"depart":12605,"deserializer":12606,"deconstruct":12607,"decrypt":12608,"deactivate":12609,"\"\",":12610,"\"\")<":12611,"Ġak":12612,"Ġast":12613,"Ġafor":12614,"Ġaix":12615,"Ġaux":12616,"ĠaÃ§":12617,"Ġambiguous":12618,"legraph":12619,"til":12620,"tial":12621,"tick":12622,"tics":12623,"tical":12624,"Ġ='":12625,"Ġ=>":12626,"Ġ=[":12627,"heses":12628,"alc":12629,"altern":12630,"alice":12631,"align":12632,"alInfo":12633,"alted":12634,"aliases":12635,"Ġph":12636,"Ġpk":12637,"Ġpag":12638,"Ġpok":12639,"Ġplat":12640,"Ġpprint":12641,"Ġpsix":12642,"Ġpick":12643,"Ġpjoin":12644,"Ġpidx":12645,"Ġpurelib":12646,"Ġpgettext":12647,"Ġpwd":12648,"Ġpuny":12649,"Ġplans":12650,"Ġcn":12651,"Ġcython":12652,"Ġcargs":12653,"Ġclock":12654,"Ġcword":12655,"Ġcik":12656,"Ġcandid":12657,"Ġcud":12658,"Ġcateg":12659,"Ġcircular":12660,"Ġclean":12661,"Ġcfgh":12662,"any":12663,"anel":12664,"ante":12665,")</":12666,")<=":12667,"__'":12668,"__/":12669,"__))<":12670,"__',<":12671,"__[\"":12672,"__\"):<":12673,"__}({":12674,"__().<":12675,"ingError":12676,"ingular":12677,"Ġren":12678,"Ġreject":12679,"Ġreload":12680,"Ġrelabels":12681,"Ġrevision":12682,"Ġreprodu":12683,"Ġreversed":12684,"arib":12685,"arched":12686,"arily":12687,"arante":12688,"iters":12689,"itwise":12690,"Ġfit":12691,"Ġflt":12692,"Ġfault":12693,"Ġfich":12694,"Ġfreq":12695,"Ġfaces":12696,"Ġfont":12697,"Ġfetch":12698,"Ġflake":12699,"Ġfailed":12700,"Ġflip":12701,"Ġfaulthandler":12702,"Ġfeel":12703,"ssThan":12704,"urte":12705,"urful":12706,"Ġdu":12707,"Ġdtype":12708,"Ġdraw":12709,"Ġduration":12710,"Ġdriver":12711,"geograph":12712,"Ġsi":12713,"Ġsn":12714,"Ġsit":12715,"Ġsmo":12716,"Ġsites":12717,"Ġslug":12718,"Ġsorry":12719,"Ġsilent":12720,"Ġshell":12721,"Ġsaved":12722,"Ġsalted":12723,"Ġsingular":12724,"\"<{":12725,"\"<\":":12726,"isfies":12727,"utely":12728,"Ġokuma":12729,"Ġokun":12730,"acm":12731,"acity":12732,"accent":12733,"Ġinq":12734,"Ġinversion":12735,"Ġinfinit":12736,"Ġinverse":12737,"Ġincrease":12738,"Ġincorrect":12739,"Ġindirilebilir":12740,"define":12741,"icon":12742,"iclient":12743,"icDataFrame":12744,"logo":12745,"love":12746,"lays":12747,"Ġbure":12748,"Ġbpo":12749,"Ġblue":12750,"Ġblur":12751,"Ġbrows":12752,"Ġbrowser":12753,"coup":12754,"coord":12755,"Ġ\"?":12756,"Ġ\"|":12757,"Ġ\"::":12758,"Ġ\">=":12759,"Ġ\">\":":12760,"edata":12761,"edence":12762,"edns":12763,"edResolver":12764,"edHelpFormatter":12765,"Ġnext":12766,"Ġnul":12767,"Ġnms":12768,"Ġnom":12769,"Ġnice":12770,"Ġnrow":12771,"Ġnidx":12772,">##<":12773,">#################":12774,">#################################":12775,"Ġwall":12776,"Ġwsg":12777,"Ġworth":12778,"uname":12779,"unch":12780,"unary":12781,"unsplit":12782,"unner":12783,"unsafe":12784,"unblock":12785,"unban":12786,"unService":12787,"unpin":12788,"university":12789,"unsque":12790,"until":12791,"esi":12792,"enters":12793,"entea":12794,"ĠTypes":12795,"ĠToday":12796,"ĠTHIS":12797,"ĠTrove":12798,"ech":12799,"ecutor":12800,"Ġmn":12801,"Ġmx":12802,"Ġmult":12803,"Ġmisc":12804,"Ġmirror":12805,"Ġmachinery":12806,"Ġmutex":12807,"idu":12808,"idue":12809,"idow":12810,"aders":12811,"adds":12812,"adio":12813,"additional":12814,"adcast":12815,"gots":12816,"ceal":12817,"Ġdeferred":12818,"riend":12819,"through":12820,"thumbnail":12821,"aseÃ±a":12822,"tok":12823,"toll":12824,"together":12825,"tocols":12826,"Ġtopar":12827,"Ġtopo":12828,"Ġtouch":12829,"Ġtomli":12830,"Ġcols":12831,"Ġcounter":12832,"Ġcovariant":12833,"Ġcounts":12834,"limin":12835,"liams":12836,"lified":12837,"liklar":12838,"Ġ([":12839,"Ġ(_":12840,"Ġ())<":12841,"Ġ(),":12842,"Ġ({}":12843,"ilink":12844,"ilence":12845,"illiams":12846,"uploaded":12847,"otal":12848,"Ġilove":12849,"strate":12850,"strap":12851,"straction":12852,"strunner":12853,"atePro":12854,"Ġanimal":12855,"Ġisi":12856,"Ġisol":12857,"ĠisEnumerator":12858,"Ġ'(":12859,"Ġ'**":12860,"Ġ')]<":12861,"getfilesystem":12862,"getfqdn":12863,"getattribute":12864,"aping":12865,"apipe":12866,"apening":12867,"apiclient":12868,"Ġ-=":12869,"Ġ-)\",":12870,"ĠSize":12871,"ĠSER":12872,"ĠSql":12873,"ĠSign":12874,"ĠSchema":12875,"ĠSHA":12876,"ĠSTS":12877,"ĠSampler":12878,"ĠSpatial":12879,"ĠSlug":12880,"ĠSilent":12881,"ĠSVR":12882,"ĠSOUTH":12883,"ĠSortType":12884,"ĠStoll":12885,"ltra":12886,"lteq":12887,"ĠPage":12888,"ĠPile":12889,"ĠPAT":12890,"ĠPOS":12891,"ĠPopen":12892,"ĠPerson":12893,"ĠPower":12894,"ĠPaginator":12895,"ĠPASS":12896,"ĠPolygon":12897,"ĠPixel":12898,"ĠPASSWORD":12899,"ĠPinned":12900,"olves":12901,"classname":12902,"abet":12903,"absol":12904,"ipread":12905,"ipInfo":12906,"ipaddress":12907,"ĠCar":12908,"ĠCRE":12909,"ĠCast":12910,"ĠCandidates":12911,"ĠCOM":12912,"ĠCIText":12913,"ĠCircular":12914,"ĠClean":12915,"ĠCPointerBase":12916,"ĠCapture":12917,"ĠCFUNCTYPE":12918,"ĠCMD":12919,"ĠCOCO":12920,"Ġ#!":12921,"Ġ#<":12922,"Ġ###":12923,"ĠNur":12924,"ĠNOR":12925,"ĠNorm":12926,"ĠNormalize":12927,"acked":12928,"ando":12929,"Ġ___":12930,"Ġ__|":12931,"eline":12932,"htm":12933,"ationInvalid":12934,"ĠDuration":12935,"ĠDriver":12936,"ĠDrive":12937,"ĠDIST":12938,"ĠDrake":12939,"oney":12940,"ĠAI":12941,"ĠAss":12942,"ĠAli":12943,"ĠAST":12944,"ĠAPP":12945,"ĠARG":12946,"ĠACCOUNT":12947,"ĠADMINS":12948,"ĠATan":12949,"conv":12950,"constraint":12951,"constru":12952,"conceal":12953,"ĠIan":12954,"ĠISO":12955,"ĠIANA":12956,"ĠIMAGEMAGIK":12957,"ĠIrreversible":12958,"ĠLet":12959,"ĠLOT":12960,"ĠLegacy":12961,"ĠLines":12962,"ĠLET":12963,"ĠLyle":12964,"ĠLINE":12965,"ĠLANGUAGE":12966,"ĠLiveServerTestCase":12967,"ĠLabel":12968,"ĠLBRACK":12969,"ĠLung":12970,"ĠLipread":12971,"ATAN":12972,"ATTR":12973,"ATTRIBUT":12974,"ATLI":12975,"serial":12976,"setType":12977,"setsock":12978,"setToken":12979,"setwarn":12980,"setgpic":12981,"spersed":12982,"prof":12983,"processed":12984,"profan":12985,"profanity":12986,"trick":12987,"tracks":12988,"traseÃ±a":12989,"ORED":12990,"ORAGE":12991,"chain":12992,"chien":12993,"Ġvc":12994,"Ġve":12995,"Ġvenv":12996,"Ġvuln":12997,"Ġvmess":12998,"Ġvoltage":12999,"Ġpipeline":13000,"()(":13001,"()\"<":13002,"()`<":13003,"()``":13004,"()),<":13005,"()``.<":13006,"())))<":13007,"()],<":13008,"etries":13009,"etween":13010,"__('":13011,"__(_":13012,"Ġrv":13013,"Ġraster":13014,"Ġrhs":13015,"Ġ`/":13016,"Ġ`@":13017,"Ġlines":13018,"Ġlhs":13019,"Ġlzma":13020,"Ġlittle":13021,"Ġlarger":13022,"Ġuchardet":13023,"Ġultra":13024,"Ġconditional":13025,"Ġconversions":13026,"Ġconsecutive":13027,"Ġconsumed":13028,"ĠcontraseÃ±a":13029,"Ref":13030,"Require":13031,"Requirements":13032,"Removed":13033,"ReDoc":13034,"Registry":13035,"ReLU":13036,"ResetToken":13037,"ĠFlat":13038,"ĠFred":13039,"ĠFirst":13040,"ĠFeature":13041,"ĠFANG":13042,"ĠFBan":13043,"ĠFNF":13044,"ĠFood":13045,"ĠFarcaster":13046,"aming":13047,"libgdal":13048,"jectState":13049,"izations":13050,"forge":13051,"foreg":13052,"forward":13053,"extended":13054,"may":13055,"Ġfromlist":13056,"Ġfilehash":13057,"Ġfiledial":13058,"Ġprog":13059,"Ġprote":13060,"Ġprofan":13061,"vels":13062,"Ġstrategy":13063,"Ġdeta":13064,"Ġdetermin":13065,"Ġdecrypt":13066,"Ġdeactivate":13067,"ĠMD":13068,"ĠMan":13069,"ĠMEN":13070,"ĠMPI":13071,"ĠMeg":13072,"ĠMissing":13073,"ĠMicro":13074,"ĠMAPP":13075,"ĠMenu":13076,"ĠMasquerade":13077,"perfect":13078,"ysis":13079,"ĠUI":13080,"ĠUTI":13081,"ĠUNI":13082,"ĠUkran":13083,"ĠgetVariable":13084,"verage":13085,"verify":13086,"verStr":13087,"tecode":13088,"testrunner":13089,"derable":13090,"derWith":13091,"quad":13092,"quotes":13093,"quoted":13094,"ĠGame":13095,"ĠGif":13096,"ĠGive":13097,"ĠGord":13098,"ĠGLOBAL":13099,"ĠGreater":13100,"ĠGPTS":13101,"Ġgun":13102,"ĠgTT":13103,"Ġgrp":13104,"Ġgreen":13105,"Ġgpg":13106,"Ġgaussian":13107,"Ġgrays":13108,"Ġdistro":13109,"Ġhi":13110,"Ġhad":13111,"Ġhide":13112,"Ġhidden":13113,"Ġhalf":13114,"Ġhabib":13115,"Ġhistor":13116,"Ġhurt":13117,"Ġhacked":13118,"uming":13119,"umar":13120,"umot":13121,"ulat":13122,"(\"$":13123,"(\"%":13124,"(\"=>":13125,"parsers":13126,"ĠBlob":13127,"ĠBound":13128,"ĠBoth":13129,"ĠBlake":13130,"ĠBeck":13131,"ĠBCPP":13132,"ĠBitwise":13133,"ĠNoneMetadata":13134,"Ġeor":13135,"Ġease":13136,"Ġemb":13137,"Ġemsg":13138,"ĠelementTree":13139,"Ġepoch":13140,"Ġelimin":13141,"Ġunset":13142,"Ġunload":13143,"Ġunrol":13144,"Ġunescape":13145,"Ġunnamed":13146,"Ġuncondition":13147,"Ġunofficial":13148,"Ġunnecess":13149,"Ġunwanted":13150,"urljoin":13151,"urlunsplit":13152,"Ġ\"\"\"ðŁ":13153,"Ġ25":13154,"Ġ[]":13155,"Ġ[{":13156,"Ġ[]:<":13157,"Ġmeasure":13158,"lyPayload":13159,"ĠON":13160,"ĠOc":13161,"ĠOur":13162,"ĠOperations":13163,"ĠOrigin":13164,"ĠOGRE":13165,"ĠOWNER":13166,"Ġ*\"":13167,"Ġ*,":13168,"ictRed":13169,"Ġbeetween":13170,"ableCandidate":13171,"://\")":13172,"://\"):<":13173,"pyc":13174,"pycache":13175,"pyyaml":13176,"pyrogram":13177,"pygments":13178,"Ġnotes":13179,"filestore":13180,"Ġwithdraw":13181,"predict":13182,"prevent":13183,"preserved":13184,"pressed":13185,"appable":13186,"ĠHis":13187,"ĠHack":13188,"ĠHere":13189,"ĠHandler":13190,"ĠHEX":13191,"ĠHistor":13192,"Ġwhy":13193,"Ġwhite":13194,"ĠCould":13195,"IntegrityError":13196,"Insurance":13197,"Inconsistent":13198,"MEDI":13199,"METHO":13200,"MERIC":13201,"ĠEast":13202,"ĠEither":13203,"ĠEdit":13204,"ĠEmbedPayload":13205,"ĠEarth":13206,"ĠEmitter":13207,"ĠEkler":13208,"iration":13209,"ules":13210,"imes":13211,"Ġstrip":13212,"Ġstuff":13213,"Ġstderr":13214,"Ġstories":13215,"score":13216,"scik":13217,"owels":13218,"outbound":13219,"('')<":13220,"('[^":13221,"('=>":13222,"('''<":13223,"(':',":13224,"Concrete":13225,"comando":13226,"Ġseq":13227,"Ġseem":13228,"Ġsegmentation":13229,"compmap":13230,"popen":13231,"pointer":13232,"potify":13233,"ĠReg":13234,"ĠRequire":13235,"ĠRepresent":13236,"ĠReverse":13237,"ĠRecogn":13238,"ĠRepresenter":13239,"Ġ11":13240,"Ġ1000":13241,"Ġ155":13242,"Ġ1234":13243,"007":13244,"0025":13245,"ENG":13246,"ENAB":13247,"ayÄ±":13248,"ferrable":13249,"contenu":13250,"loaders":13251,"itemap":13252,"Ġcomputed":13253,"Ġcompose":13254,"Ġcomputer":13255,"Ġcomputing":13256,"ĠInternal":13257,"ĠInstance":13258,"ĠInclude":13259,"ĠInternalError":13260,"ĠInconsistent":13261,"ĠIntConverter":13262,"ixCCompiler":13263,"food":13264,"INTS":13265,"INVALID":13266,"INITI":13267,"Ġalgo":13268,"Ġalici":13269,"Ġprints":13270,"msys":13271,"msgs":13272,"msvc":13273,"msvccompiler":13274,"Ġencore":13275,"Ġencounter":13276,"âĸĪâĸĴ":13277,"pathy":13278,"ĠVary":13279,"ĠVide":13280,"ĠVeril":13281,"usually":13282,"Ġabstraction":13283,"ively":13284,"Ġyet":13285,"Ġydl":13286,"Ġyellow":13287,"litch":13288,"Ġints":13289,"Ġ:]":13290,"Ġ:\",":13291,"Ġ:])<":13292,"oker":13293,"okbo":13294,"ntMan":13295,"Ġshallow":13296,"Ġshift":13297,"erelease":13298,"Ġcolumn":13299,"keyboard":13300,"dbl":13301,"dbfield":13302,"Ġexe":13303,"Ġexact":13304,"Ġexha":13305,"Ġexpressions":13306,"Ġcodec":13307,"Ġcodebase":13308,"mbination":13309,"Ġsoup":13310,"rightClick":13311,"CHIV":13312,"TIF":13313,"TIDataset":13314,"TICAL":13315,"tryPoint":13316,"ĠWar":13317,"ĠWith":13318,"ĠWould":13319,"ĠWide":13320,"ĠWRA":13321,"ĠWord":13322,"ĠWheels":13323,"ĠWavefunction":13324,"ĠWidow":13325,"ĠWilliams":13326,"Ġgoogleapiclient":13327,"Ġpassw":13328,"Ġprototype":13329,"Ġ{!":13330,"Ġ{\"<\":":13331,"collect":13332,"collap":13333,"indirectly":13334,"jsonl":13335,"jsonlines":13336,"unda":13337,"underscore":13338,"Exact":13339,"Extent":13340,"Extract":13341,"Extraction":13342,"readme":13343,"parseopts":13344,"dozip":13345,"ICharField":13346,"distro":13347,"distance":13348,"Ġtimed":13349,"Ġtimeit":13350,"Ġlistdir":13351,"Ġchang":13352,"Ġchannels":13353,"Ġbump":13354,"ressed":13355,"resnet":13356,"resistant":13357,"formfield":13358,"Ġdatefmt":13359,"movie":13360,"movies":13361,"mozilla":13362,"Cookbo":13363,"Combination":13364,"0226":13365,"ERO":13366,"tsu":13367,"tsv":13368,"OTE":13369,"Loading":13370,"RESS":13371,"Ġtrace":13372,"Ġarising":13373,"infos":13374,"Ġ==================":13375,"arySearch":13376,"ĠYES":13377,"thodMap":13378,"ITTIDataset":13379,"licated":13380,"STORE":13381,"STORAGE":13382,"ansReport":13383,"validPackage":13384,"sym":13385,"Ġ``'":13386,"inear":13387,"uncate":13388,"=='":13389,"diagonal":13390,"âĸĪâĸĪâĸĪ":13391,"âĸĪâĸĪâĸĪâķĶ":13392,"Ġsuppress":13393,"emention":13394,"ĠAnything":13395,"iveUnion":13396,"Ġroutes":13397,"Ġraises":13398,"ĠUnsafe":13399,"ĠUnmute":13400,"ĠUnpin":13401,"ĠUnfortunately":13402,"ĠUnixCCompiler":13403,"Ġxss":13404,"Ġxmaps":13405,"Ġpreviously":13406,"Ġprecedence":13407,"Ġpretti":13408,"ĠDistributed":13409,"ĠDistInfo":13410,"ĠRange":13411,"ĠRich":13412,"ĠRight":13413,"ĠRose":13414,"ĠRaster":13415,"ĠRBRACK":13416,"ĠRetries":13417,"ĠCommandAr":13418,"ĠCommandContext":13419,"backtracks":13420,"omas":13421,"Ġformatted":13422,"Ġmodeladmin":13423,"FieldReference":13424,"Ġwhenever":13425,"later":13426,"lattr":13427,"Ġ31":13428,"ĠDjangoTe":13429,"ĠDjangoJSONEncoder":13430,"Ġpycompile":13431,"Ġpyepat":13432,"Ġpycoco":13433,"Ġpygments":13434,"Ġpyotp":13435,"Ġclassname":13436,"Ġclassifiers":13437,"=\"%":13438,"=\"([^":13439,"=\"%(":13440,"minGP":13441,"minkowski":13442,"ĠImports":13443,"ought":13444,"envbuild":13445,"lasse":13446,"typeshed":13447,"splitlines":13448,"lustrate":13449,"fixup":13450,"cik":13451,"ĠBaseConnection":13452,"ĠBaseHTTPError":13453,"ĠBaseGeometry":13454,"ĠBaseEnvironment":13455,"ĠBaseStorage":13456,"ĠBaseConstructor":13457,"ĠBaseRepresenter":13458,"ĠBaseEntry":13459,"ĠBaseEngine":13460,"ĠBaseJSONSerializer":13461,"ĠBaseSchemaGenerator":13462,"ĠBasePickleSerializer":13463,"Ġreadable":13464,"BaseCodec":13465,"BaseCandidate":13466,"BaseReporter":13467,"BaseSpatialFeatures":13468,"oundCloud":13469,"itya":13470,"Ġuserid":13471,"Ġupstream":13472,"Ġresidue":13473,"numB":13474,"Ġ|\\":13475,"Ġ|___/":13476,"Ġappauthor":13477,"Ġchecked":13478,"Ġcheckpoint":13479,"Ġcheckperfect":13480,"Ġnodelist":13481,"aft":13482,"Ġimply":13483,"ledPil":13484,"installer":13485,"installation":13486,"rav":13487,"Ġ\\|":13488,"Ġ\\_/":13489,"Ġ\\.|":13490,"Ġtorchaudio":13491,"ĠDOCUMENT":13492,"ARRAY":13493,"DictMetadata":13494,"workers":13495,"DEX":13496,"DEEPGRAM":13497,"FILTER":13498,"ĠConstants":13499,"ĠConstructor":13500,"ĠConstraint":13501,"ĠConditionalGetMiddleware":13502,"UNIMP":13503,"Ġzmq":13504,"Ġzoom":13505,"Sets":13506,"SetPro":13507,"SetTarget":13508,"SetConsole":13509,"ĠkeyVal":13510,"buildSharedData":13511,"ĠVersionedResolver":13512,"calage":13513,"calBar":13514,"Ġkd":13515,"Ġkick":13516,"ĠHTTPRangeRequestUnsupported":13517,"byref":13518,"ĠUsername":13519,"ĠUserbot":13520,"ĠUserInstall":13521,"Ġsubtle":13522,"Ġsubwidget":13523,"Ġsubtract":13524,"Ġnever":13525,"ĠrunList":13526,"ĠrunEnumeration":13527,"ĠrunRevIP":13528,"testcase":13529,"also":13530,"Debian":13531,"ndim":13532,"videop":13533,"='%(":13534,"='.')<":13535,"Ġpopen":13536,"alledCandidate":13537,"ALLOW":13538,"aste":13539,"ĠDistutilsModule":13540,"ĠDistutilsTemplate":13541,"ĠDistutilsByte":13542,"addauth":13543,"addnext":13544,"addons":13545,"addWeighted":13546,"addprofanity":13547,"ĠNotes":13548,"specify":13549,"Ġlaunch":13550,"),))<":13551,"pythonlib":13552,"Ġimt":13553,"processError":13554,"ĠtestSerializer":13555,"aria":13556,"maximum":13557,"ignored":13558,"ignores":13559,"Parts":13560,"Parameter":13561,"tinJSONField":13562,"Ġsomehow":13563,"NUALL":13564,"NUMERIC":13565,"ginFilter":13566,"short":13567,"shallable":13568,"ĠSetMode":13569,"ĠSetTarget":13570,"LSitemap":13571,"Ġjnp":13572,"Ġjoints":13573,"Ġassign":13574,"ĠReturnDict":13575,"Ġresulting":13576,"Ġinstaller":13577,"ClientConnection":13578,"Respect":13579,"Ġopening":13580,"Ġopenapi":13581,"Ġlegal":13582,"Ġprange":13583,"#######<":13584,"GenerationError":13585,"][-":13586,"blobs":13587,"lanation":13588,"near":13589,"never":13590,"optparse":13591,"ometries":13592,"projectDepth":13593,"NotNone":13594,"NotAl":13595,"NotModified":13596,"NotReady":13597,"issant":13598,"subclass":13599,"submit":13600,"subdomain":13601,"subfinder":13602,"subdomains":13603,"subtract":13604,"subsInScope":13605,"checkout":13606,"Ġanyone":13607,"ĠStark":13608,"ĠStrip":13609,"ĠStudio":13610,"prefixed":13611,"ĠĠĠĠĠĠĠĠĠĠĠĠĠĠĠĠĠĠĠĠĠĠ":13612,"Encapsulate":13613,"Ensure":13614,"akKey":13615,"akinator":13616,"ideal":13617,"LOCA":13618,"UTC":13619,"ValueMixin":13620,"ValueValidator":13621,"Ġsqlite":13622,"ĠOrderable":13623,"ANK":13624,"Keeper":13625,"])[":13626,"])):<":13627,"])))<":13628,"])**":13629,"translator":13630,"nsfw":13631,"Ġbackward":13632,"Ġbackslash":13633,"123":13634,"Ġspin":13635,"Ġspots":13636,"WEST":13637,"disconnect":13638,"discovery":13639,"Ġinteractive":13640,"Ġinteractions":13641,"ĠInvalidCache":13642,"ĠInvalidSession":13643,"ĠInvalidMigration":13644,"ĠInvalidScheme":13645,"Profile":13646,"Progress":13647,"Protocol":13648,"Protocols":13649,":`(":13650,"EXP":13651,"FileHandler":13652,"john":13653,"Ġchars":13654,"Ġsynony":13655,"ĠJr":13656,"ĠJointsDataset":13657,"ĠJohn":13658,"ĠJoin":13659,"laylist":13660,"40698":13661,"created":13662,"ĠwriteEnum":13663,"ĠwriteList":13664,"ĠwriteScan":13665,"ĠwriteCrawl":13666,"Ġaddrs":13667,"!=|==":13668,"linestring":13669,"Ġrestart":13670,"ĠmaxEnumerationTime":13671,"CodeGenerator":13672,"HTTPSHandler":13673,"HTTPRangeRequestUnsupported":13674,"Ġbottle":13675,"KeyError":13676,"Ġglobally":13677,"InfosetFilter":13678,"ĠExact":13679,"ĠExample":13680,"ĠExpression":13681,"ĠExclus":13682,"ĠExtraction":13683,"ĠExecutor":13684,"Ġbuilds":13685,")))":13686,"))//":13687,"))))<":13688,"IDataset":13689,"IDomain":13690,"Ġaccur":13691,"ĠcreateParser":13692,"structure":13693,"RequestHistory":13694,"RequirementInformation":13695,"Ġvalids":13696,"Ġvalidator":13697,"Ancestor":13698,"IOMot":13699,"YELLOW":13700,"without":13701,"Ġidna":13702,"logpm":13703,"wordResetToken":13704,"ffmpeg":13705,"patParser":13706,"white":13707,"Ġ[\"_":13708,"Ġserving":13709,"weakref":13710,"Ġapk":13711,"Ġapis":13712,"systemLoader":13713,"Ġcorresponds":13714,"RIDE":13715,"RIMARY":13716,"Ġops":13717,"ĠGetPayload":13718,"ĠGetAdd":13719,"ĠGetFull":13720,"ĠGetTokens":13721,"ASSE":13722,"ASYNC":13723,"Ġ2018":13724,"Ġperms":13725,"Ġpercent":13726,"Ġperiod":13727,"Ġsuffer":13728,"Ġsummary":13729,"aching":13730,"Select":13731,"linker":13732,"ĠDetermine":13733,"ĠDevSt":13734,"ĠFileCache":13735,"ĠFilePath":13736,"Ġwheels":13737,"versee":13738,"Compose":13739,"Composer":13740,"CompileError":13741,"notes":13742,"Ġobjs":13743,"ĠAPIException":13744,"ĠRequestException":13745,"DIGE":13746,"GEOME":13747,"Ġboyut":13748,"ĠProfile":13749,"ĠProcess":13750,"ĠProjectState":13751,"')]<":13752,"CUB":13753,"CUDA":13754,"DatabaseIntrospection":13755,"NodeBound":13756,"Trans":13757,"nodelist":13758,"nectTimeout":13759,"oids":13760,"Ġ\"<=\":":13761,"Ġveri":13762,"ĠverStr":13763,"ensions":13764,"Servicer":13765,"hashable":13766,"Ġgrouping":13767,"Ġgroupby":13768,"Ġexplain":13769,"Ġexploring":13770,"Ġexponential":13771,"Ġexplanation":13772,"PythonFilter":13773,"PythonSerializer":13774,"Toml":13775,"ViewError":13776,"Ġ45":13777,"ĠWest":13778,"ĠWeapon":13779,"ĠWeakKey":13780,"ABIF":13781,"timer":13782,"Ġtypeshed":13783,"Ġrepeat":13784,"Ġresolved":13785,"Ġmanifest":13786,"3333":13787,"ventory":13788,"Ġheatmaps":13789,"Ġheatmap":13790,"responses":13791,"Ġuploader":13792,"noise":13793,"player":13794,"playlist":13795,"playCodec":13796,"Ġoverlap":13797,"riptor":13798,"Ġprefixes":13799,"rites":13800,"Ġ'/'":13801,"ĠDistributionVersion":13802,"ĠDistributionNotFound":13803,"(((":13804,"((.*":13805,"hesis":13806,"PREFER":13807,"PREPGEOM":13808,"Ġignored":13809,"ĠSSVE":13810,"ĠDataFrame":13811,"Ġpointing":13812,"CharSetPro":13813,"']=":13814,"']).":13815,"FAVORITE":13816,"Ġconverting":13817,"Ġconverted":13818,"0006":13819,"0007":13820,"ModelSerializer":13821,")::<":13822,"GetFormat":13823,"GetHeaders":13824,"GetResultByVuln":13825,"writeable":13826,"erticalBar":13827,"Ġtargeting":13828,"fileno":13829,"âķĲâķĲâķĿ":13830,"ĠPyTrie":13831,"ĠPyQt":13832,"Ġrandomize":13833,"Ġattrgetter":13834,"AnyDBFeature":13835,"ĠresultsList":13836,"ddl":13837,"sourceforge":13838,"FoundCandidates":13839,"interest":13840,"intersection":13841,"interpolation":13842,"interspersed":13843,"Ġfinders":13844,"ĠDouble":13845,"Ġviewsets":13846,"ĠMappingNode":13847,"ĠMappingProxy":13848,"âĸĴâĸĳ":13849,"Ġwhereas":13850,"Ġstreamz":13851,"###############<":13852,"ULTS":13853,"APIs":13854,"APIView":13855,"FilterStack":13856,"tenacity":13857,"ĠQRCode":13858,"Ġpasses":13859,"postrelease":13860,"aucr":13861,"sitemaps":13862,"Ġenums":13863,"Ġextracts":13864,"ĠextractMetadata":13865,"\"].":13866,"osen":13867,"targetSum":13868,"Ġsketch":13869,"ĠCacheHandler":13870,"ĠCachedDns":13871,"ĠNames":13872,"ĠXSS":13873,"ĠXLN":13874,"rowd":13875,"Ġpdf":13876,"Ġpositive":13877,"Ġ2002":13878,"Ġ2005":13879,"InvalidVersion":13880,"InvalidTimeError":13881,"StatusCode":13882,"StatusMessage":13883,"Ġfiltering":13884,"Ġfilterfalse":13885,"IdInvalid":13886,"Identifier":13887,"TERS":13888,"origin":13889,"Ġautoclob":13890,"urlsplit":13891,"idxkeep":13892,"Ġpartially":13893,"ĠSequenceNode":13894,"prices":13895,"prerelease":13896,"warmup":13897,"warpAffine":13898,"Ġmatrices":13899,"2701":13900,"StringConverter":13901,"TextType":13902,"ãĥª":13903,"ãĥ¡ãĥ³":13904,"ĠZipInfo":13905,"ĠZERO":13906,"Ġendian":13907,"Ġkeeps":13908,"Ġkeepcharacters":13909,"enums":13910,"enumerate":13911,"ĠApps":13912,"ĠApplication":13913,"ĠAppRegistry":13914,"ĠEnable":13915,"ĠEngine":13916,"ĠEntryPoint":13917,"TES":13918,"TokenConfig":13919,"gdriveTools":13920,"monospace":13921,"modname":13922,"Ġsizeof":13923,"ĠArchive":13924,"Ġdecoded":13925,"dumpster":13926,"tables":13927,"âĢ¢`{":13928,"Ġqbit":13929,"Ġqba":13930,"Ġentre":13931,"installable":13932,"Ġtablo":13933,"domainEnumerator":13934,"âĸĪâĸĪâĸĪâĸĪâĸĪ":13935,"âĸĪâĸĪâĸĪâĸĪâĸĪâĸĪâķĹ":13936,"âĸĪâĸĪâĸĪâĸĪâĸĪâĸĪâķĶ":13937,"COMPATI":13938,"SerializerInspector":13939,"OperationHolderMixin":13940,"cryption":13941,"ĠTextField":13942,"ĠTextCodec":13943,"ĠTextEmbedPayload":13944,"ĠTextarea":13945,
[...]
